node {
  name: "global_step/Initializer/zeros"
  op: "Const"
  attr {
    key: "_class"
    value {
      list {
        s: "loc:@global_step"
      }
    }
  }
  attr {
    key: "_output_shapes"
    value {
      list {
        shape {
        }
      }
    }
  }
  attr {
    key: "dtype"
    value {
      type: DT_INT64
    }
  }
  attr {
    key: "value"
    value {
      tensor {
        dtype: DT_INT64
        tensor_shape {
        }
        int64_val: 0
      }
    }
  }
}
node {
  name: "global_step"
  op: "VarHandleOp"
  attr {
    key: "_class"
    value {
      list {
        s: "loc:@global_step"
      }
    }
  }
  attr {
    key: "_output_shapes"
    value {
      list {
        shape {
        }
      }
    }
  }
  attr {
    key: "allowed_devices"
    value {
      list {
      }
    }
  }
  attr {
    key: "container"
    value {
      s: ""
    }
  }
  attr {
    key: "dtype"
    value {
      type: DT_INT64
    }
  }
  attr {
    key: "shape"
    value {
      shape {
      }
    }
  }
  attr {
    key: "shared_name"
    value {
      s: "global_step"
    }
  }
}
node {
  name: "global_step/IsInitialized/VarIsInitializedOp"
  op: "VarIsInitializedOp"
  input: "global_step"
  attr {
    key: "_output_shapes"
    value {
      list {
        shape {
        }
      }
    }
  }
}
node {
  name: "global_step/Assign"
  op: "AssignVariableOp"
  input: "global_step"
  input: "global_step/Initializer/zeros"
  attr {
    key: "dtype"
    value {
      type: DT_INT64
    }
  }
}
node {
  name: "global_step/Read/ReadVariableOp"
  op: "ReadVariableOp"
  input: "global_step"
  attr {
    key: "_output_shapes"
    value {
      list {
        shape {
        }
      }
    }
  }
  attr {
    key: "dtype"
    value {
      type: DT_INT64
    }
  }
}
node {
  name: "global_step/VarIsInitializedOp"
  op: "VarIsInitializedOp"
  input: "global_step"
  attr {
    key: "_output_shapes"
    value {
      list {
        shape {
        }
      }
    }
  }
}
node {
  name: "global_step/cond"
  op: "If"
  input: "global_step/VarIsInitializedOp"
  input: "global_step"
  input: "global_step/Initializer/zeros"
  attr {
    key: "Tcond"
    value {
      type: DT_BOOL
    }
  }
  attr {
    key: "Tin"
    value {
      list {
        type: DT_RESOURCE
        type: DT_INT64
      }
    }
  }
  attr {
    key: "Tout"
    value {
      list {
        type: DT_INT64
      }
    }
  }
  attr {
    key: "_lower_using_switch_merge"
    value {
      b: true
    }
  }
  attr {
    key: "_output_shapes"
    value {
      list {
        shape {
        }
      }
    }
  }
  attr {
    key: "_read_only_resource_inputs"
    value {
      list {
        i: 1
      }
    }
  }
  attr {
    key: "else_branch"
    value {
      func {
        name: "global_step_cond_false_9897"
      }
    }
  }
  attr {
    key: "output_shapes"
    value {
      list {
        shape {
        }
      }
    }
  }
  attr {
    key: "then_branch"
    value {
      func {
        name: "global_step_cond_true_9896"
      }
    }
  }
}
node {
  name: "global_step/cond/Identity"
  op: "Identity"
  input: "global_step/cond"
  attr {
    key: "T"
    value {
      type: DT_INT64
    }
  }
  attr {
    key: "_output_shapes"
    value {
      list {
        shape {
        }
      }
    }
  }
}
node {
  name: "global_step/add/y"
  op: "Const"
  attr {
    key: "_output_shapes"
    value {
      list {
        shape {
        }
      }
    }
  }
  attr {
    key: "dtype"
    value {
      type: DT_INT64
    }
  }
  attr {
    key: "value"
    value {
      tensor {
        dtype: DT_INT64
        tensor_shape {
        }
        int64_val: 0
      }
    }
  }
}
node {
  name: "global_step/add"
  op: "AddV2"
  input: "global_step/cond/Identity"
  input: "global_step/add/y"
  attr {
    key: "T"
    value {
      type: DT_INT64
    }
  }
  attr {
    key: "_output_shapes"
    value {
      list {
        shape {
        }
      }
    }
  }
}
node {
  name: "normalize_element/component_0"
  op: "Const"
  device: "/device:CPU:0"
  attr {
    key: "_output_shapes"
    value {
      list {
        shape {
          dim {
            size: 749
          }
        }
      }
    }
  }
  attr {
    key: "dtype"
    value {
      type: DT_DOUBLE
    }
  }
  attr {
    key: "value"
    value {
      tensor {
        dtype: DT_DOUBLE
        tensor_shape {
          dim {
            size: 749
          }
        }
        tensor_content: "\370\356\342?\325O\311?g\276\234<\331\213\335?\320\372J\326\227\233\340?(\2028\017\'0\331?\337it\377?k\327\277\242X\270\366O\201\324?\203\034\357\351EH\323?\343\214\0372\376\340\274\2771Q\316a\010J\304\277\237\273n[\245\305\325\277\020\243s\300\246u\325?\302by\374\203m\333?\036R-\236Q%\253?\375\264\233*)A\332\277.\207\304\332kC\325?\244\221*\345\020\314\323?\205c\257\332\251\367\306?\202>.\375\215n\330?\224\033\301\235v>\326?\353:\0227\300/\266?0O\204`\227\331\316?v\250d\010\031+\311?\235\203gB\223\304\332?R<\364\376\273\025\325?\366T\332$7\361\323?\234T\260\235ZC\325?\300\300\275|\374\257\341?\333\246x\\T\313\331?\000\231\214\031\227\240\340?\020\222\211\204\204\342\327?\245\031\346_&\245\324?\316\225{`K\270\327?\331K*\205\006\003\332?j.\334^w\337\310?c\334\303\024\233\305\330?\307*\245gz\t\346?|H\266\302\r\033\320?>\344\322\235\314\244\330?\274KV\003\234\367\332?\013u\375\'$>\307\277\353~\004\264cY\333?\231\024\335\202\276\027\326?\361\364JY\206\270\327?\335\351\357!\270|\333?k\021\356!#\230\324?\323\264\264\350\327\265\315?g\264\372\217\361M\330?\214\246\253\"y\272\330?\220\026\302\305\345\223\340?\235:\003\341\022Y\333?\373\371\337\337\332\350\306?i1\035\337\203|\346?\317%f\007\246d\322\277F\330\246g0|\317?(\224\215 \370\314\325?hg\207\256\372\022\316\2771\365N`\225\346\303\277\202\230|\2320m\307?\264\377\"\344\223\200\327?\214\323\326\251n\205\313?\371o\271Uk\274\277\277\363\032\375`\307\034\307?j\345w\375\366s\327?\357\0326\302\211\205\304?\252l\355\267U\024\312?=S;\005\361(\320?0\344d$s\223\302?\2310\365N`\225\326?U\271\263#\223\033\321?X\254\300\024\016R\267\277\021]\'`\001\355\331?5\251\025d\323c\325?Wsg\303\355\322\331?\254\013.\014G\306\330?\016\335\354\017\224\333\303\277\371\353\241\277\310\262\350?\224\374FC\337\300\310?\372\272\312\342\027\201\322?>\306\201\374\021+\333?z\223\370?4\261\273\277\255=\242\370\347\030\342?q\345\252\201\377\020\274?o\010\372\260\203\357\334?\206\357\365\234\221\224\326?\363A\350\003v\363\326?\315\316\370w\343\310\216?C\214[\365N\277\313?\033E9E\005V\327\277\277\007T\244g\037\327?\342\001\310}i\331\320?\271\341V\305DX\325?\363\246\205?\201\177\327?\220\354[\367\240\261\321\277\246Lb\367\272\230\311\277b\010J\033XX\320\277\274\3774Z\263\272\316?\306\335\210=\240\253\216\277\354\214JE\276\246\341?\2321\273\335\201\320\341?\245\374b\276\325\035\265\277.x,\021\0038\325\2777\010).}\236\327?\326s\220\337\364\221\331?\200E]\357\'\370\262?|-\246\241_\276\310?<\370\313\037\272}\333?p-\254~\031\212\323?\252\031\010\270\326\315\324?n\030\303\244\021\226\327\277\274\311\322\373\204\273\306?\217\216\253\221]\351\320?\3109\271\370>\311\307?}\275\322d\214\260\316?\360\305Q\230{\361\311?C7\373\003\3456\333?\306*\357\364\224\346\330?\302 7c\233\313r?5i\t\350tO\344??\227\241\330\247\357\305?\205$q^\265\025\320?3\031\216\3473\240\327\277\336i\235~q\245\325?(c|\230\275l\321?\273\355\245\235X\257\306?\002\213\025\230\302A\304?4\265\021\364\274\300\324?y\327\321\0377\217\320?\245\230\315-\276\262\325?Y;\202\002\214:\303\277ZM2\315\317\250\346?h\213\020\303\263\251\306\277\221\214D\204YJ\251\277\207\257\247\004a\272\320?\316\344\366&\341\235\321?\220Q\032A\225\340\274\277\367\364\350x\222\225\310?\353\232\034\200\005\227\310?\005\336\013\304\231\374\323?\312\317>=S\373\331?\032\276\350\237\236F\322\277\365\317\272\343\240\306\323?\337\252F\n\300\232\323?\360\220\2759\267\344\336?\\\254\352\335\006R\331?`gT*\362\265\326?`\263\226\341\303\025\320?\235\007\301\364\007\224\332?\004e\t!\326Q\307\277\246\370S>_\016\325?\374}\326g\224\317\312?e\002\2708\256o\265?\311\321w\022l7\323?<,\317\341,\265\276?\377\305\267\240\214\253\336?\003\243\201\016\251X\310?k\341&a\256\236\326?\010de\352d_\230?\346\323:\334\324a\307?\003Z>\273\021\320\327?1\244\232\304\346\004\326?\\\253=\354\205\002\302?\037\224\203\033!\252\332?r\204\220\034~q\303?\256@\035$~\244\325?\310\271\250q\3127\321?\224\243\000Q0c\323?\020\271\317\340\245*\347?\333\313\256b\216\261\324?\327(\024\267D\r\301?\370X\362_\275\235\333?O\3333\t\346\001\305?\221\032\311\324\023\314\320?\207\0147\"\020\326\324?\000\240\324\250\321\365\326?S\344s\233.\223\327?\364\031q}/\360\326?>\373\272\241cf\325?o\207\341~\033\235\340?\210\365%\237GZ\316\277\025\257Y\376\341\206\250\277\266\200\022\227\312\370\311\277\307\246\256\337\300\342\326?\027sc\274\336d\310?\210Q\214\003\0322\320?\036\007V\274.\217\320\277d\205\021\261w5\336?\306\355D\007,\322\312?Z$q\177\303\376\327?o\020\255\025m\016\305?\251\206?\273*m\320\277-\353a\334\313E\325?\032\003\004\326\036\264\312?e\362\027\304Q\003\305?\233\367\007\343\n\234\255?K\245\247\341\276\002\263?\314\364\350\231\240~\315?\357z\304Cs\270\331?H|Y\240\376\257\302\277\324Orf?{\306\2775\314\022\225\364\315\272\2772\254$\252\236i\270?Z\244\3440\363\370\336?;H\231\036^!\314?\267-\302\373G\362\330?u,c\001\033i\326?\214\314\361D\357\330\317?\352\200\332^\301,\332?\267\353\3067\353>\314?\022o[c\351f\321?\267K\362\216\031\311\277\277;,`D\323\000\323?\240\330\257\340#\007\304?:\201\237\'T&\312?\r)\263\377\tG\340?\331>\211t\344\355\335?\316j&\204\263@\336?\3430\252\242\376\316\254\277Rj\212[`j\302\277\316\220\205C\312\352\342?\350\260\261\001\307\224\325?\025Q\270\303\313x\271\277*\344\010!9\374\333?\265E%\267\036\354\310\277U\224\"d\346#\312?\307r\277\0015\216\322\277\353t\377\334\300\262\310?/\375\307\031\365\326\307\277\300C\024=7\007\236\277\261GM`\337\363\327?\ni\215A\'\304\325\277\2327V{;6\304?\334\276\242\266h\334\324?9\227f\343V\373\330?\214\247S[@!\224\277\216\202\226d\323\200\327?\266\217\252`3\304\322?\326n`\027\352U\315?}~s\332\256+\330\2772\306\352\003\207\237\303\277\004MS\035\325\035\323?V\367#\240\035\213\335?\303[\214&\274)\324?\224\360)\245\014\201\326?z\252\340C\313r\331?\032t[\205A\027\333?O\022\001=\303\n\327?\307\222\305?d8\334?N\364\226\376g\305\301?[\220\261\003|\361\330?\333;\376f\275s\314?\235\304\326\"X\213\311\277\357\251\377 P\205\315\277%^\371\207\210v\325?\003M:\2004R\322?<\247r=~-\333?\214\005\317\316\263\343\342?$\336\317cs\331\326? z\326^\331?\325\277Z$\222\215\254a\344?A\235\217\276\213o\331?8\013b=Ad\340?|\360\332\245\r\007\307?\233K\273\342\363\324\271?r\303\214|\240\r\307\277z\305S\2174\270\303?\250&\230\234\240n\330?\300(\275F\375\273\310?\347$\255[\261}\232\277\241\310\007\373~\003\320?E*k\037\033\226\310?eK\177\304\351\003\300?\262\217\343\301\365,\311?\344\327r\333|+\306?<\317+\340\226\366\302\277^nj\177\353\263\305\277\324\222\267\361a\325\262?\350\'A$\350\324\334?w\333\205\346:\215\301?\r\300\'RqN\267?\320\323\302]\244\255\325?\343\244Q\375ZI\327?\361\360\340\037\235\327\321\277\270\236\327\216\230\017\332?k\371\334d\257\322\324?c\341[\300\032S\263?p \311Q%\257\344?\277%B\033g\260\325?*\215V\275\025,\326?\035\223\305\375G\346\326?v3\345;\337\354\327?#\204h)0\317\300?\002+\352@\224\267\263\277\264\263\001;\253\003\327?\251v<\034\023\030\326?\235M\344\325{\"\316?\215bV{\032\250\335?7tq#~(\321?\341\007J~\202\223\343?\0237\372\332+\332\277\2776\200\320\335\"\356\336?G{\027J\201\340\321?\341W\223D\202\353\321?O^\277\273\360\336\320?\226l\310\201O\332\303?>Lo=\022H\310?\333P\020\300\366A\341?\233\301\204v\363y\327?IA\\\336\301\264\336?\300+\335\270 6\324?Z\236\305Z\225\347\325?\014O\371!\200%\327\277Ps\217\370W\007\306\2777\354k\033N\262\315\277AL_[\201\231\311\277\265\332&\211\343H\310\277\333\300_\304%\244\326?\342\306\261\036\214\022\326?\004H~\016=s\315?\336\0003\337\301\317\274?\002p\201>p\031\312?{\026\204\362>\016\323?\031~\005\243q\254\304\277\366\247\001A\210}\306?\255\243\252\t\242\356\327?\210~\252`\r}\270\277\345\232\300|\313\277\321?,\274h\033\301\276\276?\004\030\371i\232\377\311?\272Bi\271}\240\326?\302\000\035A\205~\332?}P\202\304\227\205\324\277\211\020\364\243#\261\276\277$\257sx\255)\313?\3235\310a\206\177\222?\026\233\373P\016\213\336?\362l$Cm\237\335?\337\013\003\376?:\273?\355l\237\300\001\316\320?5\027\013\205\000\007\324?!\366t;\034Y\307?K\3652\304\220\240\325?\032W\267\325\007\355\326?\273\307\004\302o\277\331?\007\013\006[\025v\314?g\221\324\337\236i\321?\252\313\020d\220}\333?v\322\014\363/\023\326?oJ\026\203\311\305\321?\305\034gGh\323\311\277k\341&a\256\336\310?8\305>\\\315\025\331?\313cQ\001\305\202\334?\350\337h\246\377\325\270\277\254,]\003S\264\300\277\300<\350\002,\254\316?\334w\024\000F\304\330?\005zU%\231n\330?\0027\336_5\375\323?\235\376\005\345*T\300?@\257.]w)\312?6~<O\227`\344?5\030\331\204j9\261\277v\256\203\336v\274\322?w\321_\001\257C\304\277\006\006\367\240\363\034\335?7K\321\343Z\241\324?XJ\"==\335\326?\273\235\330\236\264\013\325?\177\263A\344\374&\322?n\337\243\376z\305\320?\002\343\215\212\007-\305?H\232\354]\213/\307?O\026\347=\010\340\314?c\000\362o\341\212\311\277r\336A\344\333\230\323?q\230`\037:\220\330?^wF\235\261V\320?\373\306|\345\346\300\326?;\231n\310\365\245\317?\226\2606\306N\370\327?>Da\037\266W\334?\221\254O{B]\330?\2018\223_\324(\273?\324z\205&\005\355\314?#J\275\237\001\022\322?\374b!\000Y\004\307?\231\324T?\004\017\321?9z\241%4n\321?\210\263l\367\274\254\322?\377N\244E\307\237\301\277\361X\277\333\264\000\307\2777\244\366\307 \034\326?\245\3507\002\247-\346?\355Xt\004\323\335\305?\007\351\214\234Ca\333?\321Nz\235\334\010\317\277-\317\244\311\234\031\313?T\275F\334\2556\320\277\272ui\211\266\337\301?\211\200\340}\227J\261?\266\235[\215\221\221\326?\323\031\326\\\207M\323?\326\255}\205\365\224\315?\201\246\261\3772\306\272\277\002}\307\225\037\335\334?\252\020\217\304\313\223\323?\3232R\357\251\234\303?H\231\242\226\305\310\300\277k\242l\035^\010\300\277\020\376\311\010=\325\302?n\':`\221\276\320?\264\306EZ\317\265\304?\353\253\253\002\265\330\342?\327$\211or\t\317?\223jD\325T\273\305\277\246\003a\300\365\225\332?\245\314\274\013J\207\302\277.P\326\230\245W\306?\014\261\227\371P\232\312?Z\231\266\240s\216\325?\320\022\236\257\335f\207\277\261\252\2717\032\233\302?2l{X\373}\267\277-u\363\001?\362\323?\242i\344ND\032\306\277\032p\320=oS\320?\227\302(\255d\254\342\277\037l\312x\010\241\307\277\247\313\244~\305w\324?\361^\275\243)\257\262\277\355\177\343\337%@\332?lH\365\000\212\017\340?\014\372\271>\377\377\317\277\213\273\007\t\315\005\314?\177\213\312]\266c\307?\261H\2705\216\375\322?\207\327\232R\003\362\326?\2071m(J\374\315?Z\261\tz\271\231\324?\344H\014\247q\024\306\277E_\346\340>\327\350?\353l\257\242\222<\320?\r\030E\213Ch\262\277\002\002\347\326\265\207\303\277\362Tn?l\353\330?\317\301\361\204w\334\332?\262\310\002h\214\275\313\277\372\227\2442\305\034\301?\030o\022 \226O\327?\370\322\312s3\222\333?\034E\326\032J\355\321?\037J\264\344\361t\334?\251\234\335\367\373\007\272?b1\352Z{_\330? K\366:o\204\324?6d4\331\334$\303\277I`9c\024\333\320?]\2613C\262Y\325?\356\253\027\350\177\336\313?\375\323\330!\250a\236\277c\345~$x\005\317?\302?\327\204\325T\313\277\250\317\243\034\253\230\316?S\353\232\034\200E\324\277\304XK\246\257\214\240?\206N\266\036\021\025\322?,x\033\345\252C\314\277\363\201J\200\2150\274?foB\204,\311\315\277b.\251\332nB\322?\202\036j\3330J\332?`\031~\344\224H\332?&Wo\334{\033\332?\205\315\245]\361\371\302?k`\355 ]\t\327?\313\377\334~\226\372\330?&)\237\324M\030\321?\'[\023\301\356*\325?\204pX\\\024\244\326\277\336\2059\203\267\256\326? \324\240\303\327r\326?\257\252E\341\006>\301?\231\220\244\3362\213\340?\324\325\374|\204/\321?4-\220$1V\321?\3472\373]T\342\334?\246D\320\240\272\034\254?\226\275[\017\025\231\321?q=\310\272\321j\322?\3244\336\014\355R\306?(\\4\t\203W\303\277\310\234%\320y\360\275?)\3305\020\201\231\340?\374B\300\010\267\010\303?\310\316\333\330\354H\322?\365o\362\266-\245\342?\nuG\265>\033\322?\332\005 A3\000\341?\337\311\237Vnu\310\277\365_k\337q\244\340\277\273\300\233$L\307\325?n*\367\247\371O\326?1\266\020\344\240\004\305\277U\272`\025\024\253\305\277\2321\232\317\230\315\275\277\252,\206\202\204\356\326?*^\033\3408\337\310?\234\017\225g\332U\314?\324\355.H\341\027\312\277\201\013\r\037l\214\324?\251\303\310\232\252^\324\277;,\273\375ER\325?a\005\256\341\330\351\332?\375An\320\250\n\323?[b\334B\224\205\250\277\320\367\256\234\030\355\335?\356\325\"\375Q/\343?k\320~A^\321\334?\345\216M\336?\227\240?;k\\\244\365\334\343?\031S4\377}\200\326?\273\262\217>{h\312?z\223\370?4\361\322?\334\3423<j\n\330?\225\271\226\034\271f\325\277\321\254\256;\304\034\323?\313\0308\003\320&\322?\343\271\010\235!\346\317?\246\020#\337\000\016\302\277\223d%\377\366i\326?\363\321\230\377F\361\317?\210\232K\036\r\357\320?@5\034\236wF\324?d\335\313\277\216&\331?N\335K\320\025[\276\277\260\033:fn\370\276?\234\007f;\225\302\303\277\344\343\250\026\3606\306?\345\004\022\271\205\323\326?\222\312\024s\020t\317?\006\200\t`\363_\345?RI\235\200&\202\322?\271\243A\002-z\312?w\251l\263\014\314\273\277\225\321\n\004\350T\336?\336l9\270\360\023\303\277\275&\234\304\275\005\301?W\264\030\300\204\037\324?\027\033F\203\014K\326?\250\323.d}\334\323\277U\344\306\343XM\315?\372#\322W\014\256\307?\373\316\212\003C1\323?\277RL\224s\030\346?J\036W<Xs\317\277\3643X\345\000\311\324?\223\033f\344\003\355\327?\033\3700\377\021\233\303?\024\312%\002\223#\272?]k\020b>\213\327?\244~(\342\276\337\320?\032\"\033\006\373\310\317\277\374eAr|~\321\277\023_\263}D#\336?\300\215\234\236\332\215\335?\206\264\235!\342\207\307?(z\"\200\202\250\324?\266\222\251\304m\033\301\277}\263\315\215\351\211\320?=\231\240\0027\275\300?\212b\250y}\034\322?\350\035\300\205\351\271\313?\250\234\304Z[\374\317?(\273x\303\246\343\311?\224\376\271\303\201+\343?\0138\225V\215\257\341?\036\0249\351\"*\303?\2419\343\342E\362\326?\341\027M\035\232\350\307\277Y\240\037>\227\306\264?\t\361\324e)@\263?B\351M=\271\203\326?\225\311,\037\242\001\253\277\026\275\3279\233H\315?\230W\tq@\246\340?W\240\253\347\203\351\310?\2505\356I7\364\266?!\002P\275\034\223\325?X \325\013\231\206\275?\3761c\300H\236\322?\312\034G\203Fv\323?JV,\033)\235\321?\037\035\354\207\267R\302?2\347\327\336\300\207\321?\312\236\251|t\317\327?\331\004\275\334\314\215\324?6\314L@~|\324?|4\315\"\2610\320\277\342\225\301\244:\325\321?\207h:\\\'\005\326?\036\256\356\273\226\016\320?\002<\263n\315g\323?\303\227\r[Hz\311?\225+\233\275\\\331\320?!\013M\351\313\030\312?\321^\371\003P\322\310?\0003\204\010\335\n\344\277B\265^_-\357\326?lO\216\327\303d\232\277\332Bg\004\341+\331?\217\314\237F\214d\300?Z\312d\376\362E\314?\352\\QJ\010\326\325?P\023\246\275\373B\325?>\351D\202\251f\314?_\000\310\246\350\212\262\277\272k\307\334\316\341\331?;\000\342\256^E\320?\360U#\2425\222\306?& \344\304p\330\330?}\301\270e\321\005\324?2r\026\366\264\303\316\277\037\207hD\316\232\202?\310\253v\304V\r\232\277\255\326\354\365\254s\307\277I(\"hq\353\324?5\314u\277\257\266\331?\262d\320\0010\273\303?.&O\274w\022\300?J&\247v\206\251\314?vM\212\207\336\177\313?T\353X\000\256\277\301\277\301p\360}X\014\304?\221\331\223\237\330\263\326?\264l\265\240Zq\330?h\200E]\357\'\323?\274\361I\202\313>\331?\237\223\3367\276\366\322?\312Q\035\376\334\210\321\277\365\025b\375\270`\303\277\310\211e\351\371\211\324?\324\222\226\343x\362\327?\376\305\"<\220+\337?%^;\244Z<\325?-\245\374\336\205\261\336?\234\222\203D\240\033\310\277*\205H\237\271\373\331?y\245\362\227\222<\300?p, \233\201\035\307\277_]W\304\227&\334?j#\215\300\016\222\331?hk\022\366\314\026\262\277\226jU\001\255/\333?h5n{\314Q\336?\373\246\270\303\211\\\320\277\304\201\353\345\322S\306?u\361\216\276\017\250\276?\323,u5\036\021\323?%\177\322~\333{\256?\365\021\370\303\317\177\333?\333\331\001\036\353\276\270?~\2707\001~\264\322?-&\364\002\005A\330?\3322\350\235mb\321?\356\0064\205\214\017\323\2770A\364A\"/\300?\365X\351\244\255\200\310?(\345\275\203\002c\325?\022\374\312\336\255\007\330?\t\250O\366\277q\301?h\211\235B\021\177\323?\350\n\276\202\227\r\320?\"\"\220\246\325\253\340?\312td\274\030\220\327?\264\314\001\006r\236\307?\274g\023\026\313\343\330?->G\334J\214\321?g\321R\261\345 \216?\024\254\026}\252/\306?\236/0\n\006\000\313?\232\204E$\216\345\310?@\364j\241\3409\272\277\232>;\340\272b\314?\010j!\226\007\310\313?|\030\357\001\231\241\325?\3261t\r\257\373\275?Z\226\267<97\316\277\025\275:dV\361\332?\302\346V\347\234\310\305?\362<\237\236\312\253\314?\222`h}\343\316\310\277R_\267\204SQ\310\277\377\251<\252/\005\302?\'x\371\214\372\332\306?P\216\002D\301\214\314\277\230a\253\035(d\333?\032\200\262\316\235\005\322?\304\250\265z\230\207\323?L\220l\tTZ\323\277\236\375\222\2363\263\307?\377\2301`$\317\333\277\322\207p\304A\337\314?\241\355=\001\271\351\307?Q\357\322\033(\317\311?\214\311\260\304\342;\306\277\007Zh\204\nP\331?f\265\351\235DC\343?O)\247$\210F\326?\202\322i@1p\300\277\030\036\342\274\213\271\320\277\232\354<}F\032\275\277\320\313\315\334\350\310\325?\006!j\354\\b\332?t\tE\302\020\034\316?\241\351\231\034F\332\302?\266\362\222\377\311\037\337?\251\016\034D)\251\330?\355\256\375\256\031*\260?\365\372\254\225}\025\313?\264\327\222\300\254\361\336?\016\225\261g\360\363\307?7\236\031\016\225\220\326?\222\002M|\234\306\324?\316\270\272\255>\350\326?\354\210dDy\321\313\2774mZ\204\275\344\320?\337\344\022\242\327:\324\277\006(\262{\227\367\327?\273K\034X\022\311\313\277\221\202\206\202B\322\324?\357\"\310\030\212\001\272?\212G\230X\317\377\341?\314\253\000\000|\307\303\277\306\272]\324\223\036\332?\032\nLeY\311\332?\010\360P\363\331*v\277kw\027A\306\020\320?B{\324\343\347\324\337\277\223\365a\336_\024\326?\277\233\260\365\363C\267\277F(\266\202\246%\276?\374,\355\220\366QJ?\364\253R\335\320\322\330\277\361\232\035\312\314\334\306\277\340(\334\237I\252\332?\225}\231 \321\241\320?\034\317F2\324\366\265?7p\346\333\253\244\337?\313@\257\211\026j\325?"
      }
    }
  }
}
node {
  name: "normalize_element/component_1"
  op: "Const"
  device: "/device:CPU:0"
  attr {
    key: "_output_shapes"
    value {
      list {
        shape {
          dim {
            size: 749
          }
        }
      }
    }
  }
  attr {
    key: "dtype"
    value {
      type: DT_DOUBLE
    }
  }
  attr {
    key: "value"
    value {
      tensor {
        dtype: DT_DOUBLE
        tensor_shape {
          dim {
            size: 749
          }
        }
        tensor_content: "\265\025^\366\2512\304?7\276\274!\tr\343\277\231\033\307\240\367\354\277?k|h\027\272\257\260?\250\267\222_7S\324?\326\327F~\365\037\306\277\327\343\315\000h\253\250?^\272\315D\2466\305?\303]\305\373\324%\312?\032\242\n\177\2067\344?\354\330J\340\275\000\337\277p\030\026\355;\220\341\277\356\305az\014 \346\2776+\364$]1\326?\325\255\277\241\307\332\337\277\333\356K!\203!\271?\322\315\027\336Yy\273?P5z5@i\332\277\210\226e\035\310Y\311?\270\026\230\333\336\352\335?\346\367\313a\326\017\327?\247I!w\256{\316\277.\357\303\244l\317\335\277\003gB\366\356M\317?\265\225,aL~\275\277\201\226lDI\253\313\277=\302@BZ\244\344\277\277\314\325a\025\007\253\277Q\322\r^\005b\342\277N7\014\303\240|\244?\325O\027d\255Sd\277\313\301\307\273~\\\343\277WW\313\276\247I\316?\263\270\234\236\271\377\315\277X\301\024\212\031\206\342\277:1\230}&\024\333?W(-\267\017\324\260\277o\270_\243\204\027\251?.t%\002\325\377\330\277ez\272\241\306\220\343?\352\267\n\275Y\036\340\277\017b\203_\314\221\270?q\207\246\034.\232{?[ \244\033\0375\332\277\244\255u\242W\025\255?\264\233\317oN\333\330?\251\213\261\237\007\257\335\277v>\362\275u4\277\277ao\377\035\223\375\337\277\034Y\236\254\275t\327\277\335\214\242 \333f\340\277\324\255*=\313Z\323\277\335\337\352J\025V\342?R\372\370:_\342\327?\263\221\224\201\266\246s\277\260\335\342\206\204\024\321?e\243Z\341\351\227\347?\202\230|\2320m\307?3\000\3208?\213\261?_<\007\277\242\225\304\277|\271p\234\353f\305?\337C\262\025nX\316\277\022\367\273$\214n\337\277t0\264\235c~\313?\340\013\233\032\313\350\300?O\327\352\335\345\303\305\277va\265C\r\260\347?R\266\212\366_\204\273?KJ0\213?@\340\277\224.\242\222\337\007\342?\374\345\315\300L\004\336\277\233%\\#\335\252\310?\\\202\276\272K\336\337\277\346\034\334\240mj\257?\364\362C\276\256S\307?9j\340\242\356\336\325\277n\351f\271Kf\263?S\250v\237F\216\336\277\356\226\344\200]-\345?\007\205\326\375B\223\311?\031W\032\000\303\325\341\277S9\222p\306\325\350?b\203\350\275\357\347\332\277(E\216!\276\333\321?\036>\002\342\"u\336\277e\312\342Y\335\205\347?,\225\340\242\315P\322?\256\314c\346e\301\316?\344\373\034\376\036\305\344\277!\210=\376\034p\341\277\023\324\021<\225\276\301?\373*\257KC\203\344\277\351\351\3106\025N\340?\226L\302C \260\321?\304\t\351|\272r\324?!\023[\007(\t\310\277\346\nJ,\2040\315?XLS\241\r\002\270\277\030\037,\204Q \264?\240\354\230\200\200\021\351?AV\001\010iW\325?;\007\205\367\013\254\327?E\245l\354m\016\346?~\202rx\224\214\305?\025I\005_\342\271\341\277\n\214{G\033\264\230\277\310\262`\342\217\242\344\277\032\223=\303M\246\223?e\237\215}E\216\326?\314\275\372W\332R\307?6\350\350D\304\205\334?\224\221H\025\244\235\316?\037\217\317\032r\342\341\277\224.\375KR\231\315\277\306\027\355\361B:\343\277\'3\275H\221\312\313\277\231t\204\241H\326\316?\277\245R\242\333\201\301?@\335\376d\245\254\322?z\227Ak4o\304\277\330\363\322\240\252\272\326?\247\020<|\241\031\301?b1E\024\356\260\345?\342T\020\250\243\210\305?p\314x|\367\036\311?\340R\204\212`\322\344\2777\n\377\330\3321\311\277\004EE\377xm\340\277\357\354\206\310D%\334?\200p\364\347\221\365\325\277\214\267|\301\372\201\336?\020\013\020`\354X\351?\307\262\252o\252\377\314?R\237\036\272$w\314?\021\025\221\376\3523\323?\340Fo]\326)\322\277\255\310C:\227\275\304\277\332\375\026\334\220\370\253?\333Y\354\335\274\304\305\277\246\202i\234v\306\336?g\272\266;\2246\276\2771\203\347\2246\213\342\277\255\220,?\364\315\303?H\222{\025t\326\341\277\003\003kI\005\035\250?\253`\257\013\232\261\345\277\324\177\326\374\370\213\340\277\334\341# .\322\332?\203)\0243\014i\344\277\020C\'[\217\210\327?[\251\261\316B\214\345\277\261\266s\2531\262\340\2775G\024bG\006\334?\254$\252\236i\325\342\277\313Z\267\377\320\345\332?\215\362i\241\246\216\234?\016\230\321\331\023n\304?<`h\277\377\300\350?%\204I\034rf\241?)a\340\230\351\207\262?\373\263\274\376f\332\347?E|\253\236a\244\332\277\t\261L\"ow\346\277\331\344\225\220\264\300\265\277\310Iz{\204\030\327\277\266\306V\206\'\252\272?_\267\347}\014k\302\277)ED\224\243\276\261?u\3254\326\233\244\310\277F\213}\023T\336\344?l\267\270!!%\314?=#\370| ;\324?\'C<\257\004\224\273\277\317\370\235\252k\202\254?\207\201\232\231\032\032\225\277\021\001\207P\245\246\341\2773\237\030\376x4\347?\357\r\014\300\t\374\246?\246K\367!\014O\335?Re\030w\203\250\347\277\355\216\030\177\323\242\321?\"\300\216\244IN\347?\377d\306\272<\306\317?7(\205le1\211\277{\350\314\207\261\026\344?\005\340\300`\016\r\341\277\325O\213\003\340F\320\277\337\325z\330n/\251\277I\264\354b\375\223\307?\254%6\202\001\302\341?.\302\3329I\312\260?XIT=\323\312\340?\021\266\216`\231-\331?\345\274\367\036\313\016\350?\215\030\311`\275\370\345\277\217\224\210K\351t\351?\375\374\333\213\206\221\210\277i4^_\220y\343?FW\361_\2032\345?\317\263\243\202\324\267\315?\367G\316x\021\\\351?\225\017A\325\350\325p\277\263LT\251\270\365\302?\321p\261?\334W\324?j\301\007\206\336\250\254?\t\n0\352b\354\307\277L\371\265\232\032\r\335\277\234\2016\336\302\177\346?v\226Q\023\032\024\261\277~\313\030\366\346\375\301?v\363\277\"\340\014\324?\223\232\352\207\340Q\315?(\251\002\244\354\343\314\277F27!\245\200\334\277|,\\\332\231\327\262\277\273\307\343\263\206\\\344?\357@\225\201\240/\303?\265\367Nq\301>\351?\032\263\231\0016\371\340?\231\032W\022\217\272\341\277t\225\017\275\234\304\311?\235\031\026\006\331p\265?\242\003\232!\270\276\342?=\335\222\177\332\246\350?\257\235\203\302\373%\343?Fa\325(=\266\304?\224T\"`\337\024\337?Ua\\?7s\351?\363\370\305\276\307M\325\277G\2753\034\307v\332?\345n\204\003)\312\307?\256Bo\2267,\306\277:\340_\251\323\246\336\277\271\221O\033\027\206\321\277.\246>5\003\301\343\277[\357\026\314\210\240\273?{5\233\"\033#\316\277r\367\336\204\347\312\334?\254?\035\352\322\232\341?_\330<<\273\344\257\277m\211\277\232\301g\322\277\n\343\365\000\340O\216\277\005\346[\376\307\262\270?\265\3229yp\373\273\277\272\241\347\036+\333\267?W\255\257\"ag\303?\311=]\335\261\330\306\277\324\266\202\"\355\261\311?\342\010\255\342\350\345\344\277\354\265,\241\263\263\306?\206\017x\242\0343\342?b\216\3241\235\314\341?\262L;\014\030\352\272\277\307[\225\341\313\006\271?\024\257\262\266)\036\345\277\361\\)\025\236a\341?\243\261\264[\344\001\275?*\"\036\344P\032\343?&\243Ni\222\022\301?\253(\034I\233\r\274?7\2245E\333\314\334\277\262\220\312^\000+\307?\334\226L>\013\374\313?\031\302\326\021,\263\350?\346\246\204bV\350\244?\022\337\005!\213z\301?\273\356\357d\036\326\326?\346\314\270\241\020^\351?\000\000\000\000\000\000\000\000\222\3406\350\205\232\301?Z\241\243\260\346\033\351?N\251}\000s\t\350?\227Zk\3775\346\276\277\243\361\372\202\314D\330?\220p\265\251\025\201\311?z48\276\264\360\327?\370\234\005\353I\252\311\277\026\r\337\343\310Z\334?j\346\177\250\352\024\345\277\2125\035\200[\027\266?\272\275\007\\\025\260\271?BM\302\277\347\213\335?\251k\355}\252\252\344\277\rjd\374\240S\341\277z\205\252=\221L\316?\364\276\226\374\364\204\330?\263\205\035O\226\035\200\277\031\0016\234\t\270\336\277\211\314\277\n\256\301\210\277\334\355\037\260\027\257\250?\242\270\302?\225h\307?~\002\203\377\010\336\331?q[\2661\321\273\346?\025\037\372I\020\t\320\277\367\327\341\236\235\002\323?\310\365J\264?+\341\277F\303s\000\016+\326?\307\233\241]*\333\271?\253\210G\240\311\227\313?\307\202\302\240L\343\333\277\377K\347\375^\216\231\277\210\373\300<\001 \327?e\335\344\\/2\320?N\251\277\034E\357\303?o\206\275~\370a\274\277\032o+\2756\333\341?+g\224\323C\231\340\277W\212.\271\233\261\343?V4\214q\264\331\340\277\252 PG\021c\342\277\2246\217\242R\025\320?\214\274\254\211\005\376\343?%\271\262\372\331~\343?\231\310y\275\003\325\346?\013\275Y\336\260H\342?Cs\276TCM\270?\220\"\235G\346\215\305\277\261\374\032\305IL\325?$\206\3238\212\"\347\277)\301,\376\000\365\346?{\213\354\"\003{\255?q\265\004\317sz\342?\016K\003?\252\341\327?V\205\037\377y\330\343\277\322\020~wev\314?~\225t{\3468\324?v*F\2011g\275?p\315\302C\275E\337?s\241\023\276\3168\314?q\020\000^\227\310B\277\331\346\214I\373\366\305\277+%x\001\376\302\336?\310\001`\341\3113\342\277\"\350\303\016\276\013\346\277vL@\300\030Y\335\277\220\020\345\013ZH\210\277!\022tj\035K\351?\332#/\306\0334\341?w\204\323\202\027\375\313?e\222\354l#9\351?\247\343\265;9\375\335\277\356\210Tb\350\002\340\277\273Ig\273\235\230\330\277\210S\234Y\001\264\345\277\372<\002\\\351\345\250?\322\022u0\254\254\337?k\225+\177h-\272?\r/N\235\303\214\303?\267\337\220\374ws\342?\0210\343;k\226\275\277\376\203\354^e\353d\277\235\0052\0376\257\273?h\004\033\327\277\353\267?\261\367f\304\232\004\312?\004\210i|\262$\323?j\275!\205\231\323\333\277\027\000\364E\214h\303\277\350\024\201=h\256\320?\017K^\370\0343\352?q27\000\227W\314?\356p\340z\271t\341\277\240\352%\000\336\006\307?\237\317\374A\217~\341\277;\355\000\272\365;\314?\022\267\366}\271\310\260?j\2117`\307\347\260?\320D\371\376\335\355\321?\025\027\211\001\371\357\350?\241G1\345\350\026\327?\231\265\332\344l\021\330?\001\363V~\225\323\317?i\330\362A\004Y\277\277\272\333\263\266B\273\314\277\361J\222\347\372>\344?8*-\337\327\241\242\277a\231\276\244\037w\203?-\020\363\233x}\347?d\221&\336\001\336\343\277\314\241\373(\331 \304\277xY\270Q\t\364\256?eG\364|\027@\324\277\323\265@\314ob\346?\330\272\324\010\375L\327?\337\375\257B\343,\331?\002-\372\226{y\214?\343\366pn\270\264\346?B\275\021\304\026\016\306\277\222tQ\035@\231\345\277{\2328^&\217\341\277\233\331\370]\"\350\343?`\265K~8\306\323?\371\232i\353u\305\277\277\333X\3442\311#\305?\002\0031\236{\316\342\277(\254\\\301\231\314\347?\374\320\273g\023\326\344?\035eq\275u\027\347?dEh_\324)\341?\336\377lP\240\364\303?i\344\220`\3545\320?\331U\3141\356@\276?\004@p\360\340B\342\277\3223\203\031\317w\312?E\360\340\243\325\373\305?\025o\016\036@\233\242?\366\254\020\373\251V\320?\244!\035\375\263\217\325?\270\276Y\224#.\344?\036\200?\302QN\351?\237\342\233\032&\242\316?L\2647:\337\266\302?\026\372\036\375H\364\321?\330\262\245\334\2679\264\277#O4=\230|\257\277L9\374\301\002\220\342?\265N\236\252)f\301\277\341\341\352\276ki\342?y\203\232\347\251\212\267?\364\340\213\202\"\216\350?{\364+BV\\\254?|\274\312\271\230\217\311?l\360\031\344\211\273\320?\302h\373\374\234\247\313?o\247c\204\246\233\346?\330l\037\321\210\302\265?\3771!\244v\330\312\277$\376\027\276ti\340?\244:x\201\355\233\343?\001!\'\206\303\326\305?e\273k\236]\035\301?\231\236\212\375`>\254\277N\373\246\343C\346\240?\351Z\305,\305\037\344?\021\276 \267\231i\317?\232\213\307^R\251\316?r\307Y\340D\327\331?sX\320j7\260\334\277!3\371a\342a\260?\2042\200\374\024\343\236\277\013\226\352\002^f\342?8^\211Y\222\260\302?\320a\000\331\322@\306\277\245\217m\327S\304\306?\273\247a\256\373}\343?\267\001\n\273I\010\331\277\030\000.\361\025\027\254?\035S\373\235\273w\347?\312\317\272\004\257/\316?\2747+Gm\207\273?\245\232\335\203\245\364\337\277\010\002d\350\330A\270?kyH\245\2265\314?>\236+\204\264\312\305?\363\032`\213\202\305\344\277Aw\356\342\242\277\326?uq\341aV\177\303?v\035\005\343;\214\324?$\035\016\340g\233\347?\307z0JL\'\314?$\216\310\271E\307\310?\306TU\303\331\010\330?\234>T}[.\334?\204\251\366\201\225W\241\277\361\210e\216@\027\321?\200h\203\237z\234\323?H^\010\377C\366\302?-;\006\\>/\315?\333\350\020\366\365\225\316?\330\222\237\236\210\317\326?\177C\362\337\315d\342\277~j\311\236\225\230\254\277t\373Y\352(\240\307?\201\263\224,\'!\336\277K\0027\377m\236\332?\205\356P\034Y\234\334\277\303\327\327\272\324\210\336\277\264\352\357|qo\324?\010\322\377Q\037q\260?\327\312\235\374\2123\325?\303\253\233A2\263\344\277m1\344}\301\223\301?\207\376\t.VT\332?r\311\314`\347\341\343\277J\352\312\210\207\207\310?\r\301\026`\304c\311\277\213P\256!\037\321\342\277\356\237~\202QJ\351?\365\370\367\370\010%\265?\327\361\336\237\362\262\264?\216\'\233\325\2572\311?(\\4\t\203W\303\277\263b4\002\\6\347\2778\005\"Y\372/\302\277\266\376+e\370\323\330?\312vt\022\000R\344\277\267\0101<\233\372\307?\216\371\251\277\230\214\313?\201\210`^x\314\344?\302\216\326\203\017\306\311?\n\345T\235\233\327\337?\227;3\301p\256\254?\206\336\013aoA\323?Q\005\355\037U>\341?\000D\260`\321\243\350?\025\206m0y\350\342?VmP^\330X\277?\360o+\030\360\r\315\277N\037h\242[\261\324?H\300\350\362\346p\344?\202iA\275S\340\323?$\325w~Q\302\343?@\365Q>\3537\336\277\361\225\345\220y\211\343\277\307sP\236\206c\236?\323\361=\310W\247\310?`7\317\205OB\270\277\240\225jU\001\255\307?\033\250B\362\204\024\312?\'x\330~\0218\316?\206\262l\275\021\243\302\277\354\352\300\377w\300\265?\267C\005\177\246\373\302?\364\211<I\272\246\344\277\313gy\036\334\035\344\277\302.\314:\312^\332?\004\333N|1k\334\2774K\002\324\324\262\300?O0@\373\301[\200\277\022\3619$s4\313?\n\002\330>\354^\341\277\265WY\272\006\246\270\277\321\001\254\002s|\325?\203\300\014\276\027|\346?i\275\347\331\017%\254?\016\037\307\305\007\254\336?\t\205\357\232\343\236\312?P\247\237\344\314~\301?4(?N=w\305?\027\266\013r\274\'\345\277\244\317\334}m\001\325?W\362\210<\017\217\336?C\'|\235q-\346\277\333u%\270G\245\314\277u\215;J\312\202\302?\376\335\362\001Wsq?\236\"\250\226\204v\272?@\313\014~\217\270\322?\353\222\016b\251&\326?]BO\0242!\341\277\211\337\003*\322\263\342?\334p/\233\306\027\330?\221^\365\374@$\311?\273H\374\345\356\216\347?\371\245\227{\365\357\331?\372\215\300i\013\331\342?\037\277\267\351\317\376\346?e\375\221\342\026\005\225?#\223\337\344\257\367\330?\326@N\363\351\014\303?\337\275\321\376o;\261?8\207$\340\373\016\260\277\225~\302\331\255e\330?\315i\303\037M\016\341?)z\277U\307?\317?exG!$\346\332\277t`9B\006r\350?Rw\n^\231\\\321?\354\353\n\307=g\343?\030\331\204j9\306\340\277\033\347\241|b\231\320?\313O\303\032\333i\322?4o\017!2U\320\277V\335\372\033z,\302\277\177\035\356\331)\214\314\277R\027Q\\S\365\226?\2215\227\331\357\242\307?;\0227\300/\"\333?\225rJ\202h\224\307?\356O\363\237\177\354\343?\237\205\2205\033\222\304?\204%\303\226\303\323\345\277\021f\301a\365\t\341\277\024A\234\207\023\030\312?\023eN\033\376\350\326?\316\276\331\203\2349\334\277T\362\034WD\311\307?qL\375Y\177\215\310?\354\254\314JI\005\344\277\303r\370b\367\266\320?B\356\277!\226\305\344\277\013\016\212A\273>\350?\270\351\317~\244\210\306?\202\363\024\377\230R\305?\362\260\324\243>\003\272\277$b\347\371\025c\227?m\370\'\002\346\013\340\277\341\321)<&Z\312?\210\354\213\235S=\341?h\230\271D\036V\236?\021\032\003\343\3075\333\277\277Uq\277P{\271\277\362\024I&m\313\302?\022\267\361\304\377_\270\2772Wi\377\301O\326\277\324\273x?n\277\314\277y\244\311\336\2658\350?T\276\014k\317\321\307?\221\256*\337Y\331\227?l\347\034\270\332\365\275?\313c\017\345\362\274\320\277`\225\207\\\333\241\333?\201\311\021[\017\231\300\277G9\n\243h\004\220?\262\275\263\311#\260\303?q\023\377\301\321\277\344\277\230\211\277y\263\376\310?\017\267C\303b\324\215\277\013\213\335\200\307\336\347?\337\375\257B\343\354\304\277\270;\316\341\030Q\325\277\"l\333\244`\225\256\277\331\275\313\373\356\314\342?\372\010\374\341\347?\351?\211\250\262\275P\037\310?\304\250\265z\230\007\343?\206PJ\255\234\342\343\277\202\270a\312vt\335\277\343\206\204\224D\233\332?A\277\214\265\001P\315?\246\264\243\335\215\n\347?\237\013~v\033\257\325?sK\253!q\017\317?\006\246.t\200\273\313?\370\336\337\240\275\372\240?\"\202\334\013\355\030\244?\212)\252\341\317\356\320?\233\017|\3129J\302?3!\336!b\026\327?\033z0\316\204K\334?\345\211\326@\251l\324?6}\321y\350\226\305?Z\001\317\007\025&\346?V^4\\\313A\331\277\373\3226Y\376\327\300\277\241\230\243d\305\362\334\277{F\350\210\370^\311?\371\312\223\326\245g\226?\000\230c`\272\234\341\277\273#\010\374\206\256\325?e\247\037\324E\212\344?|\242\004`\260Y\337\277\334\350\357\347\014s\310?\001\253~\000\255\364\345?\304Yt_\214P\303?A\2354\005\031\236\324?L\362\216\031\311\032\312?\270\357(\000\214\350\350?\006\275\365i.\032\314?[\266\224\3736g\331?\273n\235\301\327\376\342\277\315\216\371%\207t\312?\305o\320\177\213\245\276?\313]N\200\226\353\276\277\231\005\301\200\261@\324?\257c\267*\344\245\326?%\016\260\301\210\036\325?\033\355](\005\202\325?vh`\375\002.\343\277\330\303M\374\007G\320?\010dD\334{\274\330?\013\262\n@H\033\341\277\257\272\212\234\360\330\312?4\343#\030\275\311\340\2776\227v\305\347i\344\277=\235\247\021e5\277?\277\331A\200g\366\345?\224]zE\001\354\245?\034\n\300\273l\246\320\277\010\244\314\0376\205\320?\354\350\217\233\247\333\306?\357m\300\010\226z\301?=\r\030$}Z\315?0K\267\374\362\217\303\277C\257\232BB\257\342\277\241\322-\340\n\215\326\277T~\010`\271\024\346\277\n;9\001U5\326?2e\267\001eT\345?\301t9\251XJ\316?v\210\177\330\322\243\330?\230\204\260\277\221e\337?.\232\204\301\353\t\342?\270\253x\237\272\244\312?\350\343\322\337\3506\265\277\262\314*\205\243\030\330?\224\020r\377\r\261\272?@@) \016.\350?z\273\014\234\277K\265?T$\025|\211\247\321?\n )\340\246\330\351?\334\004)\302\227\223\344?`\225fN\362>\342\277\254\334\321 \201\366\340?\235f\201v\207\224\330?\240\247C\237vU\343?\r\335\326\341b\250f\277AP\311\224jz\337?\265\332=%Y\032\223?\262\251\251\033\336\"\335?\241\027I\026\213:\326?`\005\225D8\236\337?.p\036\363\246\307\323?\351\307J\277\211\220\226\277\\\266\214\212\356\017\347?F\214\350\350\002(\311?\241\261\335\332\025<\331\277\330\301\230_\223\326\306\277\0075\317S\025\001\261?\232\262\323\017\352\"\320?\r~\333F\025[\223\277\243Wf\276A\203\301?\320\204\201B\2306\261?\367\203\313t\371 \325\277\251\253\361\210\300\307\311?\26299\t\306=\311?\340\025\034\271\311\203\322?\260\271z\200\264\300\342??\373\020\242\034\317\265?\022\326k\037\227\335\323?G\363\375]jG\260?\n\007\214?\233f\333?\337l\265\177L\210\341\277\313d\335\344\\o\344?\010\237{IB&\315?O\203X\354\345-\333\277h\333z\227\234d\351?\375\247\270\3754\346\311\277\032\0336\241{\234\322?t\312\212~\300\005\335\277\177\374B\033\302\251\312?\206\027\351\3523\314\341\277\335|\237\201\303\321\322?\2769\226V\307\232\314?\206\337\362\375y\377\325?/?\303\335Q\212\324?=&\367\340Z\222\303?\226\361)\337\267\312\311?\266\362\324\033\234\245\335\277Q\216\270\266\246\257\323\277"
      }
    }
  }
}
node {
  name: "normalize_element/component_2"
  op: "Const"
  device: "/device:CPU:0"
  attr {
    key: "_output_shapes"
    value {
      list {
        shape {
          dim {
            size: 749
          }
        }
      }
    }
  }
  attr {
    key: "dtype"
    value {
      type: DT_DOUBLE
    }
  }
  attr {
    key: "value"
    value {
      tensor {
        dtype: DT_DOUBLE
        tensor_shape {
          dim {
            size: 749
          }
        }
        tensor_content: "\373\033z\254\225\340\241\277\220Z\264B\211\275\326?\274\356\010\002\277!\321? \346X\377c\370\326?;\242\245\237.\032\321\277Epuc\356\330\330?wz\020\310F\234\301\277\002O\265q\037\224\320\277\024{h\037+x\311\277\272R*<\303\357\335\277#\275\013\010k\353\315?k\000\241\273E\\\320?\024;\\\243\314c\323?\341\235:^\232\305\335\277\025Jp4\221\343\303?\\\273\243\265X@\306\277\333\324Hd\202N\332?\315j\313\312@/\325?\316\323\251\300\003\342\303\277\367\231\212\277\263^\320?C3\025\003\240a\306?\313\'\320\31482\321?\026;3$\233\351\315?g\244\224\306\036\020\335?\251\035\0278M]\300?\361\025\366\027\356\032\312?\210\304\363\010$\027\320?;2\373\341\214F\340?\221\312^\000+\021\325?\264\004\327\344B\310\324?\372\261\356\304Q\336\326?p0\212\324j~\320?\231\374\005q\324\300\335?\306\335\336=YT\321?\224\014\245\233i\347\320?\336\265\3375C\005\325?n\371\'<\221\365\314?>\344\322\235\314\244\330?\260\315B\022((\266?.F\321\301\0021\332\277\205q\334\316c9\301?B=\326\274E\210\254\277\2560\032\205f\017\322?MR\364\033\201S\317?o\227\005,\034\265\260\277\227\221\027%*\314\306\277\373\201\202\275O\366\307?\031b\253\272\375h\326\277\030IqD\255_\330?\363\265\302Owy\321?\224\364\366\010\261\n\274?v\033\324~k\'\341?k\207\330\303\013`\326\277W2S\234\233\035\307?d\361\337\337G\005\213?\013\354\224\273\215U\331\277\333\366\3420=\206\334\277X\330\362\033=\266\253?\246&\376~\352\205\244\277h\017Ig?V\312?\031\032\323<\025*\326\277\323&\024C\356\371\322?\304\256\016\374\177\207\321?4`[\002\232O\245?oRf\275\367;\325?\371\262\274\304\273\320\315?\022\335\222\240\350\317\323?\352<\324\3756\240\247\277\006X\365\003h\245\315?\243\013E\025Y\306\321\277\"E2\036\204\204\317?Q*eBa\212\335?\352\352\320\341\010\357\320?\034Iz\377\274\374\331?\224\201\352\274\031w\321\277}\377\254\032\000\201\332?\224\374FC\337\300\310?\240\220\370p$+\323?\340\304F\0172\177\307?r\200h\377fV\322\277Q\233\037\034?\226\326?\'\014o{\'\213\315?\032l\250 X\270\323?\033@\307`(\324\300?[\t\233\t\237\020\311?~<\262\301\333\346\317?\373=\322\\~\022\322\277\320\232\037\177i\321\302\277#\225ReR\"\321?\344\246@EY\350\310?F\347_?\202j\303\277;\002v=\352R\321?\360i\322\226\010\216\306\277\030-\233\224\335\'\322\277\022\366/A\364\301\321\277;\361(\327\014W\310?\344\"J\275\237A\323\277Vr\004_\207\240\272?\031\334 \244\2704\330?-\225u\007\312P\301??\034$D\371\202\331\277m~p\374X\332\262?\031\312\211v\025R\304?\200E]\357\'\370\262?\214\027$\340\204\000\303?st\tE\302\220\317?\247\234i\241\350*\321?\213\222\210\327\222\341\261\2772\332W\334\207U\312\277\241\246!\240~\364~\277\013\003\277\333\366\034\312?\272\232#\310\224Q\233\277\376\004\274q\367\336\306?\253\312Bd&\213\322?7\222\035~\253\263\320?6\301?\276\347\264\326?\317\037\211M\032Y\327\277f\340\333O!\262\340?[\315Q\177q4\221\277\016\212\377\236\314}\314?^\323\305\236$\372\321\277\2271.\352\315\007\317? \330\n\375\300\023\317?\312\'T\005\335\275\321?\241\247\207\274s\225\253\277\333\337\227\002\353\333\321?L\037\323=_\261\322?\307\347\241\370)u\317?\314(T?\210\007\323\277\007\303\353\300ZQ\343?(\025\205Dw\034\317\277X\377J[\032\307\310?\273\227=\001\373\005\316\277\013\244\233/\274\263\244\277\300\3504\003C\363\325\277\3633\334\035\245\224\323?C\213\360\037\2405\314?\244)\320a\235\256\262\277\315\232\263\231\236\213\317?\211y\271\374E\330\306\277\274\220\016\017a\374\332?\315\241\332\032\360\375\315?\266:\202\031(0\212?W\300\363A\205\031\320?\020s\254\3771|\275\277\226\304a\202}h\322?\003\034\214\"\265\332\331?C\246r\2266u~?\301\343\231\2374\267\274?g\265DW\267\264\307?\033\177\242\262aM\325?\024\371\242\373Av\321?\357\017)@\363=\325?\322\271.>\375N\317?dD\036\230\016\343\314?\364ns\375\227x\237?\355\251(\240\201\377\325\277\334>\263=\335\355\315?r\214\006\036O3\217?\005%X^\352N\330?D\307\006\271(\206\316?LG)\266\274\321\314?\315\001\'\200\007\253\326?\256@\035$~\244\325?\273\274\265#\007\262\316?^Q\245\301\310F\341?2\0206\002\022\311\331?\336$\037\0366O\254\277\377\354\242C;B\320?$\357\034\312P\225\313?\233\235\034p#\206\255?\237\341\264}\033$\300?\320\372\255\000SD\301\277~\360N\374 \344\325?S\344s\233.\223\327?\226\246\265\'P\335\303?\205\253\352\202M\337\317?\014\220h\002El\325?E\247\000{\371[\325\277r\212L\310 Z\316?\324\253\022v\233\001\332\277oh\251@V\205\313?R\245\246\230\034\342C\277]\027\237~\'\230\245\277\204\177\0214f\222\330\277\216\270:\337\323E\321?\2071\n\376\216\223\324?#\323\004\376\256W\267\277\373\3221\240Do\265\277)Z\230\t\257\362\315\277\024\336\016\242\357\315\265\277\202\275\364\274<\031\325\277e\323|[\321b\321?\277\372.[\241~\306?\373\355\004^\332n\327?\n\177+~\370\036\306?LV\301\177%\035\325?\355H\263\201\215N\327\277\234e\375\0038\277\327\277V\246-\350\234\243\311\277r\357\216J\271\224\310?\266\232;\033n\227\335?\033\263\245\275\363\232~?\3367\337\004\266\265\302?\266\231\325\376x\366\262\277\245\3101\304w\203\321?\307\006\373D\330O\311\277\020\257\353\027\354\006\316?\273:\360\377\035\260\313\277\217\023.\375\256|\314\277J\275~\363\250\031\277?\335p\231\177f\243\256\277\002b\022.\344\021\323?P\235y\377@5\325?c\030fW\020\271\334?#.\337~\351\002\313?\376_\267\000\033\255\330\277\010\341\275\342*\310\254?\2656\215\355\265\240\321?\256G#\227\346s\311?\340a=b\262@\321\277!\006\272\366\005\364\240\277,dK\342\356\244\327\277Z\2700\373\n\014\320?`z5\037[?\325\277\220k\333\341\303\255\241\277\'\364\237\332\205K\341\277R\370\246\310\245\032\312?Y-\227*\244>\313?\'\262 \336\204\014\341\277\021\374\024l\310\344\302?\215= u\340A\306\277\343\0062\361\375\303\321?\207\305\207]\004[\300\277\341\217\252?%\033\321?\211$.\213\177[t\277\005\235\367\234GG\324?\337\331\005 A\263\303\277\004Dw\377\016;\323\277c\031n\002\004Z\266\277\320KA\216\030\003\264?p\244\340\347\307x\274\277\354\270\206\276`\\\324?\031\322\372\276,\353\334?\372_\360a\335\225\312?\013\225E\202%\256\332?\355\007\002\205\366A\321?\t\347\256\200\235\366\320?\035\243Dd\273\257\325?\017Z\216\336\020\255\214?\\\2070\237(\340\321\277\202\316\336\370^\354\316\277k.\324\355.H\275\277)A=\205u\306\314\277\r\237\235\241\362\016\324?\001\317j?!\324\307?\257$\232\274\330f\331?\010P[<\037\022\327\277\027i=\327R\333\340?\352\344\220\375\301\372\320?\241\233?\236D\241\324?\345\234u\031@\360\243\277\272^\363\332\007\201\234?3\035\225\366a\230\303?~\221\nB\375W\321?~\205\263\370\240)\302\277\300(\275F\375\273\310?\220\231U\3518H\304?\247\027\3475\227\227\264\277\221w\317\000e\363\243\277+\327\035\203\374\211\321?p\210D\343\201\357\320? \256\305<e\024\311?\325q\004\302\261\333\322\277Xu\363\3400I\324\277\323Rb\237L\030\241\277\313+\327\333f\352\341?$jXB-<\325?\270\177<&\030\357\316?f\034]\204\255\202\323?+p\r\307N\323\236\277\327\256}\277\240^\324\277\365(\"\3448\307\327?\241K\027\346-l\317?p\347\004e\0010\306?\304v\241\000$\257\264?6*\211O\256\347\247\277C\025H\232\211\263\307?p\355\341\036\215\373\327?\222\3232\255\250\034\333?\246\233a\366\364\t\306?3\341U\336\247\r\311\277\203=\036\341Q6\305?\330\364^\204B\347\331?rV~\370}\250\302\277\332\374d1V@\320?-I\226z\263Y\304?\021\261m\303\273k\177?\253\210G\240\311\227\313\277x%,\2368H\324?\177\001\265\377\236+\312\277\275\251\345Z\366\234\304?m\342&\233Y\350\323?\205=\241b\222M\244\277\005u\200\026\001\004\313?\263IUE~\236\305?\212\010\275\006\226\006\314?H\301\327\000:\206\310?y9p\367\007\004\315?,1l \237\010\322?v\177H\001\232\357\323\277\024\263=\376\373\241\332\277\231\000O\234\324~\325\277\255K2\027]\203\331\277\022\\Y`\227:\327\277\204_,\004 \013\332?\026\300\224\201\003z\340?,\307\032\344\3444\323?v\333\307\002\rS\321?\030\202wM\243$\317?\366\014\237|\223\t\322?\245\240\272=1\200\324\277\275\223G\036%\202\320\277\375&\373\204?\205\321?\202\200k\335\274\247\323\277\007C>d\241\010\302?%$\341a+\177\244?\203\252\311:\2712\317?\261\255\270\233T\362\332?G\307Y\001S\300\266?}P\202\304\227\205\324\277:d\271[Hv\320\277\200K|\305\205I\303?\344\315+\350\007?\323?x\243Elfc\323?=\2727\335\267\374\241\277\005_\342\331/\351\303?\021\243JAu{\277?\014$\360\323-E\212\277\027\370\345\'0\370\316?\321D3\252g\034\320?\032gxXM\374\330?\313\022\337\201\350\346\315?%\027J\303|;\332?8\230\234\3065\277\203\277u\200\026\001\004\242\325?\321\252\330\220f\311\251\277\273\335\201\360W\267\324\277@\345N\237\323b\315\277b\271k*\007\212\314?\362:f\311\261/\230\277\337\332T\240\300\202\254?\007\315S\302\270\200\320\277\334\376\215$\336\215\320\2776\316C\371\3042\302?\342\302\211\001uw\312?k\266U\275\2722\320?\251\014-\374*\n\311?\005\3374}v\000\322?\300\224\206\274\023#\246\277\340\216\005\277\354\242\334?//\002[\014\373\324\277\352n\246[\331r\320?\357\203\240a9\033\327\277\225:\320\\\n<\322?\211\031\216\245\027\316\277\277\202E\253~\230\311\256?\306\274\361b\037l\252?\177\263A\344\374&\322?G\307Y\001S@\307?)T\036z\336\317\251\277?f\363z(8\312?\332\010\037\245m\327\306?\315\303\021\275\357\014\330\277g\350\206C\3029\266\277YJ\243\275Rz\246\277\226\357\266^\025 \313?\324\2301\2012x\315?\271\246@fg\321\321?\201\256\"HJ\037\314?]t\r\216\355P\342?\306\317\363eq\230\303?\210\221\322*\002\265\266\277\021\342\014\366\r\351\315?y\0047R\266H\212?\243\2259e\207[\276?m\332R(\207&\315?24d]X\216\315?\217\341o\203\363\314\320?\373\201@\241}0\326\277\316}\305\\JD\276?\375\0020T\264(\324?\232\004\363\200G\216\316?\204\251\271\036}\372\302?\030.\243?\321\310\323?\211\003\215>\213\312\327\277mc`\333\252\275\315?;[\233!\260M\317\277Bh\322\340\225\250\261?~\214\224>\305FE\277\246v\377J9\347X?w\223)0\256\202\320?\3223\203\031\317w\272? \362\361d\222\354\315\277N\257\275\344\271\035\336?o\031\027\336JN\256?\317\233\355~\323\203\330\277\341+\364\240$M\335\277\351#\225\316,\256\306?\351A\305a\376D\251?\035\306\266\242S\253\225\277\262\033l\240\257\217\265\277\207\035!^2\251\332?\307|\345\346\300\027\321?\177\254\032c\253\364\332\277\362\322Mb\020X\276?\343\t\224\177\363\203\325\277<\2275\363\334)\270?\031,\213x\241\357\317?@\346\332\202k\217\333?\261x\177\366\002\267\316\277\025\255\266D)\177\237?#\333uF\3060\314\277\307\225ay\343f\317?Qf\203L2\362\324\277\322\014\230v \241\324?\267\206\010\356\366\217\336\277H\351g$!\025\332\277\364\337\203\327.m\306?-\220E?\277\224\323\277a\355\234$e\244\334?C%\307\000\375\374\326?z\307\204\363\004\235\325\2776X\030`/\355l\277\177\213\312]\266c\307?\264%H\370 \374\304?\026\266\321\3062\371\301?\313\252\235\233\025\325\322?R\330\342\246H\266\300\277\017\257\220^y\265\322\2775\001\216V\030\317\315?[}uU\240\026\306?\345\333\026\300\357\272\322\277Qg\356!\341\273\325\277\tM3Y\263\000\307?\317\301\361\204w\334\332?k*\213\302.\312\327\277\242\337)\252\237\263\240?\222\346\023\242\021\246\322?\253\231\357\277\031\245\306?\272\240\000\202 \335\332?\357\027\232\210\n\027\256\277\206\003Bg\251\'\275?\353\031\343?\264A\327?\246\272\200\227\0316\274?\330\313\276D\037`\320\277M\246#\343\305\200\276?Xl\233\373\016\362\317?`\231\022\244\255\345\325\277;\276\305\334\030\357\320\277\177\260\337U\007\'\311?v\320xd\244\005\336\277(\372t#\311?\321?-\215F\333\204}\322\277\327\024\344A\\4\242\277\002\375\002\235\360\342\236\277,x\033\345\252C\314\277\307`\222\001Q\215v\277\301\330\214\035\236/\331\277E\005\332_n^\312?\352\031\312\242\023\266\334?\274\016\315#\034\206\333?\350m\246!.\251\321?\235\243+d\360(\305?\t\022_\026\250\177\315?\313\377\334~\226\372\330?\233\201_]\364\231\302?\024\230\312\262\222\034\277\277\"Q\313\203\2628\333\277=S;\005\361h\317?\350\350D\304\305\270\333?\275H\025\203\217\332\310?\215\372\271\333\324\304\325?)A^\223^i\265?\226\025yH\347\262\310?\323\326o\303{\020\321?\241\237\014\002\351\352\310?\303\322e\326\367\206\311\277{\305K\036\354 \324?\006\035\252\262\272\230\210\277l_u!\254\177\276\277|\013o\377_\257\325?\022T\350\027\200\241\343?j\247 \036\rP\322?\327\257\t\2438\313\317?\2300\375\277\250\254\334?\226\3038\311\240$\320?\2650n\027X\317\304?|\024\t\001T\314\334\277\'\355\364 \220\215\332\277\022\301\366\233\242\006\330?\014\315T\014\200\206\271?d\315\206\004\245\313\316\277\262E\024\213\306w\260?Q\265\006\204\020o\317\277L*\"\334\307>\332?\00513\340\352\210\320?@2\205\035\262\300\244\277zQ\375{\327=\331\277\250\335\361\036N}\275?\301\252z\371\235\246\331\277\001\305\002>\303\304\324?\314j\323;\211\006\320?\212}\033\305\346!\327?\322\202@\3746#\327\277\337\231\032\262\313\001\340?*\305\022\377E\212\317?\363|\330\233\260\256\255\277\215\033\310\304\367\317\326\277\352\362\234\343\222\031\315?w\247\226\010\2578\317?\030\347[^:_\241?\t\025\034^\020Q\333?\235\356\237\033X\226\321?\257\212\201\277\251\231\333\277\244\264\307\243\005|\247?\376\370\2056\204S\266\277\313\275\300\254P\244\311\277\221\214I=\023\263\322\277\303\222\376\240&a\317?\024u\346\036\022~\323?:\203T\304\310\026\303?\346\262\217\035m\377\316?\201\217E\303\367\270\332?\324\370\277\002\034k\320?Z\350s\203\3339\303\277\251D\002\333\3733\322\2772\253\005c5w\225\277]\026v\305JT\317?\217\256\353z\026\302\313?\326~\235a\213\331\327?\245\370\327v\003\232\314?i\273\360 \311n\321?c$ \313\'\320\312\277\225\321\n\004\350T\336?\352\374\241\2725\000\320\277\365s\226\233\2404\272?o\177\221D\355\206\305?#=V:i\253\315?\250\323.d}\334\323\277\227\373GS\373|\245?wn|\033\322\020|\277\312\013<9;\000\317?\3145\026^\223\177\305?\177t\240=M\334\323\277fH\231\375O\270\315?.\003\316R\262\234\246\277\026\n\340\177\216\003\265?\026&\235\222\275\357\263?]k\020b>\213\327?~\3673a\240\320\321\277\231)\255\277%\200\323\277\302\216\326\203\017F\335\277\213\327\304\033\374q\317?\2744\217\r\356\230\323?I<\217@r!\320?\242D*\020f\250\254?\376\374\316a\204\021\325\277J\252!7\344\033\316?5\024-/\257\022\270?\361\261\315#\005j\225?E`0\250\004~\316?\222)z;\035\243\315?-Hm\301\326\225\320?$\376\027\276tI\332?\037n\233j\254K}\277N]\032;\270\246\322\277\247\274\014\265\\\354\325?\346\216a\302&\272\325\277h\372\2318\301P\302\277\253/\236\203_\021\324?\373\357\034%\n\010\306?w\227\325\205i\251\323\277\031\026H\365B&\311?\206^w\241V\344\323?\304\214e\004\230U\231\277\343<\367y\347\253\302?U\310\3603\211U\320?#\370\351\274\351=\255?t8\302\273\277.\321?5\353\020(0\327\313?\206l(\316\264q\275?\342\355L\237`\261p?\376\353\303\027y\233\316?\3040g\203:O\240\277\014\212\213H\271 \313?\314\202\235#q\335\222\277\332\025\341\303x\017\330\277\356\313>4\230\253\335?m\274\205\277px\314?\357\013\236\370 :\313?!\256\234\2753Z\327?^\332.<H\262\312?\225+\233\275\\\331\320?\330}*\033\224x\324?=\001=\242| \316?\226\246\243D\224\364\227\277<)\347\031h/\214?\254\241\273\301\243O\325\277</6)\334\335\300?\212f3\301O \320?\344\334&\334+s\321?\rv\375a\317G\274\277\216J\177i0\221\267?s\005\210@\375@\322?\004\245\354\035\003l\324\277\263o8=9\224\327?x\340\357Y\317\367\315?wD\215[/\372\315?\223\370\201P\203\216\321?/\244\005`\352\004\323?\032\006\342+p\350\326\277\317\003\016W\2752\334\277t\327L\235\313\375\323\277I\302\327:\345O\325\277h\270\\X\222\027\320?\353\177o\211\022c\324?\337\235c\335\313?\324?\nC\257\002&\267\251\277\023\351#\225\316\254\321?\247\036\314\232\026\304\306?\205\274y\005\375`\326\277\347\277\375<\352\010\230\277(9?\000\213\256z?$\215\251r\334T\215?X\375\266\314\216\371\314?\276;\350\310\200b\343?^\013\037\266\231/\312?\351\210\021\374N\027\310\277\303l\033\251k+\314\277_b\207\214\242b\273?\372\337\337\332h\004\314?\346\371\035\324\217\327\345?\024\365z\336*[\311?Rc!\276<2\323?+\312[d\361\321\321\277>\351\261\036\330\240\234\277\355\233\177\344k\211\322?\347~=\025&\002\342\277\027\004\301\2510\262\310?\343?r\245}w\315?\231\251A\177>\235\322\277\250h\223`\375a\317?\255\233{\335\\\273\340?0\376l\232-\217\322\277yq\207\362\252s\300\277\216A\006v%\227\316?\325B\311\344\324N\325?\242\257\244\005\375?\312?\014\355\265\003\"\002\312?\333\331\001\036\353\276\270?\030\352\205B\321*\235\277\020\300\366a\367|\305\277\021\337\313u\001L\301?P\300\033w\357M\336\277,\006\325\'5\213\300\277\034\354,\376\337&\321\277\277\002\240\243\270\227\323?m\301\367\243M:\326?\377\345{\302\351\017\323?\320\023K\241^\266\303?|\223\215\2440\261\307\277M\350`\303\364\271\324?\314K\027\305\037\003\317?\024\220^#5,\254?\3079\240[\236\275\314?\0132v\200/\336\324?\306\301\245c\316\363\325\277\250C\033>\361u\320\277\305\035e\200\350\242\203?]\300.7\326\315\244?/\314\327\237\243Y\320\277\026\214\245\243w\005\320?\021Vc\tk\343\305?|\030\357\001\231\241\305?\351\240\205\343}\305\324?\307\216:\370\221t\312?\203>\005~\\4\302?\341rW\327\352p\211\277\235\021\245\275\301W\322?.\325\334<\233v\323\277\277\245\326\332\177\215\323\277\233\245\263\177\335j\213\277\323\310|zK=\316?\003\250\261\326\263\224\312?p\207\033*\245\353\315?\212\025\034\373\345\325\320?\367\3061\016\005\236\267\277\221\365/\244\036\275\334\2774\317[\206I\202\313?\264^%\202\345F\330\277\336\366-\010\037)\305?\252\275\302a\355\030\316?Q\357\322\033(\317\311?\254\224\371\242\230\027\323\277\375\235\t\'K\250\206\277-x\321W\220\346\310?\374\361\345\245e\033\211?\336)\323\036\345\226\316?Tp\272]\026\360\340\277%\270\313]\317\200\306\277}\251\356}\351n\242?#\204\005\377t&\331?\373r\013\002\320\315\321?\371W\221\374\201\245\246\277\2661v\302K\260\333?\245\342\367\035`\371\323?\342L\237_\214/\333?\003\027\330!\006\323\260\277\342\273 dQ?\324?\3307X\201\037\252\232\277#\271>\244\306\341\330?\220\216\243 \025\022\332?\366d\274\265e#\317?\313gy\036\334\335\335\277\360%\340\031e\344\306?_\220\231\260\242\253\315\277\213\026E\264\302Y\341?\222s(dc5\326\277\364\\2\320\255\276\223\277G\320\220\330\213\364\316?\254D\260\334\230\277\324?VK\031\274\330I\327\277\342@\202\301\271\257\315?]-\240\345\263\233\311\277\251\rw\303\360p\335\277\032\371@\033NS\305?\237\261\253\240\324\244\330\277\223 u\236%\006\317?\263k\316\003P\263\320\277\316\010%\202\'\343\302?>\213\323\200\251\265\271\2776\0304>\335\n\345\277+n\334b~\356\316\277ej\371\036\201\001\320?\022\227o\277t\201\325??\363\305 \250\001\312?\376e\367\344aa\324?7\264T \253\302\273\277"
      }
    }
  }
}
node {
  name: "normalize_element/component_3"
  op: "Const"
  device: "/device:CPU:0"
  attr {
    key: "_output_shapes"
    value {
      list {
        shape {
          dim {
            size: 749
          }
        }
      }
    }
  }
  attr {
    key: "dtype"
    value {
      type: DT_DOUBLE
    }
  }
  attr {
    key: "value"
    value {
      tensor {
        dtype: DT_DOUBLE
        tensor_shape {
          dim {
            size: 749
          }
        }
        tensor_content: "T\206\026~\025\305\321?60E\373P\020\330?pB!\002\016\341\331\277\025\215\030\352n\246\305?\022\023\324\360-\254\320\277\204\200|\t\025\234\322?N\303\"Lr<\274\277{\207n\0053\367\223\277i\006\310\002\354\304\305\277\275\266\351\225\323\032\310\277:1\230}&\324\322?\362\210\300G\263\350\313?\\\337n\346\343\034\303??\244\204\005\234J\331\277\017\214\315\330\341y\326?\324Z\342\022\221\253\301\277\372IR%\014\373\317?p\337\3258\274\034\311?\367\370\214]\005\345\321?\222\035\305\200\277t\262\277\215\365&\351\016\240\305\277!Q\262\346\021m\322?\233\t~\002\305\333\336?\017\335&\273\035\212\302?\207\337\013\233\032K\331?\225\025\375\200\213\276\321?\367.\224\002\301\322\336?KZ\216\343\311\346\331?\274\360\377\272\005X\326?\037\227\202\177[\001\320?~\376\336\032\226\016\243\277U\366~\037\345\222\313?h\237}\233\264\337\327?\363\350\004<\202~\313?9\304\252\007\355Q\304?72\0235fL\274\277\271\201\310C[%\332?\353vr]c]\277?\353m\226?\235\372\327?\247\277,\'\200\346\301\277\332G]!b\371\327?\010_\322\367\236:\302\277\344\'z\205\252=\305?\230\350\342%\356\347\346?mX\256\022\207\307\306\277\007\346\2158\tJ\340?L\014\023W\337\n\321?v>\362\275u4\277\277\026a\324\377\203\231\333?<\210:\377\270u\332?@Sm?2\300\333?\355\206\naw\362\343?\361\026\202\373\205G\322\277\275!\246\247<\370\307\277W\241\324\240`m\320\277\241wS_\320!\273?\200\003\305U\206\355\302\277\220+\273\201~6\320?B\325\"\201\212\323\310\277\345M4\3763\271\322?\217\301\350\304\256\205\222\277\256m\243d\346@\320?\317D\340a=\"\342?f\215r\027\376\337\314?\273Z\264!{\024\262\277\006\334-\250\363\321\311?\244N\304K\005O\262?\006\224\227F\335\030\266\277\255\200)\240\334x\327?G\333\204\275\201\260\321\277\t\330\263\214yB\321?<?\326\2358J\314?\310\345h#\021y\325?l\205<\3047\373\303?\377\361\271n\2452\272\277 \215T)\207 \355?=\322\277\250\315M\317\277\344\223>B\007<\333?\212\324\3566\363\324\250?\343)\026\205~\"\260\277\316\014\013\203l\270\337?A\221\027gF\236\300?\225)\244\004\026c\334?\032\205\207\3355p\306\277\tl\020\336\005\247\320?\\\"rU41\301?G>m\\\030L\305?\002\357\252(\332,\316\277\370U\230B\020\265\314?\332\200\276\343\312\217\331?\351\357\010\033\\\302\306\277\345\302y\037\344H\311?\262\006\367\034\273\270\322\277\307\026.\035\006\002\221\277F\236\240$\217\355\325\2776\222\302\3048\342\307?\300z\232\233\210a\300?1\005\020\343\332u\321\277RV\035\203_t\320?E\375h\027W\205\311?\375\260\224\033\373H\310\277[\372\002@6E\302\277:\243\367\327<\330\305?\274\356\010\002\277!\325?`>Y1\\\235\322?Tg \\\"\223\330?\274\"\370\337Jv\314?a\2633\267\010-\302\277@\3174\233\246S\326\277\314\275\372W\332R\307?\265n\305\366A3\300\277\n\300\334z\217\253\311?\002\'\035\335\357m\327?\215\003T\335\310\341\310?O\343b5+\025\317?\010\221\312\034\344\230\331?\223\204\325<m\253\250?\316\351\204`\355\331\244\277\360\027q\t\331\\\305\277-t\014e4\264\307?\242\374\356g\302\300\321\277\014\031\302C\256Z\205?\000*\250\352\026h\312?7\010\347\021\253X\266\277\3572G\177\375J\316?\352\036\372j\036\362\264?J\037\241\003\036\332\314?j\2034\337\230\320\312?\355\306q\226HX\334\277F;\023?k\303\343?\037:\024p\225H\232?Q%V\210?q\306?\3307\203\001|\236\307?_\347\t\370\363u\275\277\232\206v\210^J\303\277\214z\363\341z\020\321?,\271\314\341AP\312?\260\372\351`yg\304\277\374\265\253Fey\321?[e\"|Z\213\313\277\033\002\262\235\020\266\312?\345$9\005\236 \331?\267\343v\375\274\010\316\277\357\263\302\333 \246\323?\032`Q\327\373\t\267\277>y7\232L\252\311?\216\025F\304\336U\337?A\222@ #\342\310\277\315\212M\320\313M\333?d\013{\271\323F\306\2776\016\253.\226\330\302?\265\353\224\375\251\347\320?\221\325\316\254|\001\237?\244{)~\204\010\321?_\007\311`\227q\276\277Q\213^\231\371\006\313\2775g\330\203\244\252\300?\035\341z5\2740\271?n]\377\350z&\313\277\235\377)\345M/\223?\005\224\237\267%0\265?\226\327\000[\024\254\315?\255b;)\335\247\311?@\277\255\303\3522\332?\232\007\260\310\257\037\312?%\221\340\272 \252\314\277\225\033\373H\000m\353?14\215\334\211H\305\277S\004\274\365/\203\312?\014w\204\214\255\213\216??\301j\321\247z\321?u\232?\205\247\000\306\277p\035\210\321\030R\311\277\317\370\235\252k\202\254?\241\222uc:\247\217?=\344w\344Y\223\324?>\231\332\255\300\353\275?\360\017\000\301\301c\350?4\335\004B_8\320\277Z\020\210\337fT\306?\031\225q\337\254\271\276\277\026\313\004.U\212\262?\232!v\"\230U\322?3_\261\310\247\256\263\277\217\327\315\326\013\317\307\277~\2455\376+\310\325?\222%\316\345a\374\324?\241N\263\037\255\332\320\277\212\260\341\351\2252\316?\201\303v\275US\275\277?\334\233\000?\272\302\277\265\304\251Z\373P\321?3<0_\3428\261\277\305\000\25249\347\276\277\301Q\270?\223T\312?\365\327\n\036\317|\303?\330\205\233c\253\221\230?C\304Q\342\010\014\306\277`\371\271\3027$\265\277\373\312\310\177VWd\277\266\227]\305\034\343\305?\213\365\323\240\344E\345?\026\356\350\301\325(\321?u\362\267w\354k\311\277s\002\005\244\036\036\305\277\240!\322%\322l\325?\223\376\3014\312\002\267\277\323\3121\027\300\255\263?\006t\226\301g\327\230\277\221DF?\316\277\247\277\373\021T\307\t\227\306\277\256\232)\245N]\311?\272|\024C\254\335\307?\371%\352\036<\307\337?\357\017\245\007O\362\340?<;\021\253\334\227\270?tZ}\226c\211\262?\351J\343\233\226m\311?\217\254\272\026F\335\251\277\330>.\273q\034\330?~\353\0364\026\250\272?\333\0059\336\323\213\314\277#Cu\020\307\374\271\277\217\016z\374\3774\305?b\314\247\330\342d\314\277\022\025h\177\271\271\320?\331\366\013\260n@\263\277\3153a\301\036\217\312?\310<\227N\220\375\327?\264\221\312\230\253\264\306\277\262\t\366\200\365\017\315?D\205\013\365\313\222\272\277\245\250\216\260\003\202\341?.\214x\333\032\313\301?\267\245\006\2012\031\320?\r\023\323\246f\346\232\277[(\231\234\332Y\320?\327\331\220\177f\020\325\277\235\302c\242\265 \324\277\377\003\017\200v\217\314\277%\010\323\007\375\022\312?Zr\211\341\362\361\302\277HxWJ\212 \212?\352U\307\236\373z\342?b\001\002\214\035\303\323?\320\205\252\373t\372\320?||c\204\307\351\333?\347\246\005\343k\305\242?\210E\261\201\031\370\330?\226\007\206\377\266\237\321?\241\254\316 \364\"\314\277D\332J\330L\370\303\277\363\261y$w;\311\277h|\272\025\035\244\303\277\264[\313d8\236\327?T\270\324\367\320\364\254?\243\261\264[\344\001\275?\341\314T-\216o\320\277\313\022\235e\026!\311?\365(\"\3448\307\260?0n\376\272.W\340?N&M\007\333\035\312? ^\370=\3010\304?\206x\177\027\021 \321?\tE\270\236(\326\237?\327&_\032\320\034\323?\307\t\372\250\022\247\274\277\3233\234\266o\203\303?\247\363\270\332PR\303\277\241KY\002\0002\320?S\r5\351:}\244?\216\346\351\330\030&\300?\353\354\\\377K\245\324?O\362<\033f\246\321\277C\225\033\276\345\347s\277\351K\210\034\317%\317?\014\215i\236\n\325\343?H\340w\"t\017\236?$\026\347^\026I\334?KN7\232m8\312?\377p\374\365\257\321\302\277\034@\277\357\337\274\323\277\376\211>\335Hr\321?\'\367\371\3672\264\306?\343\320\021\257\241\212\312?a\261\237(}\337\267?\361\t<\244\326\003\320\277\033\360;~Vv\325?\216\301\324\340\307\242\336?\202T\253+vf\261\277\016|V\343\266G\320?\264\300h\240Cj\331\277y\016~E+5\304?\t\301\252z\371\335\331?\177F\211`\223j\276\277\2471\214\201\226*\322?\r6\267:\347\304\305\277T\"\303\t\320\337\310\277\277\343%I!\332\261?\320EC\306\243\224\340?f\321\246\260sO\271\277\242\035\036_\316.\305\277\216\262\372\372\214Q\332\277>T\277w@\376\322?cD\201\302\311K\326?\317i7v`k\200?!\223\214\234\205=\314?WV\327\367\232K\221?\315:\004\n\314u\317?]\252-\320IJ\325?\3575F\3437\242\300\277)Lk\025\365\260\303\277a4L\351p_\314\2777Yz\237p\027\307\277\212\3531\364\374\'\274\277\221b\200D\023\250\304?1\351s\336\224\214\342?^\232d\334\273#\322\277K>\227%\021\314\302?\333T\366\300;7\305?\372\205p/\335\342\266?i\210\021_y\322\310\277\355\262l\241\274s\253?\311hp\235w\n\320?\030\276\021\037\320\200\256\277\360\206\023\034\207\017\306\277\272D\232\035N\205\323?\217\316\257\234s\246\304\277\204\313t\371 \225\303?-s_s\263d\331?`\234\021\010\350|\307?0dT\235\376\201\264\277\252\255\001\337\247\t\332?\351\037\n\207Z*\310?\027S\237\232\201\000\340?T\031k$\256\210\317?\267\233\340\233\246O\303?\364\203_\217.[\330?\214\032\0026\3264\323?\310Q\312\265\262\016\301?\202\222]\304\322[\321?5\304%\205\201@\335?Y\276.\303\177:\333?\026\372\036\375H4\335?b\321\235\365c\362\305\277.l0\201\031[\301\277\204\304\013\\\375\\\302\277C\244K\244\331\341\326\277pY\t\006\245\"\305\277\321\205G\321\271\221\326?7\017q\275\2673\303\277\356H\314\036.\332\322?\347:\t|\260\322\302?,\031\341\234\372\010\230\277\247\312Z\267\377\320\305\277)\363\352w\274\244\333?\013\345\216H%\006\317?\002eS\256\360.\320\277gC\243\340\316\252\301?\342\022\221\253\242\211\303?L\241\230aH3\350?\361(Ib?G\244?\2736\n\377\330Z\307?|i\340\000``\265\277w\350G\005FE\303?Xe2^\3539\275\277\361\212\371\034\314\344\312\277\367\022t\305\326\375\326?\277<\215I\271\332\254\277F\247\031\030\232\347\307\277\363Ox\"\353\235\306?tM\365\"\342\177\326?\177\017\003\002B\320\321?\227\n\"96\216\316\277\310F\336A\005j\314\277m\223\'\234\037w\263\277\274\324!\232\355\310\305?W:\304\344\262\366\315?\367\020\001E4\323\331?0\021o\235\177\273\322?\315\325E\300\327\006\326?M\270\333\036R\306\306?\314\363;\250\037/\324?L\241\332}\0329\277\277.>`y\353\327\315\277\347\320\267?\366~\273?\365\245\320\334\267\030\316?Drl\0345\317\321?\313\002y\270\025\251\304?\373(\033\275\267\365\303\2777\312U\2077\306\303\277\261\335=@\367%\334?\230\3756\233\371\033\331?Lq\260\222\352\026\334?\007\"\315P\303T\272?\364_\224^\243>\320\277\260\342\226\2073\\\262?\365s\371\305[\235\310\277\"\261\366\332\340\302\320?\244\216+\201\326\364\321?\224\357\000\354/\375\274\277&\275\271\t\010\367\304?\177\317z\276\207\307\272?S&\356\336u)\263?\362uz\336D\346f\277\201\266r\202xU\302\277Z\252.\207\255>~?y\205.v5X\303\277sv\276\3416\001\320?\016`\333\354Y!\314?\330n/\'p\204\302\277^\217WZ%\334\300\277\203\220\003\341\320\\\350?\035\322\177A\230|\317?\315\256Z\035)p\300\277x?U\"\334\246\302?\265\330\222\372W{\302\277_\322\265\202\350\001\331?\372\263f\376\255q\274?\352#\215]\344\226\274?\354\214\032\014\250Iv?G\3156\273\336\313\302?\354\367\001\236m\233\244?\333\343,\2740q\240?z\356\024\335@\"\321?\217\223\035v:k\321?\310\364\337\336\220a\321\277\255\210y\332\n\257\300\277\210e\022y\273\363\311?@\270+\211&\257\302?\216\201+\217$\367\341?C\241L@\237\212\350?\302\332\030;\341%\306\277U\333\260\032\t\274\304?$\354\035f\026>\313?9\221h\033\342\314\310\277F^\326\304\002\037\326?\352\256\354\202\301\265\323\277\000\311S\332\013\232\300\2776\364\201\252\3629\316\277\223h\362b\233\263\337?\2265\332?\211.\325?\333\374\006\300T@\247?\265\260~\236\314`\303\277\250\355\025\314N\365\323?\030\000.\361\025\027\254?I\370qCr\203\254\277\2645\205B\302\377\306?\207\355\274\307x\030\300?M{R?\322\324\327?q\323Up.\264\245?\254\337mZ\000\205\301\277\311\004\272\376v|\323?\202#\036\334\337Q\330?g\340x%fI\305\277\375\267N\000\036\201\210\277j\025\232w\336\276\304\277\311@\330\010H$\303?\303\334\266;\340\304\242\277N\243\301T\320@\277?\022\207l ]l\303\2775\323\275N\352K\337\277#\033\357^S\277\253\277\245\017#\245U\004\244\277z\265\263\032\330\313\314?\210\214?8<\020\305\277\276\201\013\252\364\260\265\277>\232\003g\235/\307?\327\350\254\201s\347\327\277gh\227\3126K\325?\261<\376\301vf\343?DVc{\300K\235\277\261\265k\000>Q\325?\022LV\301\177\245\314\277J}\027\276\327\263\327?\320\217\320\340\000D\346?o\335I\033yf\306\277\357^\244\006\211\243\260\2773\177T\334\033\260\327\2778S|\327\373\350\313?;\362\264\272\244\003\312?P\264\376\330\034\316\313\277\"\240FJH^\313?\2225\321\204yQ\311?{\002\325\375kR\320?:U\204\274\232\023\327?\276V|\"\323J\320?1\037\367J\254\316\260\2777\225\373\323\374\347\302?:\013\326\223T\001\314?\305Z\031\340\304\210\325?<\027FzQ\273\305?\336\322\305\001O5\304?S:\375Eu\337\265\277\322\353\344Fp\247\312?\377M\275\250\274\241\315\277\353,\3044\035K\322\277MA\206\247\272\364\303?\207,&\304\311\356\247\277:\251\324\221\310\343\324\277Q*\242\245yg\225?\277\3213b\013\346\315\277)\014F\374\365\320\305\277S\016^\242\027\301\311?)?g\332\0273\305\277\200\200\224\\\356\341\301?\222\r\377D\300\374\311?\272\334\375}\010\242\304\277:0N\266`-\313\277uc\356\030&l\305\277\355\356\246\000\275\225\312\2771\341\341\207\2240\325?b.\353\366@\310\311?1\314\004!+\210\241\277\242\030\351\335\t\n\224?&\001\007@\036\362\321?\264R\214\034\267R\324\277I\275#:6H\300\277rl\252\337f\240\255? \214\351S\330\026\345?:J\363\001`@\321?[l\244\266\036\317\313?\201\201\326\262k\261\331?94]6\327\274\315?\345RK)\236\351\315\277\232!\270>j\033\313?\261t\272\003\247\004\307\277\365\311\037F\347\200\261\277\'\2507\\\021 \245?B\363s\"E\r\323?\252\220<!\205|\322?\330\355\365\346\036\257\305\277\340\377\272\337\020\306\252?\023\014\r\342\010\364w?\263\010(\201\213\235\270?\377J\276D\202\312\322?\225i\333\000\321k\246?\246\211N\001\366\362\317?H.\203Z\241\002\315?h~-\226\277\316\304\277\312\322\271h\351\206\271\277\245i\016\030=\032\315?\311\"M\274\003<\320?\r\373\177\315 \333\277?\236TE\002W\303\337?\327\227\327\327\333b\315?w\257\346B\335n\301\277{>w@\341\005\310\277\326\367\310\203\200>\324?\007\373e\346\270\t\305\2772\355\264\230L\323\277\277Cm]b\0236\314?\312\351\004\227;\361\276?\223\350\334\"m9\244?f\373\014\177\270\361\316\277\300\315\301\267\331\355\300?\007\316\031Q\332\033\303\277\270\253\374\327^\260\264\277h\355\021\305?G\321?:Z\325\222\216r\311?Y\312*Si\027\251\277\017\272B\'\235+\311\277|/\031\"\002)\322\277\254\265I\250\215\250\244?\2268\331\243\303\205\335?]\203c;\204\226\320?\027\254\006\233\031\201\306\277f\031=\022\212\010\305\277/\207@\242\307\367\304?\316\240%\270&\027\303?\324\251~\347\017\264\275\277=>\306\201\374\221\315?\303\302 \033\016\354\321?H\322\301<\\\331\310? x!\302d\317\345?\255\021f\177E\243\266\2773\323\007\334\004)\254?\2536\305\004\261\303\317? \035GA*$\310\277\343Ai^\304-\322?\377VW\252\260>\310?+o\201\343\266&\334?\274[\233\276\205\022\244?P\030\265w\035\\\305\277B{\026\000\272:\340?4K\346~\245\370\264?!\255R\366m\363\312?\302\021j\247b\272\310?\t\240\275\237\277u\321?vy\010\035S\373\312?\203\272\355\347\271*\266?\251\322`d\023\352\321\277/A\333\244\201#\320?\217\373\332#iq\326?\375\211\210jcO\305\277a\220\221?Z\024\326?\343B\3243s7\302\277\312\202.\206\027\351\307\277\306\206E\300\365ep\277\277&\316\376\376\234\326?Zl\356C9,\330?r\225zX\240\304\304?\364\355\217\275\377\213\326?(\214\230\237<(\323?\213\263\330\334\207r\310?\266\035K\006\035\000\270?\354l\310?3\210\343?\251\202\027\236\023R\314\277\016\331a\310\301W\310?\224\231\373y\215<\316?\030<\361At\255\271\277i\371\211\034\205\330\326?\205\032\256\243\344\264\301\277R\004\037 \353k\312\277\223\330 Y\341\022\304?\223\376^\n\017\032\301?\205\273i\351\300(\336?^L\022\317\002\202\262?r3\036\235\241U\310?\323\005i\204\206W\320?\"l\333\244`\225\256\277\352\262\024\240\330P\317\277D\351\342\241\265\303\304?\203\234\377p\272\331\261?\361\020\245A\372\273\311\277\347\\\345d=\220\315?:\364\016\236\246\"\337?\255i\317F]T\221\277%\200\264b,\021\321?J\351\253A\036\025\237?@W\021$\245\017\304\277\377/l\007\002\350\262\277\224b\313\033\365J\320?C\320\207\035|\227\313\277 m\261\025\023\237\316\277\203\353\335a\013(\244\2779\266\236!\034\263\307?\n\305\014C\232g\302\277\313\320_\205\347g\315\277\0333\34434\371\312\277:\177\311|\366\222\311\277\363P\200\315\336\276\251?\220\002\3723r\314\330?\305\311\036\035.$\306?\333L*\277\261l\340?\033$\216\206\235s\302\277\3317\336\272\356o\302\277\250\227\316=\332.\324?\230\277\366W\205\211\217?\006\357v\200\321,\231?cT\204a\341\240\332?\253\260\363\030\340\340=\2770\243\026R\227\357\270?[\314\225b\303\252\337?\240\200X\374\307\276\320\277\3655\344\002D\277\326?\211\203\276\323\350\376\275?\000\212\025^\027\270\300\277\265\333\221^\222R\264\277 4qa\223\253\321?\355QM\203\201\353\324?R0\235\265_g\306\277\326\224\236\310\027\335\314\277\374\306Sf\265\006\306\277\257\344\317\\L\330\265\277C8E\313\252\235\270\277\256\333\332\241\345i\307?\321\306\266\261~\330\324?\277\270\361zr\305\326\277\332#q\342\3559\263\277\343eU\2358\355\325?D\324\257:\2232\306?\025\254q6\035\201\340?\241\260\264!9\370\330? Dt\000\253\000\322?\253\020\221\305\366\215\235?W\276\253A?#\232?9d^\242\325\344\346?T\306\340\335\241\023\313\277L\231\212C\354B\320?\303\251\305\226\324\277\331?)\262\272\373:u\251\2777*?\302\223\212\311?\375\344\377\300\342\021\325?\231\300\010u\354{\325?\224\303\345\200vj\312?\375\034\325\237\263;\277?\334e\236\340\213D\264?\263>\212\337\271\234\307?sP\212\242|K\257\277\335\222\342\004\"\233\320\277\340\262T(\034\213\302\277\247\213\332\0369)\307?\247b|\373\347\'\325?\350\353\246R\273x\273?\005\"z\010\231\032\323?L\350&\030k\013\300?\273\317\226\030p;\251\277[`\260\227}\211\300?V\021n2\252\014\301?\006>P\270h\022\324\277\354\352\002\034J\206\320? \026\270\334c`\222?y\314\037W\023Y\301\277\224+a\022\323*\310\277\311fy\3440\224\317\277:t\335\010In\250\277\247!\211\342~\325\310\277\251\031\255\376c|\260?\345`\025\363\234\302\240?\036M7\201\320\027\320\277\310\234\307^x\360\267\277\375\240O`\021\316\341?\3611\270\343\326o\250?F\214\350\350\002(\311?d\302y\202\016\004\334?0\232\370\027\377F\316?m\241u\236\302\233\332\277<\372>\240\\\350\302\277\243\030j^\037\347\265?\262\206I\300\001\220\316?\205\3704\345\022\340\301?\243g\'A\207R\347?h\314E\370\356A\303?O\030\336\366N\026\224\277\307\024\213cM\372\312\277\370\351\221i\341p\307\277?\2451\367\034\232\313?\335\3665yg@\305\2776w\221\225\241\242\305\277\370\025\357\360l\311\264\277i\244\010\0352\255\320?\347\212\224^\202\360\312\277\332\211\232\001\221\262\331\277Q\367\333\200\312V\260\277\027\354\n\246/\276\303?S\330=`\273\207\316?\306}\365\002\375O\332\277\006{\227{\026\276\336?\356\246\252\274\\E\204?\353\333r\303)R\321?y\206\340 p\020\270\277w`\177`.\254\247\277,\234b\335\221T\320\277\227Q\217\341o\203\240?\377\361VD\352\311\316\277\000\321a\370g\n\311?Xx4a=&\340?\371\346\253\242G\245\343?"
      }
    }
  }
}
node {
  name: "normalize_element/component_4"
  op: "Const"
  device: "/device:CPU:0"
  attr {
    key: "_output_shapes"
    value {
      list {
        shape {
          dim {
            size: 749
          }
        }
      }
    }
  }
  attr {
    key: "dtype"
    value {
      type: DT_DOUBLE
    }
  }
  attr {
    key: "value"
    value {
      tensor {
        dtype: DT_DOUBLE
        tensor_shape {
          dim {
            size: 749
          }
        }
        tensor_content: "\340\225,@>\225\326?\230\317E\205\342\265\332?N\231za[\324\335?\261L\001a\216\273\336?_\307\311\016;\235\325\277\246\354\231\312Gw\334?_c4~#2\273?[\032\t~e\357\300\277S\271?\315\177\376\302\277\350\246I\000iE\331\277\032]s\201\252\325\323?m#;\302\253\235\326?\243s\237\230\314c\303?\205\302\024\243\266\246\336\277b\344\331\243?M\321?\211a)\300\347\357\257?\246t\372\213\352\276\325?\022\031\220\234\320\024\331?\321D3\252g\234\307?TdB\006\321^\304?4\210(\211\231\273\314?:\037\"^l\224\322?\203\254\341\001\351\213\327?\243%,}*\337\331?\2378\302\232\261\005\320?\352:\267}M^\323?\316\213U{\277.\337?\364.\346\000$\207\342?\321\231\017c-\231\335?\353 \n\301\005\364\331?\276\271d\301i\246\336?6\217\303`\376\312\325?\363\377\354?\031\000\337?\333\017\241\3371\033\320?@)\244F2u\326?\357\264\353\224\375\351\340?\320\372J\326\227[\323?\020\231M\333\032,\334?\230t\255 zP\323?\320n\200\333\013s\321\277\344\034m\003\024v\326?W\351\356:\033r\300?Me\366\036\323?\334?\342J\207\230\\V\331?\321\266\324 P&\273?Z\007\254\301\240\361\321?\277l\361\337r+\323?X\27664\310\321\273?\354\033\363\225\233C\340?\327\324\036\233\211\016\330?\013\307=\247j\314\305?\336\273\027\251A\242\352?\323\223\350\033\2070\323\277\344\305\272\237\360\345\313?\306@l#}\336\311?B\343p\203-x\322\277\222\327\367\237\004O\322\277NU\014\035\\6\326?\357\345_G\3632\303?\335_^\374DP\321?\331\035\030a\006\272\313\277\323&\024C\356\371\322?\317\214v\303S\233\326?\204#\355\353e\000\326?\262Y`U\336\212\317?\211or\t\321k\326?,\326O\203\222\227\311?z\321\252\330\220\346\302?\267\243\356\271\002@\322?\367B;\206K7\305\277\255\036\346\201~U\324?\235/\264B\252K\326?\335\223\311\241,\331\327?\301\341\005\021\251i\334?4\260\300\035\311\341\310\277\244\336S9\355i\351?\3566\3327\030f\313?\355\022\223?1\325\323?=\332\223\033\240\217\325?Y\373\\\351\214\332\303\277\205D\332\306\237\250\337?p?\"\236\323\311\305?\345\324\357>\236\310\333?\263\230\330|\\\033\322?\276\275J\302\256;\324?\216\311\214\376j\352\275?\000\342X^\214]g\277\030^I\362\\_\320\277\211rP_\"\240\325?\033e?\2034\200\317?N\002;\001\304\222\264?\310\355\227OV\214\326?\316L\325\342\370\206\320\277\366\336\316te\006\306\277\022\366/A\364\301\321\277+7\356 \270\302\321?l\031\217\243PN\246\277buX\237z\375\330?*\315\336\000\320\364\343?\2727\364Sr\007\213\277\234\353\352D8\\\324\277\277~g\377,\253\317?\211\202S\3769u\322?\t\253\014>(\003\313?|-\246\241_\276\310?\324:\375\342Jd\334?\327\252U\242\211\003\324?z\312(\236\314\242\277?8\031\260?\344\310\326\277\325\377\275\004<#\322?\254\315Ze\001n\320?\350z\252\\\013g\326?W\010\212\243\233\222\315?T1\031\267f\345\316?\32048|\230\336\327?\377\037\'L\030M\342?b\254\234\341\371Q\246\277XHm\240\310\354\347?\350\005\301b\022\207{?/\215\035\\S\303\323?X)\363E1\257\326\277\336i\235~q\245\325? \330\n\375\300\023\317?=b\364\334B\327\303?\331\217\271\327\356\303\325?\033\3341\320\020\351\325?\tb\352\370y\035\324?KDS\321\2634\324?\003vw\225\234\260\315\277\r \031\376\025\252\350?\312 -\204\213K\314\277\213\025\332\336\023\020\260?\376$\302\257&\211\256?\360\210\303\377A\027\267?\376x\022\205TY\303\277\245\263z$\261&\321?\353\232\034\200\005\227\310?\330\"\263\304\024\366\266?\205\034c@Y%\327?;\340\272bF8\320\277\334\352\377=\364\264\333?a\233\\\245\036\326\322?d\210\214\334\r\001\322?\357\206\372~\346\003\327?B\276|\231\305\227\300?\263`\003\236\213\361\321?\254b\001~Sy\335?Nj\375g\254\201\275\277\177\231\326C\207\002\320?\374}\326g\224\317\312?k;\3716\365\350\306?\210\330`\341$\315\323?\247\213\271\020P\006\320?O\220}5\254N\331?\210\221\261\034\031\022\313?\177z\236\005\302J\306?\303\025\001b\323\311\224\277?y\263a\250\236\314?\217\'Y\271\335l\306?yK\244\372\357\275\333?T_+\333f.\306?]oz\233\'l\326?\010r\324\372\360f\315?\342\224\024\263\271E\332?\260 \213<b\327\321?\024oK\201X\270\334?\233\320\034@\\\305\347?2\006R9X\305\272?O\326\301$\t\000\307?\354\326\327_\033\026\326?\310\346O\300\033w\320?^\033\3408\337>\312?y\000\315\030\315g\270?\202\201\020^\365_\335?3/,$\005\373\340?\362&\001b\371\220\323?\236\231\036\034\005\253\322?o\207\341~\033\235\340?\244\r\3212\234\374\321\277\362i%\3372\310\261?;Gpe\201\335\314\277\314\230\345_\211\017\325?\340\001T\'V\374\325?BHP\333\n\n\301?\013D\354\237\351]\325\277\001\237\243~\254\032\333?\271\001]\003t\002\326?\314O\036\324M{\277?2\325a\277\006\310\325?\344\3725a\024\'\321\277\033tS\024\371?\275?\177\031\354\203\265\374\256\277\360\010\033\\B\327\316?\201\372\345\1771\334\267?\0339\240\337\326a\307?\222\255.\247\004D\314??\222P\002\264P\340?\"\001\335v%r\316\277{\252\371\340k~\321\277\010\352\304\200M\037\233\277}p%\330\013G\303?\027\302 \237F\360\342?\367\331\022\003n\'\325?;\rA\243\256\224\324?:\327\305\247\337\211\300?\245\3101\304w\203\321?H\275\n\235\225\274\310?-\220\003#\355\316\317?\3768\t\301\204\263\264?\0018\356{q\265\310\277Uu\250\tO\246\314?\304\022(\305;>\323?\002b\022.\344\021\323?\347$k?\337\267\335?\\\374u\300\330/\343?G2\365\004\323:\327?/\t\345\267\307\326\304\277\001X\357\000\347v\265\277h/O\245n\300\335?\005\005\224<\215*\323?~\231{\212\024\261\277\277\262\232\360C\2144\320?\252J\031@\021\256\321\277\006\366\230Hi\266\315?\017\216\345\237\021\223\324\277\334\006 {\336\211\324?>\006+N\265\026\332\277i\241\256\377\204\304\262?\"J \312\274\372\323?]\250\231A\276\374\335\277\177Ee`pO\325?LV\177cS\327\300?\354\335\274\304\232B\330?:\207+\232\3401\236\277\223\351+\243\354\210\325?e\327I\277u,\310?\242\257\346!\317\205\326?\226}\262\275q\355\323\277\342.\014\242\377\257\312\277T\3441\177\\\315\275?a\334O\276\207h\327?\265\246\232\325\022]\274?\002\321\366\\d\312\332?N\2532\235\347Y\341?\032t[\205A\027\333?\013\225E\202%\256\332?\317\337\235\337\244\'\336?\272{\312{\346v\313?\\c\206|\206f\330?87\\\232\021\224\320?,\226\t\\\252\024\316\277\0322\242\335\266)\320\277\234\226/\232[\302\300?\260\243\014}\371b\246?\200-m@\235\225\332?\241\t\034\"\3218\333?\225\226\364\244\n\316\334?\010P[<\037\022\327\277\360\255\376\2765\346\346?a\0130\342\361#\332?\203\310\032\334s\354\335?3\332\354@\204\325\325?\306E $,&\322?q\366\326\331\363\251\253\277f\014\234\001hs\314?\r2\013\345+\036\314?\200$\221\"\327r\312?QDm\270\033\206\245?\251\2447\244\235\017\251?\301P\352?)b\327?e\027\220\346]/\310?\233C\255\304\227d\316? \250\350\202\331\210\312?=x\263\'\375\224\311\277\226\"\330<7\202\313\277\213\177\351\376\373\035\320?\267w\262@`\252\343?\342h\3309\027\220\320?\036H\305\234\363\225\301?6\003}\236\026\356\330?\237\207\342\247\324\231\303?\016{\312\377\036\033\323\277;\207\225~\200}\331?P\t\374\237\313m\323?}\021\341\035\350\272\320?k\212\266\031]\024\331?\022N\013^\364\225\300?\201\034\234\241\033N\323?\330\322H\360+{\336?,\246\210\302\035\276\340?NVV\344!\335\322?\204\246\200\017\271t\301\277j\337\334_=n\321?|\311\357\002_0\334?\021P\247]\310\372\236\277Yg\276{.0\331?N8G_9\251\315?=4\240\234p\210\322?x\370cA\376%\306\277_S\357\3029\027\334?Z$\324\251~\347\263?{\006\036)lP\315?\235\231G\2336\345\322?\275rZC\353\031\325?\021\214b=\336\371\322?hu\027\315o\275\327?\256\356\375\262 9\325?+\245gz\2111\326?\006\306\023\244\306B\323?Z\236\305Z\225\347\325?\014rY}\\8\325\277\276\347\270\001<\265\321\277)\005\037{\244\336\321\277.\225\022\335\016(\323\277)\217\362\274\351P\321\277p\306\366{\336\344\332?o\037E\337\325\231\334?&\032\346\374\373i\321?\241\233\201\272\026g\307?\tv\323\230\326\307\313?\034u[\277\354 \327?\315&\270?\264b\315\277I\245u\247}k\236\277?\365z\275\034\362\326?\210~\252`\r}\270\277\306\215\370\241\024%\314?\035\316\231@S\247\320?# \221|F\036\315?\272Bi\271}\240\326?C\317^d\237\223\335?,k\264\177\022]\325\277\353\240\3719\221\"\310\277$\257sx\255)\313??\000\312[\205\177\302?\002\267\356\346\251\016\333?\301;\371\364\330\226\323?\225Ud\266\\d\301?\357\335\254\342\tt\342?6oA[sl\322?\216h\361\030\324m\314?\214\0023\2254\265\324?\322\206&\375{x\330?\243\334\205\377\327m\325?\232W\330\200\306\324\321?\327LB\022\213R\266?\261\261\001\307T0\332?\226ay\343\346\314\300?\022s\033\235\213p\240\277@\345N\237\323b\315\277U:\016r\315S\321?Gbz\251un\310?\216\361Y\205j\026\327?rY\340\206s\350\301\277\243\310\234_{\003\307\277\006\254\250\003Q\336\307?\355\353e\200\260x\325?\214$\213E\035g\327?~)\362\332[\000\321?5\256f:\307\302\310?\262\005\214G\014\257\315?Dj\034\342\006Y\341?\223`\375\341\337N\300\277v\256\203\336v\274\322?p\320^}<t\311\277K\240w\031\264F\341?\215\250\232jwY\266?\313\316\252\350rw\317?V\311\317_K\274\306?\263%\253\"\334d\323?\252\301M\251\277\034\316?\177\334~\371d\305\325?\300\320\300\033\024\305\316?\341\253\004(\231\336\313?\273\226Vd\360\207\320\277\354*\315{\326\024\274?\013\200L\306\214\313\310?\243\237\374\037X<\314?\337\333x\240\343\335\324?Q\345(\376\367y\324?\262\210\274@\244\372\326?\217G\272\260\177\250\340?\273:\360\377\035\260\321?\265\352kD\315#\320?1]\210\325\037\341\317?j\nF \274H\272?a\241{{|g\304?\362\352\240;V\343\327?l\017\367h\334\341\316?\210\263l\367\274\254\322?Y\324qF\336\203\315\277\205\314\327]\207\007\272?=\333\335\342e\366\333? E\031\201\343\330\340?\355Xt\004\323\335\305?\227&\276=|W\330?S\252\247\003\027\263\322\277mc`\333\252\275\315?T\275F\334\2556\320\277B\031\025\376-}\323?\341\037\235W\310\036\303?\024\355*\244\374\244\305?\315\323\220#c\326\322?\006\231\246\000\377\261\323?\016\234\330\350A\346\302\277\025\0210\200\021\220\341?\306\275\277b\211\336\270?~\224*\264 R\264\277\2133\2069A\233\320\277\203\n\312\021\213H\217\277\234b@\274\317m\323?\275\372\374 `g\263?\004\362\265\377\262\217\245?0\007\346\2158\211\343?P\000b\236\327\320\325?\314\006\333\200\266r\321\277\177\345\326\336\206\234\331?W\026\267\227UT\314\277p\020\245\244$\367\324?\031,\213x\241\357\317?\337\326\006\274\006\\\332?\034\216\266C&\215\301\277%R\344Z\376M\325?\367L\250@c\257\274\277\206\256D\240\372\207\322?\242i\344ND\032\306\277\031\274\\\202[\020\326?\301\346\034<\023Z\343\277\335\307vc\346\'\322\277c)/\205Ii\322?\240.\030}\2010\301\277\226\253\304\341q\266\340?:\266\371\332\216\004\342?/Z6)\273\317\324\277R\n_\0042\340\331?\313\020*\345s\366\321?m\352U\307\236{\315?9\315\310A\205z\322?\313\252\235\233\025\325\322?\235\300\256\005Ap\277?\305 MH\255(\315\277\300M\220\"|\371\340?\t\"\203\303\250\367\321?\240]thG`\303\277\361\025\366\027\356\032\315\277\235\250[,\373d\323?\235?\267\341\301\200\340? \335|\341\235\025\325\277H\256Q\305C\016\324?\323\376A\0035%\326?]\230\226\242\246\'\326?aBy\335*\241\330?\340_\210\305=\320\313?\027m\351,\016\302\317?b1\352Z{_\330?q\202\200\306\226/\315?\017\257\363\2104\236\305\277s(\350\233\331S\312?\256\241\222BrU\323?\322\365\276\235\266\331\217\277\032\261\344d\301H\267\277\302\304z\376\017\013\316?\236\020S\205\263\031\325\277\033e?\2034\200\324?@\274\360{\202a\323\277\t\270R\225\327\306\303?Mc\275I\272\003\265?2\017\354:L\342\312\277~\342c$9h\321?v\353N\332\3103\314\277\242}\254\340\267!\321?\026l#\236\354\306\340?\222\363\325\300\034>\340?\373\365\267\302\303\315\327? \361+\326p\021\304?o\372\314\274\311\355\323?L]\246\344\244\311\332?Uq>\320e\305\313?\177L\316\375\223\307\272?%\263\027] y\330\277Q\232\366bb\322\324?\215\3405\236\276\324\335?\214p\213\340\034\201\304?\373=\322\\~\222\336?{\265H\177\324\013\333?B\021\305\303\377\306\326?~\376Z\342\361\202\327?\272\201#\375\315\366\274?.0T\223\032\271\256?\030\030\303\346-h\330?\226\215s@\267\374\324?\3774\377\371\307\214\314\277#\211\271\377#\256\314?\372\317\232\037\177\251\346?\0271G\352\230\316\314?\310\316\333\330\354H\322?\377\031\357\330\031\260\341?\006\375\032\203-\372\316?{\033\366\326\033\220\330?\212\244\243=\332\017\321\277Qx\032z\325\024\340\277\242P&\240O\205\334?\237\230P\034\2338\320?O\227 ~Y5\311\277\2745\372\342\234\"\271\277\264\204\010z\240\374\305\277L*\"\334\307>\332?\264\327\016\210\010\346\317?B(\214\271\255%\267?\377Q\345\305\323\274\322\277\221\264]\231\236\315\315?\002\353\335\3045c\327\277;,\273\375ER\325?\367\337\357\274\371r\327?\356\312\221B\027\034\326?/\215\2721\230\032\272\277O\"\302\277\010:\345?\212\203\370~r\255\335?\306\000\242\303\360\317\303?\345\216M\336?\227\220\277\354\316$\3731\267\337?\034\345\005}\216t\331?6\335\035\337\377\303\326?\343\r8dfS\330?\227\317M\366*\215\326?\326W\364\332\256\210\331\2772\346K\373(\233\314?\351\231\301\214\347;\266?\232]9s\366k\261?\236\274#\276n\354\305\277\260\315c \021K\325?\311M\334C%\"\326?\036\363\246\307[S\314?8\334\242\'\300\213\321?l\274*\006\376\246\336?\320/\177\302/\256\202?\245G\273 \016Q\273?)bl|\201\264\311\277\331\016>{\313\250\321?\374\004\253E\237\352\324?\246\272>{G0\320?\376\351\253PI\202\341?RI\235\200&\202\322?\344D`Q\266m\324?\252\3441=@{\300\277\225\322\330\003R\007\342?\223\3677\211\275\'\313\277\320\221\246\213^W\275?\027\354+\264\030a\320?\252j\335an\222\324??\260\374\\\341[\325\277J\374\376\213oA\277?\336\262\001\340\361\320\325?\3411\321Z\260X\321?+\210\242\274f$\335?\262\320\326\332^\177\321\277O\324\251]\331&\322?\\\236\234\333cm\303?|\370*\340;\275\262?#\360n\002_\223\314?\372.\000\350\213\230\330?\007\201X\340r\217\260?\231)\255\277%\200\323\277\306\014\236S\332,\325\277\023\353;\\\376E\327?d\227f\302H\222\331?\252d\000\250\342F\311?Y\023n\246\000\240\311?\322L \272\332i\313\277\367\004&\3033\031\317?\2210\210\037\316\211\323?\010\343\n\234*\347\303?\233\213\001\n\334W\312?\254\337\320\204\273\355\322?\312p<\237\001\365\317?\"\361<\002\311\305\343?\367\340\275\274c%\320?\177\344\304\301\037*\223\277\2419\343\342E\362\326?x\2270?\334:\320\277\367\336\306\003\035o\304?\253z\267\201T\355\307?\000\234(S\026\317\323?\\I~\006\314*\265\277\026\275\3279\233H\315?\307>T\\M\305\335?\226\271T\000\347\240\321?m\356\277\000\210\334\317?_\267\245a:%\324?\273\373\261\203)N\323?z^\340\250\313\030\323?\211eL$Eb\321?\027Xt\251\031\353\314?<\025\r\2458\277\322?\354\037\372\244\311\373\325?\034\244T\200\367\'\304?i \361\206\217c\323?\250V>O,\205\266?I\226\335\335\024 \324\277\246\010\025\301\244]\331?\307M\211\373\372\347\322?\004\324\'\373\337\270\323?\3214\017\375fd\324?\312\007\024\034$e\320?\273jT\226\327\000\323?\362\026\376\302\341;\323?\226h^Hfy\313?\007w-B-]\330\2772w\353\004M\256\305?nEj\363b\325\261\277w\363\371\315i;\323?r\305 \013,\333\307?\221B\376>\210\311\320?=\234\237fq\024\300?^\203\337\002\340\212\306?\035\3273BG\204\320?\035c@Y\245\262\277\277\021[\325\355Ge\340?\225a`FFA\317?4\306\177h\203\237\317?\364e\016\356s\241\327?\257\220\301\243\360\r\335?\0165e\002\331F\322\277\214\365pv)}\314\277W\241\324\240`-\263\277\214\315\330\341\371\326\317\277\212d~$\333o\324?\240$\260{#a\332?^qi\343%K\320?\313\260\335\177\\I\303?\375\273\343\271cV\320?\026\371\3245\203\215\312?\nI\207\003\370\331\311\277\000\312[\205\377\272\323?iyy\225\020\207\305?\230>\t\246y\313\305?\212\177\320a[\322\320?\276;\350\310\200b\343?\300\253\253#\303\001\321?\223)Q\274\353h\317\277\244*u\342\325f\310\277\363(\215\177<\307\303?AGi>\000L\325?R\020\372\241\353e\344?s\033&}\316\333\322?\252\207`\003\277\031\333?\223A\305\243\032\027\320\277\212?\212:s\217\306?\271\3676\036\350\370\304?\301\373\354xz\302\314\277\342\260\023\342\272\367\324?\324\207\344\032U<\325?R\365eH\231\375\266\277`\302\r\235C\376\327?\240\000\345J\230\204\341?\255\031t\235\241\323\321\277\315y\204\242\222\235\313?\250$%\034\376C\306?\330nqCB\312\331?\361I\345\365y\357\300? \333K}\315p\327?\025\321\351X)-\317?\337\266=\341\357\216\265?\252}\235H\356\270\302?\245E\340\274\366T\314?\244\013=\244\020o\326\277\277\215\255\\q.s\277\000\000\000\000\000\000\000\000(\345\275\203\002c\325?49\255\302\003\326\334?\366B\277\276\357B\315?\\\304\034\251c:\321?*\335\341\237\347\t\264?dA\274\t\031#\335?:\234\361d\324\210\323?*C\013\277\212\002\326?\276\370`!\214B\326?[\355a/\0240\330?\331\n\365O\313j\317\277\244F\002\274\356u\240\277\244\214v\344a\004\325?\217X\346\010t\201\324?#\251\352\275\257\314\250\277\261l\007\237\275\345\324?\005\031\"#w\303\314?\0346\035C\370\376\320?\321\237\252\000\347^\312?\234^\333;\240\365\253\277D\254Y\3025\222\324?}:?A9\274\320?\331\002\306#\206\327\321?\307\013\2167\236t\316\277\t\r\253\025\3717\317\277\273\356\316V5\363\317?a\310$\002Yx\317?\370LTA\325\200\257\277\212~#p\332B\332?\032\200\262\316\235\005\322?\277=\370\036h\344\264?\001\354\355\340q\033\327\2774\317[\206I\202\313?}\217~$\272\241\332\277\322\246nW}\350\313?(CUL\245\237\313?\005\221\034\033G\315\312?\337\234:$\357{\315\277Q\351\026p\205f\303?\220\265\216\303\303\250\334?\260\277\323\001\234\240\305?\226\315\034\222Z(\211?\265\201\340\2264k\332\277\331\303\207\247\221\365\301\277\330am\010eL\270?\204:\366\375\345\344\340?\353\327\010\212@\361\317?I\013<\234e;\323?\2243\322Z\352C\336?E\212\371\240\004\311\333?\270c\342=\244\353\313?i\213\323_\233\314\266?^\312\n\217Gz\341?\326\261\245\242\014\260\323?\324\361Ve\3702\333?\221:\t\276\314\344\326?\215\371\322>\312F\325?\204\263\337\003\t\304\322\277V\t\375\351\222\263\315?\001W\r\035\226\341\322\277\202\266\213\037\031\301\340?\363\353E\274\216[\321\277\335\337n\203\271a\301?\211\002\001[\363\235\303?Xd\246zS\215\336?\0249\247\006X3\316\277\314ZLd\315\345\326?\021\002\217\373\230\207\311?\365\206V\202 \233\317\277j\336\222\230w\207\314?{7q\315x\266\341\277\223\316\033\202>l\325?\000\267\335\272Q\032\274\277\316\010%\202\'\343\302?\322\322\354\354\361c\265\277\246lG\'\001 \333\277:\256Fv\245\345\312\277\355$\307B\031\217\323?\177\230\316\230\223\341\323?\222\204\320\203\263\202\321?OH!\177\037\304\335?\253M1A\354\320\311?"
      }
    }
  }
}
node {
  name: "normalize_element/component_5"
  op: "Const"
  device: "/device:CPU:0"
  attr {
    key: "_output_shapes"
    value {
      list {
        shape {
          dim {
            size: 749
          }
        }
      }
    }
  }
  attr {
    key: "dtype"
    value {
      type: DT_DOUBLE
    }
  }
  attr {
    key: "value"
    value {
      tensor {
        dtype: DT_DOUBLE
        tensor_shape {
          dim {
            size: 749
          }
        }
