node {
  name: "global_step/Initializer/zeros"
  op: "Const"
  attr {
    key: "_class"
    value {
      list {
        s: "loc:@global_step"
      }
    }
  }
  attr {
    key: "_output_shapes"
    value {
      list {
        shape {
        }
      }
    }
  }
  attr {
    key: "dtype"
    value {
      type: DT_INT64
    }
  }
  attr {
    key: "value"
    value {
      tensor {
        dtype: DT_INT64
        tensor_shape {
        }
        int64_val: 0
      }
    }
  }
}
node {
  name: "global_step"
  op: "VarHandleOp"
  attr {
    key: "_class"
    value {
      list {
        s: "loc:@global_step"
      }
    }
  }
  attr {
    key: "_output_shapes"
    value {
      list {
        shape {
        }
      }
    }
  }
  attr {
    key: "allowed_devices"
    value {
      list {
      }
    }
  }
  attr {
    key: "container"
    value {
      s: ""
    }
  }
  attr {
    key: "dtype"
    value {
      type: DT_INT64
    }
  }
  attr {
    key: "shape"
    value {
      shape {
      }
    }
  }
  attr {
    key: "shared_name"
    value {
      s: "global_step"
    }
  }
}
node {
  name: "global_step/IsInitialized/VarIsInitializedOp"
  op: "VarIsInitializedOp"
  input: "global_step"
  attr {
    key: "_output_shapes"
    value {
      list {
        shape {
        }
      }
    }
  }
}
node {
  name: "global_step/Assign"
  op: "AssignVariableOp"
  input: "global_step"
  input: "global_step/Initializer/zeros"
  attr {
    key: "dtype"
    value {
      type: DT_INT64
    }
  }
}
node {
  name: "global_step/Read/ReadVariableOp"
  op: "ReadVariableOp"
  input: "global_step"
  attr {
    key: "_output_shapes"
    value {
      list {
        shape {
        }
      }
    }
  }
  attr {
    key: "dtype"
    value {
      type: DT_INT64
    }
  }
}
node {
  name: "global_step/VarIsInitializedOp"
  op: "VarIsInitializedOp"
  input: "global_step"
  attr {
    key: "_output_shapes"
    value {
      list {
        shape {
        }
      }
    }
  }
}
node {
  name: "global_step/cond"
  op: "If"
  input: "global_step/VarIsInitializedOp"
  input: "global_step"
  input: "global_step/Initializer/zeros"
  attr {
    key: "Tcond"
    value {
      type: DT_BOOL
    }
  }
  attr {
    key: "Tin"
    value {
      list {
        type: DT_RESOURCE
        type: DT_INT64
      }
    }
  }
  attr {
    key: "Tout"
    value {
      list {
        type: DT_INT64
      }
    }
  }
  attr {
    key: "_lower_using_switch_merge"
    value {
      b: true
    }
  }
  attr {
    key: "_output_shapes"
    value {
      list {
        shape {
        }
      }
    }
  }
  attr {
    key: "_read_only_resource_inputs"
    value {
      list {
        i: 1
      }
    }
  }
  attr {
    key: "else_branch"
    value {
      func {
        name: "global_step_cond_false_25068"
      }
    }
  }
  attr {
    key: "output_shapes"
    value {
      list {
        shape {
        }
      }
    }
  }
  attr {
    key: "then_branch"
    value {
      func {
        name: "global_step_cond_true_25067"
      }
    }
  }
}
node {
  name: "global_step/cond/Identity"
  op: "Identity"
  input: "global_step/cond"
  attr {
    key: "T"
    value {
      type: DT_INT64
    }
  }
  attr {
    key: "_output_shapes"
    value {
      list {
        shape {
        }
      }
    }
  }
}
node {
  name: "global_step/add/y"
  op: "Const"
  attr {
    key: "_output_shapes"
    value {
      list {
        shape {
        }
      }
    }
  }
  attr {
    key: "dtype"
    value {
      type: DT_INT64
    }
  }
  attr {
    key: "value"
    value {
      tensor {
        dtype: DT_INT64
        tensor_shape {
        }
        int64_val: 0
      }
    }
  }
}
node {
  name: "global_step/add"
  op: "AddV2"
  input: "global_step/cond/Identity"
  input: "global_step/add/y"
  attr {
    key: "T"
    value {
      type: DT_INT64
    }
  }
  attr {
    key: "_output_shapes"
    value {
      list {
        shape {
        }
      }
    }
  }
}
node {
  name: "normalize_element/component_0"
  op: "Const"
  device: "/device:CPU:0"
  attr {
    key: "_output_shapes"
    value {
      list {
        shape {
          dim {
            size: 749
          }
        }
      }
    }
  }
  attr {
    key: "dtype"
    value {
      type: DT_DOUBLE
    }
  }
  attr {
    key: "value"
    value {
      tensor {
        dtype: DT_DOUBLE
        tensor_shape {
          dim {
            size: 749
          }
        }
        tensor_content: "~Z\244\253O\222\326?%\361\003Or\353\361\277\003\352\352\264\0239\301\277|\006\257]\334\254\323\277S\273\006\030\005\244\365?\316L7\023\021_\356\277\317\367n9\362?\323?\345\025\314EU\316\363?\026\206r<j\361\363?\306i\nu\3135\372?\262\"\022\237\005 \363\277~\272\343\366\020\177\361\277p\233>i%\263\363\277\217o\342\232\262\306\373?\204\222\232:I\273\362\277\304>\327\313\3150\326?1\017\230\030\351\201\313\277ua\202/\305\264\364\277\222y\037\322K\224\302?\367{\031\t\223\370\300?\350Y\3255\364\214\321?\300\371)\026\303\001\355\277\340\234\023\215HQ\365\277\365\3109*\313\237\320\277\325\320\304\240\323^\355\277\243\333\216+\256X\360\277\223!F\256\217\t\366\277\341\214\310\305\320[\350\277\217r\205\224&\027\362\277\217w\350\334[\034\322\277\345>B\376`o\301\277\323\225\372\263\001z\363\277\007\213\243\260\2552\342\277\310m\235T\034\"\356\277\335bqH\231;\361\277\r\330\002qU#\311\277\210\323\'\354\344+\343\277\311}\001\017\036\000\323\277\204\355\023<a\261\352\277\342\357\027\214\375\245\365?\002\317 \017\352\226\361\277=\202\334\325\371j\314?\260\236[\251\327\375\321\277\257\t\303\003[\'\367\277+VB\003\221\307\314?}\210l\251\223\216\332?\335\0362\243\255l\361\277\374\203S\321v\347\340?\211\333 \362$6\363\2771x\227\212\200P\357\277=T\312Iz\311\362\277\236^\377KE \366\277~k\351D\347\003\373?-u\210T\367\324\313?\202\00786\252\037\306?\\\027\202\377\255\353\365?;\301u\257Z\260\371?\362\333o\325\024.\324?x\003\032t\206\217\311?!S&\244\n\t\354\277\276%\177\267\276\311\364?\321C\316y\273>\355\277\200\345\220\003\031\331\363\277\"<\322\366D\211\332?*\216&\000\340\246\320\277\267\303\302\004g\350\355\277:\354]5\000\335\267\277\321R\234y?\377\311?\223Y1>B\274\360\277\023\355\354\033\021\257\366?\242\004\021\221/\375\361\277\224!\216\031j\026\327\277\256\3460\323\006\345\360\277\274\372\036\200g\303\325\277\275\243~F,\237\363?Rt\204\351\261\252\371\277\234`\266G\347\037\320\277o\020\313q!s\362\277\010G\302\350\344Y\260\277\003\211\264\203f\004\364?\357\277\315c\366\207\366\277\203\001\326\261-\220\205?_\237\204\247\263\362\360\277\262\232!&\352\346\317?k\342\\\234\304k\357\277\251\270\343\221\370\367f\2772w\267B\023\327\336?\017\241\365\330U\354\364?\317\263\200\004\006/\363\277\032b\034\250\364\004\364\277\315er\341[?\332?\263X\325Q\357\270\363\277\335\340c\332\272?\366?\t\022C\031\345X\370?\250z\321D\210\373\370?\207\3707^55\356\277\332\\!\212\305F\364?^\207\247\245\001\234\337\277\340\214\266Dr\300\335\277\356+m\007\\\250\277?\270\036\036\255{\005\370?ep\351P1m\322?\223^\237NE\220\307\277\357ry.U\017\331?\3570\313g\227\310\362\277G\tPKUt\345\277q\010X0\223\220\363\277\000\224t4,\347\317?\203\022w\306\026\210\367?/\025}\231\252\347\326?C)bi\203M\316?\355\317\013\216\346\255\335?Q\352\034\327^\341\363\277i\321\005SR\353\355\277\027\370.\240\226\005\363\277\n\253\t\326.\215\355\277\000\342j\225\\q\364?\007\010\300\203\360\264\341\277m\245\343\364\251\213\305?\206+4~SN\357\277G\300DL{S\366?\302V\343\213\036w\265\277\250v&\313\305\376\323\277\217}\007\253\006\241\311\277\323\216fi\301Z\335?\303qm\025(\360\361\277q\321\221\260\345\311\356\277\257\tC\324_Z\362\277Yo\356:Vm\370?\205\341\371\001\302\264\370\277E\037\021\263\205\327\371?\354=\004\004\362\206\237?\030+\271\262C\277\321?k\260\212\2546\352\303?3d\037Pm\252\364?\347\304\344[\254l\356\277\304i\352\260\364\372\352\277\267IN6\364\252\320?\273\203\025\265\236\242\352\277\315\271\253\003!\013\364?pT\356J\351\311\351\277\013\230\377\267{\311\364\277\225r\367\370\321\234\316?\315\303_D\372,\362\277}\010!\356\355\177\317?e\020\333\260\243\230\363\277\2345\342\334\266R\364\277\345]\306\201\364\366\360?\025)\246\234\230\340\360\277s\207\336R\304\345\322?\222o\340\256\035\256\363\277\201\313h\231\260\261\360\277\377\022\370\332:\351\275?\256v\245\026\005>\360\277\221u\357\244Pd\312?(\030\346u\355G\265?\233\327\246$\030\361\362?0\276\037\325\317\325\236\277[\357J\306R\247\264?h\231>?J2\316\277_j\360\004\251T0?\250\364f\232\205(\353\277\2408,~\203E\365\277\000\200\343u\322\372\361\277+H\\\251\2157\364\277\332\271\261hM\000\304\277\001\357\224B:R\364\277\007\365s\021\177\263\317?\253HM\244\323}\352\277\021Q\346\325\266\001\264\277\254\324\3311^3\326?\177@`\262\332o\321?\222\311\352\306^$\321?\034\250\\\271e\350\306\277\341\2279\313\2166\314\277v\006\372\202\336\376\363\277\201)\352\335\r\207\304\277\273x\260`\304(\355\277e\034\265\026]\261\366?]\317\353\326\001V\363\2775\300\004o\333\257\367?\266,\247\376\344\237\241?\242\321\307\233\005\371\340?\252\025)\317\376\311\315?\3476>at\307\367?kN\026\230\351e\363\277\"\r\016\t\340v\357\277\344?\320\003\331Y\304?\226`\3525\200\276\334?!\274X4\006\245\364?D\203\317U\210\303\311?\252\252\'\207\235\356\344?\375!\215c\321\210\321?\261\333\221.-t\331?\252\300T\273Bc\365\277\304\320nQ\235\314\257?h\2031\340\234\020\315\277R\305\2762M\311\365?}\304\002P\021\035\370?\024?\225\177\034\353\363?\244M\2541\203\356\245\277\363\333\322{\037\364\350\277G\343T\347~\205\325?+\202HC\365\277\332?\224r\022#p^\316?\t\350\244^ue\360\2775\214=q\000\224\317?\323\345\345\221\000\301\242\277#\355\316\263\2627\332?{Y\247O\321\025\361?\364\261\347e\361\347\320?\334t\231\030\013k\341?\336\330\303n\361_\355\277\027\331sv\321\353\362\277}uMQI\240\347\277_\210\005\237D\317\305\277\241\233\333\212e\255\363?\274\342Fo\327!\315?y6\241\310\006\267\306\277(\033?\222]X\365\277h\021\207,\306\245\364?\005\362o\217`\334\331?\240\341<\037\372\034\366?\356:\252\002H\274\276\277\233\320\352\252-\035\370?ig\010\014\373\266\333?\264\347\244\315\365\353\364?\322\303L\355\211gz?\'\020#\356\363\354\360\277:\202\267\274\277\t\371?\227m\300\243K\264\305?\243\260\311\364\355y\327?\316\303\366\212s\010\363\277\265=c\t\224\350\265?\032\377m\007\367\213\363\277\240\266\3374U#\320?\272J\207\"L\337\357\277<\\\210T/\223\366?\261\36181\025|\372?\010\352\324\020\251\"\316?\334c\230\177\255\267\351\277\202\352\314\304P*\323?}{,\370\244\231\310\277\017\221\265\236Yk\350\277\243X\272Q\254\363\314\277C\342K.\362\304\332\277b\251\376\301\376\267\362\277dLJa\221\303\304\277\346s\213\2505T\364\277[\004\343Tc\330\313?\360J\245X\227\337\366?v\267\320&E\265\364?+\212\\\367\264C\321?\237\023\237\313\333\252\331?J;\t\241\\\231\364\277xM\205\276\342\016\305\277$P\222\n\350X\321\2772e\267\346#\n\372?\306\010\214\253\2033\353\277\274Z\005y\215F\305\277}\250\322\372|R\363\277\2111\375\014\t\247\331?\370;\350\362\345\220\335?\210\241?g\037\033\266?\203\360_\303\3138\345\277d\236\371\300\032\330\266?&\353\3409\240p\306?$\371^>\256\233\271?\tO\256\224\372-\326?\001\260\212\234\250K\324?\243\363?\010 9\262?jRCc\027\246\301\277\'\010\230\376\217\350\340\277;b\325\264\353D\364?\324\275w\3333\226\365?\362&\313\017\340\346\344?\250\247\262\020\027\322\357\277\\W?|/\242\273?;a\303\277\020\354\362\277\n$\300JO\247\307\277\216H%\024\300\014\307?R\320\321<e\371\364?\266\023z\273:\350\362\277U\013\365 \002\267\360\277\007R\010TR\035\330?\035Xs\027\021\302\306\277\235U~^\313\013\303?\003\305\326\206F\035\360\277\322q \221\004c\341\277\360\352\273w\274_\304\277(\371\362\035\233\377\307?\375\227o\335GW\365?\270\211\022\246R|\303\277\t\357\035\n\271\265\360\277\023\365\343\373aH\323?5\227B\244\277\014\364\277\323\313\356T\007?\320?L\033\371\260X\t\271\277gX\241\337\243T\364?<\216,&b{\362\277\007\260\023Ffj\327?=\313\220\320\211\357\315?c\264/\374*\242\320?8\022b\325E\336\332?\202*\000c\255\310\337\277\2007\0262\362\327\263\277}:u\256\205\374\357\277\0305\215\003\370\211\261\277\213\333\240<\200\317\360\277\343`\230\005\263R\366\277G+\277X\270\033\364?\247\362\000\300N\276\365?\365\232\362U\203T\370?\201\333\272B\347\352\372?R\341\321\006\004]\366?\357\255\3245\334\273\323\277;\340\303xv\351\357\277\230Jo*RG\212?\221\370\363\373h\252\363\277\307\247\321}\'l\315\277\347\376\316)\371c\270\277\020\267\306\316\255\354\365?\t\306\245\364PG\340?k\000\025f\033\243\363\277oliq\2605\364?\"\227}\014<S\320?\n\310\n\367E\030\331?,\252\241\353\343&\310?(vr\252\252\315\324\277\026\302\254[\036\005\320\277\363h\256\255\340\311\342?.[\356\310\360\256\364?D\240+\267n\277\363\277\206\031\204SX\306\363\277\363\366\375\207!\262\362\277\347\323\324\271Q\264\314\277\371\343\225\304\347J\270?\3527G\367\220\226\336?\363P\216\014\303\232\330?z\340A)Q\225\252\277\231\377\'\301yS\357\277\270u;\305\016\035\363\277\230\243\375\267Vn\362\277=;7\317[j\367\277;\3522\356\342\352\313?\317\230\254k\327\275\304?\354n\372\027l*\314?)M-ih\260\344?\243Hs?Y\326\367?B(C6\361W\341\277w\3158\032\333H\302?P!\205C\2567\302\277\346\271,\374\263\026\362?oIfU8\364\363?\2334\274[C\276\312?\031\305\212\207\006\323\361\277\221\327\014\325\227\366\353\277\201\355B\275\372\271\240\277\360\207\317\367\261\215\235\277.\2744\230\300\300\331?\363\230&!\276\231\374\277@\220\205\226=\245\363?H\367\303\031\277\345\360\277\2627\237/\001\222\366?&Jy\317\252r\322\277{\236NW\262\\\321?\263$\226\374E6\327?\213$\3254Y\025\326\277\0200\323\246S\200\305\277\035\200*\302\343\360\315?\372\014\205R\310*\342?\204\314\242\221\362\276\340\277\326\024\027m\200\000\355\277\027\366\036D\251=\370?Z\331\221\t\023\020\310?\374^\310hB\260\311?C\272\262\354P}\275\277QX\367\307:\350\362\277\342\2245\237\257\253\345\277ku\302\227\r=\312\277\321\257pH\266_\365\277\331p\0223\273\217\306\277\n\3265\213\275\370\343?D\000\037q\017f\314?\301\250=\372J6\276?\242S\205R\260\275\260?\2161;$\3375\355\277\0060\364l4n\362\277\346o\323\024ru\361\277\004\'\322\202Q\375\365?\330s\242\\\253\004\353?\r$\217\227\221?\344\277\327\326\023\336U\"\327\277\344T\271\254\024\267\364\277S{\022O\204\361\302\277\2017\000\274\275\304\370?\377\364\271VW\203\244\277\031\331\021\217u6\365?\303\002\231\305\3671\325?\245\3106B\034/\340?\250\273\212\360\232\206\311?\253\033\355^\2556\361\277\256Vr\355\223\241\305?\347u\"\303\265=\363?\337\3157ugI\324\277\r\237\235v\023Z\260?i\243\332B3\026\343?{\243+62d\365?\371\364\230\257\3553\257?\304\221\244\231\304\227\336?~\240t\213\270U\314?\353Gw\277\356\210\341?\345\\\261\346H&\361\277\324G\264\231\001^\336\277\327\244\017\023:\255\364?\352x\327\377=j\305\277a\033\234\000\014\317\365?2\031&\205\213n\316?F.i\336[\221\257\277ry\220\037\016\252\321\277\337\022\254\233B_\362?\035\210v\2024-\332?\335\220\242\337\221\376\362?\001\337\270t!\377\223\277\005\nU%5\205\362?\250P\033\312\224\342\356\277\302\235\260\372\021k\373?\331\230P\306\264\\\367?\010\033G=\242\216\260\277\261L\344d.\224\363?\360\"%\020\317D\346\277\'\034\255\340\325l\353\277U\267\257l\024\023\367?\311<\000\242\224\231\323?\302\235T\261\031\355\307?;\244Z\251\362\222\316?\320e\236\254<\365\360\277\0342\251\245e*\315?Q\037\240\207\302)\324?\021t\344O&\274\366?\001=)M\"W\363\277\263\013\220\232\0147\355\277p\315\313\017\301\341\362?\276LMQV\355\367?\212Ro\3138\316\361\277\022\210\375\365\024d\324\277AM\252\347\204\351\367?\366|\\\311\206\356\335?\353\010\006\310\360\303\315\277\033\346\345a\333\005\362\277A\264\274\273\250\361\303\277\206y\252\240\016\257\325?t;\010\007\215\244\320?\016\313z\223)\350\364\277\262}\276GF9\320?\236i:\362\261\360\363?%\217\300-\000_\321?\325\037\202M!\025\312\277Zg\330v\022\200\336?\210FF\265\003\312\362?[ f\362\354X\314?&\342I\234\317\232\374?@\003\n:\230\037\352\277ge\253\365\320\276\363?\021\331(\336t\225\335?\232\222\266\242\000\227\315?\323w\333\267\335\210\365?\0104\242O/\034\342?X\004~\353\372j\366??\346\343\206\360\217\364\277\220\311Z\214\363;\347\277\223T\377\210\311x\321\277_J\267u\240\377\361\277{\327\211\264\322\336\331?9 \367F-\364\361\277\274\326\367\311\341\370\366\277\302.F\252\021v\320?h\2239u\206*\317?p\006\277}\362\022\374?\242\226,\245\242\337\362\277<\213`!n.\327\277\204(k\322\221N\327?!\025\274\031WU\360\277\275W\002\031\250@\321?\3355p\032zP\355\277\177w3\346i\357\362\277#\030\030\217\346\222\302\277\203i\274F\330\275\325?\214\342\257Ta/\304\277\361\200\232\305\332;\330?\320\201A\206\226o\335?X\257\255\022\3033\364\277$&3\245QA\354\277N\246\177V\204~\321?j\327\3640&k\363\277\3107o\276\211M\347\277\257LIiT\311\316\277c\002g\354nW\314\277\305\004\222\371#O\362?U\341\013U\200\303\371?\247\327\243~2\r\316\277\032N-\373\n\200\334?\265\241M\332\021k\365?.\342~\373\342}\314?\232\302\206\230}j\366?D\236M\375\324H\322\277v-L\024\245\274\355\277V\320o\247R\001\340?)\324\307\002l\324\367?\216\251\024\207x,\307?5\332\200\020\003\221\370?5\'\330\205\024K\362\277Q\241R\334A\241\363\277]*\031\030Ad\301\277\r\342\264\210\361\341\363?\224)\365!\222\307\347\277_\335#\014c\217\255\277\013\363a\2722\262\225?m\025Dg@\016\364?,\372\202\005p\276\364\277=l\267\013s\256\314\277\'\366\267*\005\n\321?\334\376\243D^\021\364\277\343\204u+\005\245\363\277O\261wm\303\246\374?\301\266\263\314\037^\354\277c-q\235N\177\333?\024\324l[,y\327?\342\237\023I\225R\365?\300}L\221\271\'\362\277\353]9\371\316C\337\277\310N\200\366\325\207\320?\362\201\360\211\021\324\267\277\'b\324\350\024\370\320\277\317\274 \366\354}\227?\347\247\237#\371(\343?td\\\333\r\216\364?\214\252\021\306\000?\337?\001U\276g\227\240\363\277\240318\342t\320?#\302\341\364E-\311\277[a\204\017\221N\363\277\035^\021\200\212\031\356\277P\313\205\375a\274\362?\377\007c\241-\212\353\277iy|\032\336\037\362?\010\203\310\254\266b\323?\034\017\301E\007A\320?5{\200\237ep\361\277h\'t\002\355E\370?\256\202\340\036\311\024\330?ZD3\003\320!\331?\014\315\253\202e\277\301\2775\353\027\371c\302\314\277\31724\367\372M\367?\3372\217\367a\t\304\277\363u\200\020\330Y\303?9\006oSb8\330?\220\3029K\327\253\322?\306\364\210nS@\322\277\326\370\256\005\r\314\333?\272\t{\002\027\237\371?\005e\254y\312e\367?\276\304\365bcA\330\277\337\244\352{\250\374\361\277\252\035\314\342;\033\327\277\250\344\244\265i{\317?\260\272 *n>\366?\2418\275Xq:\361\277\315\3537\266\326\325\330?\306Y\227\004Y\300\323?\320\006\3757\000*\357\277[O6\317XO\356\277N\362\236\374\267\017\356\277\343\037H\211\203\265\354\277\006\020M\235n\214\251\277\205\372\321g\240S\346?n\2178\353?\245\321\277\263\000W\363\322\317\367?$\363\200 \220\250\343?\263\354\017PR\335\363\277`\213B\034\226\203\363\277+\002\332y%\301\361?\334f\260\205\006\030\320?\0133\305\364\324\202\362\277\233\033\2018[\322\330?\271\016\201eu=\326?\253\230:\233\024\204\363\277\213$^*\241c\342?\274\215\311\245n\237\363\277Uk\273T\335\377\217\277\"\231s\320\350\031\322?\0336\335\304}\347\333?\0136x\315=I\341\277\033.\304<g,\277?P\021\325hw\027\361\277R\362\341\307\255,\302?\335z\346\240\364\304\367?\307\354\243\276\025\346\305\277\222\255)S\377e\363\277\277+7w{k\341\277\363u\242\025- \312\277\207\003\215\226\203\202\340\277\312\257\231\001\034\316\360\277\215L\016}\177~\356\2778\363\317\351\257\366\261\2778\246B\244\232a\361?xg\027\240\365\351\261?\234\232\016\342T.\362?\313\033\252\363\321(\350\277\014Ph\001\265\207\306?Y\215\025\336:\256\346\277\266O\366\307\233\037\324?\361A\323\206]E\220\277\323nt7\n\251\362\277O S\276\303y\361?\022\234\007\353\230\243\341\277\357\0373\241/N\253\2771\216U\311{\225\351\277\035\216\201HhS\360\277#pK\336.g\266\277\270\272\'\2208\334\366?d1\177\217\236\331\355?<\003i\032\003\021\363?~\333\244p2\300\366?5A\245\2443\021\363\277$\001\203>2\022\363\277XDc\377 \013\302?|\307_*\354\252\327?\240t\2227\001N\226\277\000\035R\201\355\305\314?\211`k\371\375\317\365?d\224et\335e\334?\032ka\244\2137\266?\357\007E\340\315I\260?\026\332\212\305\210=\225?x\220[-\246\372\343\277\366\233z\217#6\305?<\353H\277\233\352\363?\300\235\361\353S\362\365?\037\370m3\303,\246\277I2+\376C\222\206\277\035\364IUX%\367\277\242 gZ\313\037\352\277R\214\305Eb\272\362\277\372\356\023\363%G\363?q_\033\235gq\277?{\036\273\363w\271\362\277\270a\374;QP\373?\265\326_\206\007{\261\277\306\343\243Y\225\337\363\277\322TqJs\350\363?\271\243L\337\270\365\205?\367\323:z\235\327\355\2774\233\370Oy\000\372?\202\357\344l\304h\331?\273\320\210\240\241\302\206\277\367hNU0\361\277?\035U\277 \221c\302?\035\373P\347\254\036\363\277P\237\017Ja$\331?H\014\377vBv\306?;2R(\021\373\322?\245\033\377\036>\277\320?\340s \346\376P\367?\233\313\361K9.\343?\333H\372\243\027\346\335?Ldf$\276\226\365\277\036\000bt\t\215\311\277&a\230\025\366\334\320?a\202\001\235\031n\363\277\265\"?P\356G\327?\1773y\277\027\232\365\277y\005\304\274\256\261\363\277\376\017\022\241\3433\312?\3263&f\004\201\243?c[X\005T!\302\277\030w\351\363b\330\333\2770\365#\303Gj\352?\222\222\227(m&\331?\252\036\332\366\340\031\322?\337\217\255\177\325\263\363?\371uvH\362\201\355\277\2526\361\236\244\260\363\277\242\"m\213\352\325\361\277\200\204)J\360\373\363\277\177\275~\304\324\224\204?\205\367\332\374\321!u\2775\371\276\201\300\243\326?\305\003\r\372\313\315\307?N\307\3213\203\275\366?\223\245\341D\202\271\366?m\006\345h\334\237\333?\206\343\223\\\031>\340\277\317\375\220\353\251\226\241?\216\026s\237b\311\323\277\035\000\350\330\301\330\301\277\263)\007\312\235\270\316?\337\304\324\313BT\364?\004\272\243\217\270\221\250\2775\310LIS\373\374?\207EA\rhu\363\277\322\312\204\375%\321\201?\217S\321\276\277\313\313?\3263\256tz\236\365?8\021k\206@\237\231?Q{de\242\r\205\277\302\327k\246\355\357\273?\374\014\203G\372\320\237?\310#\240\352\330\236\366?z\312\347(\326\372\365?\033x\235\217V\374\266?\"\274\313\323\256\226\343\277&\227\001\000CL\206\277\203\250\273<0\315\337?}\343\256y!\213\364\277\340h\373\023\221\333\357\277\271\2214\236\272\347\340?\251\2509\003jz\337?\t\377\025(\301r\323\277\214\254\n\272\276\215\324?+H\376\361p\303\323\277 \0312\'\210\316\362\277Z\202\335(\335G\303\277H\334j\276\325\310\362?\226\231\264\037\364\214\246?h\306\264f\233\253\365?R\207\242\210<\t\330\277A\240.s\343\305\364?\027y\203%j\016\305?g\332\021\036\352Z\304?\2244\027\233\004y\361\277\237?\r\201X\007\367?t\223\213\030\217O\303?\352\344\202\350\341R\320?mO\203\331\321G\357?i\363T(;>\356\277v|g\350\373\342\371?\020\027_\"\253D\362\277{O\332\257n\273\363?\222\2078jEE\362\277r\033j8Q\225\362?\240d\243\207:\343\363?{q\252\302\227\341\366?\323\277\362\274O\003\322\277\0018\010\307\320\250\312\277\251\264\214p\037\034\320?e\262\031\362%\322\362\277\340\247B\007\325\371\335\277"
      }
    }
  }
}
node {
  name: "normalize_element/component_1"
  op: "Const"
  device: "/device:CPU:0"
  attr {
    key: "_output_shapes"
    value {
      list {
        shape {
          dim {
            size: 749
          }
        }
      }
    }
  }
  attr {
    key: "dtype"
    value {
      type: DT_DOUBLE
    }
  }
  attr {
    key: "value"
    value {
      tensor {
        dtype: DT_DOUBLE
        tensor_shape {
          dim {
            size: 749
          }
        }
        tensor_content: "|\370j\334\005\236\362?\3135}\026\362=\340?\032!\021}\203t\341\277\023\352\363 \000\373\350\277\267\277\\T\357\225\312?!]\033x\246k\343?\211ISA)\276\342\277\356@\273!;u\341?\306V\216d-\234\340?e5\220\030\017\277\330?v\326\331\244\2143\332?\275/\335\356\311\025\341?\216\016\\\327\310\006\321?\275\374\312\370g\212\323?r\316*:\007W\345?\241\271:K\265\245\354\277\020\225\010\234#B\347?O4\000#\266\020\337?\312\213\262\370jx\357?\220\240U\002<\306\353\277\355\021K\357\252\355\357\277\305\333\201B\\&\322?\260\034\346j\364\341\343?D\303Zr=\200\353\277\'w=,\373Q\325?\347\3421\204\0375\304?,\201\021\372*\322\342?\321\342\\\327\"\316\352\277\017\346s\374U\250\341?\367\327\027\211\321\331\344\277i\321b\332\177\004\347\277Q\377\276\261\340\202\337?\244\320=\001\371\204\350\277_e\341\357\027S\304?\025U\033\345\314\305\337?\207\273\221\3751\265\343\277&k\213\363\231\277\323\277\203\301\301\261\252\343\350\277[\365Bq\340*\350?\230\363\222\027j\213\307?\344=\331-\305\020\344?M\337B\000\037\257\356\277\240\356r\246\373?\346\277T\263\242\217\n\272\333?k\356i\306\232?\353\27776\010\303i\242\360?;$\353\0212\372\334?k?\010\3556u\304\277x\020\3148\355+\342?\354\266\005\027\250\035\345?\223\265\347Jbk\352?hB\347V\310\'\271\277\210\357\241\013\353\256\327?\244K?\221\006\202\361\277Y\021\352\010\257\251\357\277\201\274\235\302\021\345\340?~MHO\303\223\320?0\251\372\213\226\236\362?\371\003\243\001\342\245\361\277\rcQ\016\362\263\327?\211\213\\\016 \336\336?\265\304\322\231\237\334\313?\214\376\255\265\312u\343?\337QgLs\212\362?,\013U\327\006\264\337\277`\021\334ys\271\336?\245\t\"\352\t\270\340\277\r\002\306Z!\213\356\277\220*\0370\275\301\345?Z\030\r\341\264\r\310?\345\t\272=\n\320\342?\'\320\316\372\035N\354\277t\261\3071\216!\343?\256\222\250\374Dq\353\277c\201u\323Xj\340?|\266\315\225\247\306\323?\303\230B\377\200|\343\277[h\237Z\3208\341?C\352-\355\324\213\342\277\303\316\365E\354\356\340?Wi\204\022;3\340?o\350\037\340\211\313\343\277\325\032\374\026*\352\346?\235\3674q%\022\356\277\2544 \272\257H\343?\343\321\367\312\006\375\341\277\261j\024\226+\336\360?\210g\342\214ey\300?\357!\355]x\"\340?\002_\314\225@P\343? |\220.9\'\353\277\270\030{\345\240\312\335?\003\337\242p\034F\242?2\243H\316eE\343?\252\253\207\2259\272\330?N\252\030\254\247\000\274?\034\345]\003\315]\346?\323\000\020.\316\343\346\277\352\231NHP\376\346\277\354M-\005\365\026\323\277\177\007\317\315\324\356\331?\006\001\365\243ix\360\277|W\333f\\\363\324\277\260%\202\020\254\273\362?\273\313p\3403\315\343?!\210\221\231\'\346\334\277(K>\024\341\275\335?\024Z\321m\316Q\355\277\237\362W\234\270i\226?`\003\217?\257U\361?j?\0304\3059\360\277\325\206i\322n\345\362?A\r\0277\305\267\343?\237\330\010\306>\307\302?R\364\032\242B\307\340?\325;i\375C\304\330?\234JZ?\332\306\343?J\251\246\254<\357\357\277\364\035\037\352r6\355\277\254\017\314\301\"\013\334?\217\204\274M\017I\312?0\230yF\316\006\345\277Ux4w&%\321\277\241\304\027s\240n\340\277\271;\353\177\324\003\363?\301\345\337zIr\331?k\373\004\264\245\311\244\277#\232\203\245Y\230\340?\023\373\210d\363:\317?am\016\351\312\354\306?&\254\200\030\301=\331?\t\021)\252\200\222\335\277\257i\372\340\201\331\360?\230\326\3067~i\350\277\326*\323y\331\337\343?\035\245%F>i\301?\374j\3274\024\325\247\277\215D\371\363\027%\357\277\343<\265\370\364\242\344?\036/A;l-\231?\365{.\350\036\337\343?\"\261yokN\343?ZQp\2027\221\360\277p\211\001\316\3572\342?\276\267\377\263\323\354\353\277\373\271<\260\367t\335?E\256\'I\374\256\340?E\027\\X\260g\320\277QT)(\265U\352?S\370\344(\361\r\357\2777>\005\323\017J\310?+\010=V7?\343?\010\316\222\226\025\351\354\277T\356\264\305V\204\342?\342\211\004\025\000]\355\277O\342Z\352\026[\361\277W\270\322\251f\312\344?\007\253w\377\334w\345\277\211$\363\'=\324\361\277)\253N\324I\211\347\2772\327\032BO\356\344\277g9Pr7\010\346?B\354Q\223v\020\310?\002\340\241*\371E\345?m\324\316\251\345\001\313?\225\354\350wB\315\344\277U\347E\031)X\304\277\371\215\266[\331\211\357\277K\222\003q3V\214?\017\252\311#\010\237\347\277\364\325\341\317\034r\361?\036\337QWK\321\355\277\372\026\230(\305\234\354\277\331BK\216\233\256\346\277\317%\030\317x\223\350\277<9a\231\276y\345?\275\306\231\256\034\371\337\277m\304\331\316\337\203\337\277\223:q\233s\222\311?\353$\312\243\357$\325?\327Q\036\002\267\301\335?\250\2135n@^\343\277m?G\361r\033\364?\370\230\261&\331\017\345\277\274\261\005\000\217\361\305?\251\257E\023\002\220\336?\336\213*\215P\322\301?\321\362a^]i\361\277I\244\351[\020<\362?n\027a\246t\366\275?\321.\350A?\021\352\277\016qB4\024\211\346?3?\370\017\247=\355\277b\217\014T\276\220\345\277\001=\351\334\222\321\315?u\206\000\277[A\337\277\253bM\340\327E\351\277\271\034nXb@\311?\025\320\230\355\365]\314?{\212\037{\323\010\350?\255\030Q\374))\340\277\322b\032\304\340\030\350\277\027V\315\311 W\362?\350\260\031*\301\r\345\277\341\335\3036\315i\360\277\232b!\3557\377\307?\275\250\252 \r!\327\277\237\350\271\221\224\243\351\277D\202\347c\330\361\337\277\n(u\367]\232\344?\276.H\322\247M\356\277\243\013\213\366\225\216\362?\367\035\213\300\374\t\320?\347\335A\315\355\224\342?{\353\272\033\361^\350\277\371\364 \312\001\210\337\277\243\005\214\007`?\340?\'>\247k8(\271\277\307\3515{\305\251\350\2778;\256\221kE\343?\006\037/x\225\243\345?\320\372\007\'\355\r\324\277/\246\260\205!\026\315?\310\306\024\000\356j\341\277\304X\250\224\3549\304?\340\334\261\350\265N\362?N\371\324\346\271\355\343?\326\006A\360m\250\331\277\331\377yU\2163\343?U\344\367\354\334\270\332?)]q\270Y\006\361?\013\\^\257\363t\346\277\347*\037}v\232\343?H9\230!\030\251\370?\206*\341x\242!\341?]\366\004\267L\017\312\277\344,\275H\'A\337?O\003\321\371DE\240?O\'.}z\352\326?\370C\225+[p\356\277[#\374#\345s\342?\313[\356\372\004\233\353\277\344\333\3541\371\212\350\277\217\250\327\023$\316\350\277\037\030)r\245\'\342\277y/c\334\215\313\352\277\352\371\003\001\320\177\326?\322\302S8\223\331\344\277$\023\0307D\264\341?\335\202\n\306\227u\361?\367=\344*DL\302?U\370=B+j\273?v0\251q\200\227\355\2772\030W\240\3662\352\277\371\363\323\252\270\306\332?\032\360\260^\206\035\337\277\314\361\203\340\226\306\351\277\312\203\353\333\000\021\303?\336\ro56\331\351\277\022Y4kY\306\345\277\244\326\024:u\212\342?,\237\010<\034M\362?\301]\317+\357\214\362?Q\3245\223h\375\301\277\327\353d/\024\177\320?\"w\307\212\031N\360?9Bxk\022\212\353\277\340\252\375\220\004\225\330\277\211\002\\\321)\'\352\277\266\206N&\235\221\362?\013\235\347\330\215q\345\277*\031\215\006\346\301\344\277\036~.\037\354\241\324\277\0014\213\303y\201\254?\236&v\031qy\336?\004\263]\251\217R\357?e\035\025\314\020\000\345\277\305Ql\334E7\355\277\267I\300\371S\022\344?@$\004{\263y\343\277\326\003\311C%\235\360\277N\022\200s\210\350\274?p&\226\324\344\203\337?\345\203\204\250\334\366\341?\3001\215\271\226\263\361?FJV:\227\241\306\277\274,m\034\370B\361\277&\306\001\340\016H\345?x608k]\340\277 ]\036\342w\\\350\277\271Y\20142\\\361?\343u>|*\304\301?\340\315\026\3475\017\326\277\317\315S!\2468\325?k\335\223\254\324\323\347\277u;\262\035\265\364\342?V\235\223z\350\'\357\277A\247$\037D\214\366\277\207!-k\034\354\344?$\333G\233\216\211\342?\010\367d\036\235\"\346\277:X\352\033p\025\360\277t\003\272\327 \022\353\277RC\300\231\266\272\362?\242\227\253.\374\030\323\277\013\305\256.E\327\343\277/\356\337\3407\311\342?\261_0\215\304C\345\277\022\360\222?&\231\345?\004\236z\004\262g\340?\035\251\020\032\023\033\305?x@\241\255\354>\305?7S\276S\351\325\307?/I%\230\331z\325?q\356~`s\345\310?F>=\030\234j\352\277o?BX#\n\343\277\343\230\237|W\037\354\277j\325\272\217L\020\322?w\227m\3521\'\341\277\223\370\377\224\001\317\341\277\262\306K\021x\030\306?\353}\207A\302\265\327\2776:2\231\r\371\340?\177\323\212\'\301\264\344?\361\366 R\332\257\356\277B}\321\326={\363?\n\225\026v\230U\361\277\330\260C\315\n\223\353\277\"\300fw\243\255\313\277\351\036\365,]\306\367?\026\315\201\220\276\343\313?5\276\366\276\031\371\350?}\024\256\r\3216\322?+pX,\323\204\341?K\201h\335\221\313\337?\350\255\001\275J\004\341\277\333\235\372\335\341\265\362? )\305\020\034\277\362?T\257\276.a\264\344\277sD\\Y`\333\343?g\002\334Ldd\334?&\313\300pA\330\347?Z\355yo\353O\327?\364<\353\330\230<\357\277W\363\266\265-?\365\277IB\302\030,\275\356\277hz\346\324gd\320\277\323n\311\326L\272\304?\340\216qok\305\326\277\261\316.\014\346)\360\277\270~\036\236C\\\331\277\316\314\343\306\336Z\341?m%{#e\216\336?<\t\0138n~\355\277h1\000?\005\026\345?\323,\232L\323\216\345?\274\360A\352~2\362\277\364\335\233\0008\320\341\277\363OK\0067\037\363?6\316z\221\300\t\321?\3628\177\224/\003\342?\036~\010\002lB\337?;\024Ls\026\302\337?\341\314 \353\255*\351\277\342\373b\"x\321\352\277?Lj\223\330\315\351\277\005\233\016\320N\245\262?\211\261\260iC#\347\2770@\230uS\036\361\277\356\312\260R\342M\362?\332Q7t .\327\277\206\364!\373\227\205\314?\023\266\375\367\343\215\315?nu&3\rT\360\277\373\031\n\037\2525\354\277\362\324Ze\327\315\333\277g\260\305j\017\"\342?\3649\265E\001\350\321\277xs\310\204\220}\342\277\271\202\203G\254\363\302?\3372s\362\260\177\324\277\033L.&b`\355?\035+o\233\314\256\357\277e)\363\215\265k\361\277\264%\205#\257\264\340\277\315\240\236|\353*\327? \026\2140\322\242\343?*\377\335)1~\333?\013\322X?O\000\311?m\242Ef\337\363\260?\243\3260\353\n|\332\277\237\022\372>\213@\320\277\027\214\001\334\0162\345?\343\357\261R\335(\346\277\035@$AJ\200\314?W\236`{l\016\346\277\330\'\375^\210\210\271?\343\244[\244\242\235\362?@IC\334 \037\361?8\315\002\005\r\373\351\277pOY\204c\317\340?\203\346\3318\304\007\354?\325}:\300\355\227\344?N\320\347\361\256\303\355\277I\266\000\276$J\357\277}\033\324^?\226\315\277X\n\n~\244\315\306?q\301>\005a\362\305\277\357\204\211_]\312\362?\371\300N\000_\206\351\277GZ\001En\006\337\277\357d\340k\203R\343\277\0050\340\204\275D\337\277\240\236\026\005\034:\310?sg\366z\305\206\263? .\267\314Y\222\307?\217yYd\006\232\362?\226u\005\376\272 \347\277ce\264\033\355m\345\2771\251\336\275\374\332\347?e\237\230;\023m\362?)\356\271\001\204R\350?\315\257\037<\007\013\344\277_\335\210-\251\213\352?\204\307\325\254\177\207\341?3Jz1\250\243\321?\360\342\220\346\177\274\316?7\343\204\002[\360\332\277\'G\322\336\231*\344?>~\263(t\010\346\277\2220\342\202\343\002\342\277L\256;mR\035\305?\226\255\022\331\r\271\362?\246K\211\314\022\366\356?\026\003\231\202\306\343\361\277`&\261\r\005\323\344?\r\026\276\277S\037\364\277Q\346(\023\243\234\353\277\277\2604\016)1\314?\354v?\270\0221\330?\003V\352\273J*\332?%\003\253A6\021\342?\301E~m\311_\320?A*S\326\316\365\342?;\261\236o3S\355\277\232\217N\371\321\000\313?\n\327V\376\371C\362?C(\271\352\324=\350\277Ql\344+I\"\347?\222\307\031\0208\302\346\277&*5\316\010\024\350\277d\361\2225[0\361?\315\361\311ZU\217\340?]\351\370\030\242d\360\277\241\333y\216=l\340?\006\264\354#.*\356\277\036\001\334\002vx\336\277\324\021;\332\231}\332\277\035fe\304\210&\343?M|Q\250\265W\357\277\301\207}\336\037\334\353?\177;T\013s\200\326?\353j\333\344\264\302\321?U\'\207\214\322a\364?s\201\t\207Y\363\351\277\032(\324Vk\372\330?\224\263\224\007\360\205\362?\350E\375h\225\304\351?H\377\301G\001\222\342?Z\370\277\032\316B\350\277e\275\030N\333\355\361\277q\333[8{+\343?G\306\n\265\215\032\357\277\212\221\240!\254\306\342?lf\361\023\257\360\331?>O\242K\315\333\356\277\016r \313\354\340\351\277\357\344[\367\333\310\333?\371=\311\301F\267\341?\210\223`\313\247\020\355\277\325\311\'\365\355\271\357\277\032\2167C\265\317\336??&\306\331{\203\361?!\332O\362\267P\330?lF3\330\236\304\344?\344%\345\334\n0\325\277\001paI\274\177\342\277\004\355\355`\013*\343\277\367\221\344\236\310r\362?\330\235Jeo\216\363?eN\223  =\324?\201\372p\001\2104\355\277S\005\"\231\231\035\355\277D\355|\242\311\243\337?1\310\030D4\013\360\277\337N\254\2151\r\347\277;\345:\243\334\022\331\277?\273_2HS\320?\272\274\253\365\231\345\323?\337n\362\222\344Y\347\277y\260\2066\236\341\345\277\234\345+\231@\350\305?\310/\341\320\300\325\273\277\361w\212\314\243\340\322?%\277\332+\366a\351\277\322<\356\302\227\272\303?\343x\363\030l_\345\277\016\373\342\376\007\311\306?\313\r\250\214\222{\360\277\0100\216\004\"\255\310?\020\236\344\026R\001\323?\267\323~\352\205>\340?\345\317R\023\236o\345\277\206\206D\351\345\266\343?t\340\033$u\354\351\277~ny\205\266\034\352\277\256\302\343\304m\006\363\277+}\034\2672c\343?\337\006\327\340\237\314\254?=\370g^\247i\341\277R\262\373\220\336\205\362?/y\304j\260\034\333?\332\016~\347\3716\341?S\235\367\002\'\267\321?{ \254z\350f\347?y\356\243\023\204\337\342\277\023K\205\035~X\342\277\260\003\333\010\013\251\342?\333\313\201\307\035\306\345?\265\262e\3572n\336\277\351\260(\311\257\360\356\277\337\204\321fja\347\277\273\314\214\346\3460\355\277\330T\307\352\270.\333\277C\\:\200\026\246\362?\231m8\021 \321\336?\014\324D\370\271_\362?\213\237\016\317\022p\337?\260\031 \'L\234\354\277\317t\351\320;,\333\277\266\244\217\034JI\337?VN\356F\335\352\271?b\010\374!\331\325\344?\254w\262\032\332z\344\277(\013\272\020>\254\347?\374E\006\300\000\"\347\277\005\314Y}\211l\357\277e\326\302\"u\244\344?\353\\)\317D\337\305?\306*\344\2071\344\350\277\312\250S@yZ\362?\345!1\270\216\337\334\277\353\271\256\034~\341\327\277m\334\345\346\207\223\303?mOdH\270\322\335\277\250{\237e8A\360\277\23743\026U\306\344\277\205\265\034\3467\241\361?A[c\237\305w\346\277m$\313^\0060\341\277\324\022\017 \023E\344?m\360:\303\313\004\311?_\031\231<\336\252\350\277\327\223;\256\027\214\344?]\251j$\004S\332\277\272\203\324\340D1\356\277\364\301\\N*x\313?\022s\305\212\236\220\325?C\252<\235\014\212\361?\366|A\363/k\352\277+\341,\354\244\223\233?^\245\342t\n\316\312?\371\225\030\016}\323\303?\036\035\022I\202S\341\277\201)\222\343\321`\357\277\224&\373\335\226\244\334?\324\247\301\010\364\023\350\277\361\036\211vo\005\317?;\250\027\031\377\221\362?\223\3225@\006\\\321?\272@\273x\343s\343?Xe\337\255\373\212\335? \035\202?\320\206\357\277\336\341\001\200\307h\343?n\017\223}`e\362?o;\320\352\203\217\361?\215\376$\2715\215\334?\344\026\363\300yq\363?\251\021\361~\3744\337?/#e:\375\305\340\277\327\317c\251\032/\341\277\353\324<;Y\262\362?|up\351e\327\331\277\022F\242\001 \342\360\277to.\341\366\030\345?QZJI<l\357\277\035\331\037\235k\027\314?\031\306\302\177\204a\343\277\034\037\215\354\220)\343?\326\236\365\317\307\216\326\277B\004\r*\255\276\346\277\033\204\374\376!\021\327\277\266\217\317{yj\324?\365\320M\312y\320\324?C\220\t\006\251\345\342\277\023\350a2\316\233\364?\3007\377X\006\201\361\277\214\255\352\302\262y\345?z\234,O0L\346?\247\366\276hKO\354\277\350\233<\200,\246\321\277\363\264\207\"O\344\350\277\226\226\265N\205\031\361\2771\326\252/\250U\333?\316F((\305\213\352?+\247\267=f-\347\277z\'\246\321\310\372\344\277E\001\303\353\331\314\267??g\326\226\235:\341?\376/sN_(\343\277\340\373\361\352aa\302?\r\260\t\304\357\345\346?\324\354\346\r+v\343?\234{\206\357\320\223\310?\316X\267\355\311\211\337?j\245\267\303+\237\343?\337O\257\024\034\033\356\277J\027\243\251\213N\362?\2338:)\344\267\351\27781c\244]:\355\277\341\323?\200\257\344\343?\255\323\342\3749n\363?c\370\000\334\315\304\361\277*\371\305\303\354i\362\277\'\010\025\226\361K\344\277\346\037\342\236\210Y\352\277\224L\320\370\256\366\360\277\271\345_\357\2266\253?\200J\317\254\317X\334?\202\t\232\247\270\330\360\277\304\224\377\026\367R\345\277\346\374\345\2605L\252?_zs\377\221|\345?v+\224\271\227\316\341?\037\342\010\247\n\313\346?\016(1\376\367|\360\277\206\312\351\225\310\255\304?5n\223r.\322\344?\377u\313(s\364\346\277l,pC\251\266\342?\327\341\354\311$\252\344?b8\247\"&U\313\277\2567\354S[\331\347\277\252\242\277\326&\245\340?z3\\A-U\352?\334g\226\252B\200\341\277O\370\312\3637%\354\277\324\241\322:Cm\350\277\231Cv\316f`\346?\265\206)\270\365\313\362?\2702&Q$\370\356\277A%\002\260\017B\360\277YzD\256\262c\356\277\253\024\"\032\025\312\327?\231\267B\306Y\251\327\277\0170D0\244\312\355?8\364\377\035\177\265\336?h}\333\373T\375\331\277o?\367\224\375M\355\277?\227\016\271\250\205\344?\225l\016\2444V\361?\241\001\n})\214\332?\0066\214\322\303\014\344?W1B\001\033\334\361?\215?\033\305\3222\345\277HVkA\254\271\342\277$g\020Z\214\365\343?\264v\324N\367Q\305\277\'\0060W\241x\362?\226\264\323PK\372\362?\377\227\342[\205\037\350?\000\207\257\332/\230\337?\262\301\023n\214x\344?\224\2635\226\326\325\343?Z/\243F\212-\322?C[\301\371\\\240\232?\242C\"#\345`\336\277\250\301\332R\220\260\362?\271\337\\}\177j\356\277E^.h\363\223\324?\367\240s\"\342\322\303?\203\256\250&\004\215\362?\216\324\014\246\302\244\331\277\033\367o\314GH\266\277\351\341;<r\265\343\277\256J\260\017\235\265\342\2776s\216\017hV\353\277\213\002.\321\301\250\326?eU[\221(\265\341\277\n[\317Vlu\330?l\227\344\366\314B\343?\224\333\'\245da\345\277\344M\243\323\264%\356\277\036\354\t\232p\377\307?>3\004\'~\255\363\277&\013\235$*;\325\277\353a\322Z\346\340\360\277\n\230\231\0149W\327\277M\242M\347\352\210\340?\225]\262\375\3276\302?\233\315\242\032fQ\356\277^\303\253\3056t\350\277\306\310P\325\007\224\352\277\300\236\336\375\3435\362?jA\220h\313=\324?Z\344\035\312b\217\245?\203\211\335\344Z\377\346\277\020E\330\327\303V\341\2772Nj\221#\202\350\277\302\312d\222\234p\362?\245#T\217F\314\351\277f\343\362\225\336l\324\277\"\036\036\300\357\305\346\277\215\231\361L\232x\322?\315\240s3\311\366\360\277[w\363NV?\242?\210\324)<*\275\353\277\235x+\214\267\362\322?\371>\370\307\2447\360\277k\027D:`\244\352\277\272\\\264uh\342\341?2\312\355\0344w\313?D\247\214\177\204@\352\277\241F\010\377-3\322\277\344\217\341\253M\277\350?\262\213.AD\017\266?\323\365\t\005\316\022\312?/\355\252\004\240\265\342?\274P\273\351\303\324\345?\215\237\327\322`G\346?\233s\304\305\207v\330?K\202\273\310S\352\354?\277\241\336\376\261o\334?\2074%v\326\304\353\277:\024IB+\246\352\277\251\223\006\260>8\361?\361\270\202\321JF\346?dR\301Fl\353\361?"
      }
    }
  }
}
node {
  name: "normalize_element/component_2"
  op: "Const"
  device: "/device:CPU:0"
  attr {
    key: "_output_shapes"
    value {
      list {
        shape {
          dim {
            size: 749
          }
        }
      }
    }
  }
  attr {
    key: "dtype"
    value {
      type: DT_DOUBLE
    }
  }
  attr {
    key: "value"
    value {
      tensor {
        dtype: DT_DOUBLE
        tensor_shape {
          dim {
            size: 749
          }
        }
        tensor_content: "/\020\334\227*\007\226?\351\212\257\366\020\333\227\277#n\315 \203\330\265\277\021!\177\037\235H\265\2779z\215\025\352\'\217\277\327\207\223<k\251\277\277H\205;\224lf\262?\010\256\3032\244\235z?B~\217&s\007\243\277\021u\237W\177\"\225\277\325>+\312\004\316\254?\\\204\351\304\025@\310?\304jl@i1\314\277\252\322MJ\220\327\247?\2652K\215\035+\247?F\207@iq\211\262?u]yR\334\233\311?\262\201m\3047+\270\277g\356\366\347\262\346\225?5\302\244\237\202\'\224\277\350_\372_K\214\261\277\346K}Lo8\202?\003]\320\273\026\211\205?%\317oN\027\026\272\277\304\277\006\356\352%\227?\314\\\312\212\036\244\240?\334\312\245\247\234l\212?\023\240^\3123\374\257\277s_\375\216 \204\235\277\202\203\200JQ\316\267\277\227wB\353`\265\260\277^\342\363\201m\245\263?\260J\312 \005\247\256\277akI8\251\001\200\277\212\201\034\3027l\307?\006m\240\223\227s\331?\367\357,\255S~\256?\207\002\302\177G\005\274\277/p\234\023_\014\216\277+7\240*\010\305\204?Yfl\222\363\0161\277\267d\231R.6\267?\322\255\226W\014Z\266\277D\356\205(\2360\201?\361<\365\311\233\267\303?\206\212\3202\376\235\246?p\250\000\312\314\227\276?dg\016\202{I\231?\266\313.\335\236|\254\277\342\360\207\022=O\250\277\354\'\031\357z\214\301?\277!\003\307\347K\247?\332\327\201\343\252\243\241\277A\025\022\323=\260\275\277\213\215&\205ZB\266\277\240\031\t\222\034\211\301?`\346\322\230\275\205\203?\243\264\271\'jE\221\277Z/}+\372\365\260?j@\343\251\357O\222\277\316`\376Sq+\220?@\020\3244\321S\234\2777\316\265\350\261\255\261\277\22069\321\271\301i\277q\312\351.\245\357\255\277\307\330\230\375r\337\226\277\332\201\000\247\373\343\265\277\222\207\356\t&&\260?Q\252k\034\253\343\244\277\221K\366n\363\251\257\277\014U\337\326\240\350\306?\035\227y\320\356\026\270\277>\"C\346_X\244\277x\313\346\202\366{\272\277w\354\211bFB\242\2774{\233<\277\177\275?T\267\201\246\265N\233\277\232\020\307\253\365<\216\277Z\266\313\320\313\013\307?+\020\200(\tw5\277\241| \204\260+\251?\'\301\2648\217\220\245\277\206\305\235\260Co\264\277t+\264\363]\320\262\277\201\336\227\313G/\240\277\244:\320l\3306\301\277k\317\277\344\335\033\206?\342\220\t\217\223\"\224?\367J|m\n\213\253?u\312{\242\232\275\253? \303m\250%\n\244?|/\251\321\316\037\270?`\203\362\252B\371\260\277\260\260\206\213n\302\223?\245\346\035\222~\236c?\007\373\312\315\016\034\221\277\215\236\227\252+\253\256?\323\262\267\311[\262\256?\030\222\265\254\236\244y\277`\340f\207\271\240\313\277Dy\237\256F\002\255?\247\360N+\265\345\262\277x\'\250\312hj\310?\252\333\226\0210\324\210\277\"\025\307\365\326v\253?\330\360\346E\203\200I\277w\367\033\332\236\351\226?\226\203X\022\2225\263?Q\217\034\244\345\240O?\335 \262J\312\t\231?Xk\215n/\200\255\277x^`7\177I\203\277@\334\376y\344\026\251?So*~\210b\240\277\177q\234\316aL\300?\017Ak_#r\220\277\251\005\273\177y\316\256?]t\252\361S\205\300\277I\"Wh\371\213\246?\036\371\006\005(4\210\277I\252K\272s\312\216\277\275r4h\343l\240\277\376;\242\213G\314\236?\215\251\211_\242j\260\277\214\353\351\223\236\314v\277+\231_\007t\373x?\3404\326mb\330\221\277\213\007\264\305\373A\265?\245Og\324{\210\243?\242\323{\325A\272\256\277\017\361\321Y\002\354\320\277\324N\346k*\214\306\277\r\177\224\022\315F\206\277\271k\211\370,\223\251?\224\031\276\306\263\030\204\277/\376\0270\004r\221?\010\342\302@\307w\226?(C@\204;\321\262?\272g\320\243\324\'\263\277n\014\363\236\352\026\263\277o\231p\331\247\027\306\277\017\007\312U\241\020\227?\027r+\223,\267\271\277\371\244\033u\370\021o?uT\377\034\006\303\223?\354\266\325\254\007n\254\277\027\301\201\002\r\361\264\277\264z\340\202\236\331\252\277\376\340\245\341\311\343t\277\353\001\216\363\370s\263\277\357\201\026\333H\026\306\277\220\313\311w\355*\222\277\002=\202\253\306u\206\277\\\024\216J\021\300\242\277\223S?+\014g\243\277\244\020\327\002\313N\262?(J?\203p\014\262?i\226\305\203\375\227\223\277\2641\275|\256\371\261?\013\317\255\014r\364\240\277\226xMh\263M\254\277\\\222i\377h\326\243\277\371T\206T\207\324\304\277M\310\211\220F@\302\277SHL\351x\264\236?\251\215w:\301\227\300\277B,\364x\241\334\273?v|d\010.R\272?\311\375\035[\335_\217??N\356\267\023\377\301?0O\306x\033\225\231?\231\230\376\236\013\317\260\277\300 \323J\251\223\203\277\341U$\200j,\254\277\224\344\316QK\266\255\277\365\354\275\370o1\241?\306\312\334\371!\371\272?xg\215f\014y\212?1\300]\222]\304\215\277d\266\374\001\306\323\314\277\243\305\370\n\305\251\214\277\016\201\n\326\327&\277?^\\\263\370\216&k\277c\3338\224\353\024\214?\243\305/=\343#\221\277@\340\244A\016\266\272?s\322[\222\022s\232\277L\270w}\266|\277?\321KJ>\300\235{?\335\210\247\317\003\"\255\277@\213\324\331mC\304?\245$\2150(\234\252?fq\305\332\210\002\260\277T\036\006$\213\326\255\277\222:j}*\022\310\277\241`\263+1\342\233?\343\263\315\017\332(\260\277\007\253y\210\034\340\223\277n\305\317\327\256@\245\277\371\254\3230\210\375z?\226\371x>).\270\277\356m\242\327\315\014\252?\344\017\254\375\232\237\241?\027\200j\214\224f\273\277\343U=\346\300\313\265?%W\230\205\335\262\207?N#p\355\350\215\312\277\331\350{\307?\267v?\337\351\274\272J\202\267\277\253\201|\036,s\260\277K\006V\342\000!\253\277\275\210`\372\205\254p?\271\326Rf\242}g\277\206\260Eh\034\245\253\277\307N|\032\036z\205\277\0138\026\373O\345\315?\363\t\035\242)\031\256?):\315\307\026\207\320\277\216\230\241T\036\353\324?\314\244\265\233\274|\240?\232`\203T7\215\246?\303\335d\033\311\277\273\277\300\276\361\246A\251z\2771\362\266h\216\261\222?\363\037\231\267\2141\230\277\267\2641\351\252\353\222?\233\001\233\006D\326\306\277\340\3141\340W\343\302\277\274\033\230\316\3773\252\277\270\375\271\256\331\215\275?\237\361\241F\261\264\210\277\230;:qEu\264\277\261\271\320h\236\370\252\277\322~R\331\342\374\253\277}J,L\371\005\256?\273\014\314\342s\"\205?\021\336\234\377\255\373\242\2775[\236\200\300\370\237\277\020\314\344!\254\302\260\277\277\237\207\341\272\364\220\277\365g\021\331\367\202\236\277/\240\034@\343\201b\277\256H3\340\003b\267\277\302-y.d\264\214\277\306lD\363q\204\261\277\377c1\215?\301\275\277\\\377\330\240\325.s?\262\206D\215$t\242\277&\317%\345\0024\261\277R\322\352\024\256\271\275?\216\347\310[g\346\244\277\020\016!\202\020v\244\277V\220f\"9Y\240\277*h\327\372s\253\302?\3131\013\362\202\037\255?\024\000\254\021\300~\324?\314\255f_N\224\266\277l\340\376\252\341Q\247\277Ed\244A\\n\257\277\260\036\320\372\347\033\223\277\243AAXF\367\243\277\321L\360\006\323\364N\277\020\303\242\250#&\232\277\'\304,\263\tO\324\2779\360}\177\321\336\273\277\200@\212\313\314\334\253?\261C\306zs\364\241\2776\363\325\332\332\321\302\277\346\362J\317\'/\257?iSpl\026\242\222?\267\334\211Q1\360\264\277\274\201\324\t\030\'u\2775\177\207f\363 \253?\224R\372E\263\250\237\277\2252\271\203W\336s?\t\252\325\337\237\214\254\277lO\223B\017q\262?\246\377\347\375M\002i?\036;\254\035\2753\313\277C\225u\357\220\360\264\277\'\216\370?\355\334\303?\362\306`\357u\270\235?\264\006.\034\360\360\264\277\206t1\t\250i\251?\r\016\325\216\256\312\250\277\272y\320\370\026\354\327?\274\360xw?\305\261?k\000\214\274\025\274\217?\211\217\231\005\361\360\223\277!\334 s\257\364\262\277\270\255}\231vd\216\277\266\226\234\350`*\232\277i\343t\227\322\251\303?\237\310\367jD0\262?v*g\371T\204\265\277\371\020\305\204\000\337\304?\371\356uZ_\246\265\277\322\360(0\367\213\322?2\204w^w\315\242?\371\236\"q\321S\250\277cu\020_\272\332\260\277!\300\220U\265\360\263\277\361\376P\307r\360\271\277\377\305\212\n!\027y?\341K\263\364(\306\251?\023\244\330\360\314\204\320?\311\307!y\335\010p?\242[i\301\216U\306?\014S>iw\004\223?=j\223\316\2027t\277ssh,\207\034\260?\375\022cV\177\323r?\020\266\226\277Zs\220\2773-\364\2638\n\261\277\371\240\\\250*\374\207\277\2708\353\342\322\215\265\277hX]\272F\337\243\277\016\314X5H\221\267\277z\t,\330\337\200\302\277?\365Y\205-\027\242?a\177dG\210\300\265\277\025\276\003k\354(\214\277\364\233\270\246\202R\264\277u2/\177pw\261?\207\304t\036\242\202e\277sC\002+\2050\260\277\004\305:\'\023Y\241?D=\267\327SN\\\277F\234_\032\300H\271\277\236y\001[>\352+\277<Y_\321\205\325\261?`\352\030;\356\177\265\277\236rw\345\324\251\276?\027T0\327T\326\317\277\304\031O\372\234\203\246\277\202\255Uy\237\376f\277\363\340\352\340\237\331\274\277sh\034\345(\365\270\277\003h\333\006\265$\261?[?\277C\357\362\216\277\330\361\335\010v9\240\277\360\360e|\230\236\266\277\313|\210i\213\346\223\277\027\304\'\003\031\247\316\277J\033\244\211\263\311\271?\216\244\230\365K\225\302\277\350\324\tzVD\304?L9\352\261yK\271\277<l*Ah\220\267\277I\247\211my\235\246?aj\326x\316k\273?nb\357\350\313\371\244?\347\333!\346d\245\246?\274\037\222\261t\372y?y>\'3:\335\245\277\355\233\246j\247\025\212\2775\"\021gX\213\263\277\323I\355ar\tW?\004\377\006+M\355\243\277s\371\036\377\273@u\277\271L\367`Q\351\247?\232\314P\366\253\337\240?@ \263\3669<\251?\006\200\272z\273\221\205?\207}V4\276H\256\277\251\376\263\210\362q\272?\227\307\000@P\014\270\277{?\266l\004d\301?o\265e\305r\334\210?IT\214\311\354\251\266\277b\315\252\3130F|?\261Y\246\323\000\232\257?t\240\256\033\351\357\244?q\355\302\300~q\233\277K\266\243\220\305\214\261?\203\035t\212\321%\242\277\276\030\311\372\nZ\254?j\302\374\024\230\225\240?\366\203\'_\255\210\251?1\016#\331\305\334\255\277\33797>\273\324\267\277\001\000\367\242\353(\307?V\354\315\032^\000\247\277x\0353\260\326_\241\277\366\342\352\243JK\270?\213\250\017hY+\263\277\304\376.\205\352nY?\006\300\237\334\023\301\275\277\252\201\337\350\020=\253?\277\261s\202m\315\224\277\\%N\001\202\370\255?\253\302B^\271H\263?\263o@\355\000a\302?Z&\343\360\302\016\262?\024#s\212\037g\300?\353\330\272\031\262!\224\277\035\231\021\350*Zi\277h\214\312a\003\271\245\277\273\374\265\335wG\213\277\332^uI\032\203\250?R\261\030\350\010g\312?\032\364\266\317-\230\235?N\272Wv\340N\230\277\330\355\227\216c8\247?\237U\330G\232\r\253\277\336\276\177\301PL\324?uW\237\254\302\251\230\277\2324\302\325\014\236\211\277*JN\367+\225\320\277W^\3631\013.\246\277\330\\m\245\301\260\306?\307ZW\222\026\262\267\277Z\307\321K\026S\267?\257D\222\264_\324\234?\264\2124\216_|\223?\016\321\232u\003\353\307?\033\246\374i\217C\245\277\263\212s6S\375\261?\266\306\304\337\204\363i?\315<\217Cqm\267\277.G\213\203~f\264\277\360\031\352\262\254\017\245\277\005T q\301\320\204?r\273\373C_P\300?+\212\023D\205\030\255?\251\232\335fi?\231\277\3637E\206\004\271\264\277A\014\264\243\234/u?\331\225\005G,I\223\277,U{\216\017\272\263?K\267\310\206\000S\221\277\345\376\305\270\215\303\212?\256\251:\316F\023\241\2773Z\3018\226P\240\277f\235o\275\n\035\242\277!-&.3\331\264\277\202\320\214H\030o\223?N\027\245\014\366\253\302\277T\303\327\000<\224\226\277\346\313\201*\305\201\243\277\006\226\225\313H\353\313?bmRLk\214x\277}\014\323\346\032\210\233?\354\006\025)\245\330\261\277|\213\366O\277\217\244\277\317\233J\231_\340\262\277\325[3G\3035\215?M\340\177\251_\315\220\277\202\353\025L\322\365\271\277\350f\013x\350)\241?\343\243.\351\343\022\275\277\356\317-#]\331\276\277\344\276\177\032\2431\245?\001\274\204\211Q\317\271\277\304z\007\021~\237\260\277\252\247\22417#\220?\237\260q}\350P\251\277\342\001\235\356\313\260\272?\237k\260\314\211\364\233?z~\235\214\335?\252?\235\r\177\2056\246\263\2778\270*\310\325\352G?<g\230\343y\017\271\277\235\n\325@\337$\262?Kt\233\"J!\301\277\360\307C\002\303\017\321?\267e1\250\221\370\243\277\326\361\216\002\237\003\201\277\310\252\344]\263\260\262\277<\251\217\362\325\257\245?\0014\231-\251\234p\2772ko\262W\376\274\277\306\274kMy\251\236\277\260;\020\240u\n\236?HMN@$[\256\277>\252\355hR_a\277\252\215\256\342\033\334\261\277\tM\311\031\275G\246?\0179M\007Mp\262?\367L{(u\031\233?\357\204}\254\375t\262\277\037(\250\261x$\221?\007\254\272\327t\366\250\277\365\264\316\022\353\275~?\315c\241\227\2142s?j\371\315\245Y8\236\277\003V\217\334\326\221\263\277\263\377O\366\305C\264?\252\353\313\310\345\370\264\277\2677\356\354\006\033N\277O\221it\266\340\266?\316\202\344e-<\307\277\344\032V\302dB\244\277e\244e\305\224\227\260\277\273\365\336\311\030\363\224\277\344@\025\202\375f\307\277\234\275\023\034\302\355\264\277\341\036w\271I\005\322?\r%I\356\343\223\302?yw\316\031\373X\262\277\330\333\235\354P \260\277\354\246\305\022E\352\270\277\357\010P\267\306)\244\277\270%\233\366\206\306\321\277\263\006!\033\032\216\261\277\237(\251@\016\033\272\277\325q!\231\2172\202\277\240^\355q.\335\255\277/^\223\004\220w\224\277\020\\a\301\336V\256\277\262\214\227\007p\260\231\277\224\234L\331\307&\241?\332\022X\216cE\272?\262\031\261W\177r\254\277\357 \210\333\277\206\231?c\240&\277h\'\272\277i\242\t\311u\300\311?\251S\244\356\245\340\245?.\025q\371\340C\252?N\253\217ph\342\236?u\014\322\334\3614\252\277O\236\356\201\266\345\211?\231,<\272q(\310\277\026d\246\305?\034\262?\030w\260\2258\364\233\277{O\350\236\360\312\231?m\274\220\253\307\240\265?\025\263\241\367x\222\244?Ot\2745E\311\233?\021\ta\231\244\"\241?.\223\3534\373\257\235?\216\254\256\300\215\027\262\277\276\313\273\'\2510\260?\277}\263\300\323\336\265\277\356:C\234y\"\252?\242\317\221\2032\006\264?\035\375\t)\013\237\246?R\231\345\342.\220\212?>\312\310\303!A\257?\267`L\031\030\371\262\277\212\334`\204\244\363\324?\247\246Udv>y?\031\t3\037\007\021\244\277\276\333ZJ5\334\244?\210\225\347%\204\334\240\277\202g\333d)H\260?\n\031\017\021cFw\277\034\024wn\3125\261\277U1\315\213f\350\237?M\274\247\010\031\330\255\277\225\362\307\231\307\227\246\277N{\274/4\217J?\202\177i\317\212\306\272?\235@\002\240!\314\334?\262\235\0161\030W\207\277\342\225\r\241\225\036\273?\267\243t\333\335\240\303?uY\203\275\265g\246?;v\320M\234L\225?\274-x\244\222(\275\277n\352\345\341\030+\264\277?\335/B\263\276\206\277\271\030\374\014)O\221?x\3103\357/\217\241\277\276\371\003\235\333\234\243\277\252+p\232\276\036\262?M\2704\352\3029\262\277\205\177\274`l\177\250\277\2066Lt\253\315\252?]\313*q\037\"\233\277\343\306\332\372r\036\261\277\005\232*\3168h\263?\257\'$\215\336e\216\277\365=\366\023F\030i\277\257L\3576n`\253?\014\032\211p\010F\322?:\252j\276\335>\264\277sW\376\344\326u\267\277u\257rn\'\031\240\277\0338|\021\323Sx\277\027\353\2107\0044\311\277H\243<\345Y\307\223?&\020\240\265M\270\255?*\337.\234\tU\267\277\307)\250\270\n\322\244\277\371V\244& \220n?\025\221\261\250\264\031\226\277\363\315\231\026\331~\261?\375{U6\214\317\246\277,\206E\372Y\246\220\277(\033>6/\343\257?\331^\n\020\323c\247\277G\312d\022$,h?\244\273\254\241\214A\250?5\000\341\360\t\000\303?Y*\301\374\006\240\220?\351l3\202s\236\321?P\034c\216&l\224\277p\375\323a\361\\\300\277\301\006zE\240\361|\277\030\327\305\211\235\210\244?\234\261\001\342\r\330\264\277\351\253\364\227\262\301\247?\t)\3500@\310\232\277\213\245\365\\\332\210\230\277\341\316\255;\235\024\201\277=\"N\322)\037\256?\003eo\271\313R\271?\227B\336|\241T\262?Xj\224\332I\021\224\277\036\207s\317\271\316\240\277\371\001\252\240r<\247?B\300\234\345\253\231\302?\360\003\021\254Gg\304?\264\005\2264\314\274\272\277\017\332\331c2\300\177?^#F.-j[\277\262\261#\345\212\233\200?\361h\213<\005\037i\277\354\211\264\210mX\247\277\353\036\337E!\266\261\277\013\013\\\247q\024\222\277\356A3\210\017\016\260\277XG\271d)\235\245?\231`\000\010\032\226\240\277\303]-\375B\336\253?\322\232\214\266\354\201\241\277\2750\372\370\320\375\213?\355\261=\261@S\264?\304x\276\327\244\275\245\277\231R\340\220\274V\267\277\'n\032N\037\365l?\005?_\317\\\247m\277\370\363tV\361p\266?\235i\234\247\036a\301?L\245:}SJ\262\2778\317#\027\371\300\274\277+Y\0370v\224\230\277F\372\010\303\351Tq\277\301Y\337\275\331\373\244\277\034\251\327m\330m\306?\252\222\002\031\306B\273?\367%\252^_-\267\277\035\027}\271\365\331\260\277\316\313\014\373\240\304\221\277\301%\003\3542\201\261\277\302\353yJ\340\330\305?P-\220\3622z\265\277\360\261\352HSl\256?\013\261\337\230\031\007\303?\220$\321\217\022\330m?K`=C4}\213?\266t\262R\207s\250?\363f\036\347\250\313\270\277\200`\370\004FS\232\277\212\354\371\237\333\017n?\344w\364\317\357\351\236\277\323\r\224\231\220p\300\277{\253\310;\376\032t\277j\024\001\232\323V\254?\252\332.85\r\207?b7fQ\373\346\313?\006\010>\357\200\351\237?\014@\326\201\227\223\255\277\347\252\262\352\226D\224\277R\233\311X\326\365\274\277W{>\304]\214\261?\2764\225g\222\223k\277\316\373\367\232,W\301\277\200>O\274S\316\263\277`\003\335\307\302\327\245?\276Z\367)\253W\204?\022Z\266tyV\222\277\236\036\021\336\243\246\270\277\2558C\225Te\215?j\313\326?o\360\251?\214\200\325\237\352\"\267\277\250\'\020\024S\343\306?\242r\357\357\344\371\267\277\346\204[\341\006;\241?\014\3618\035U\210\257?\375\027\030I\262\212L?r\312\205\311QZ\232\277\266wc\001\366l\264?\273\004\276\177\377>\203\277L+\027\256iw\303\277\254C\333\327u\315\255?p\033\312\235\223\264\301?\007b\037\336@\t\232\277\236\'Ae\"\363\261\277>\361\376n\355\377t?\330\021NthP\245\277\020\222r\024I\304w\277\251\013\320o\035\312\251?z\\RU\037\370\266?\2319\272\243\027\206\260\277\216 \254G\245\312\263?9\361\363s\253$\267?\273d\262\240\001\257\300?o\021\002Ix\331\202\277\355DC\030\036\265\262\277\314uK\\\232\311\221?GL\334\307H\200\244\277\036oS\333\020\366\262\277\365#\277\241<\037\251\277\313\237\230\244}\030\307?(\362Q\227\263\235\321?4\\\250\341\026~\267?d\2209Ym\302\255?\366\212\351)y\336\301?\\!\360m}\035\272\277\355n\214\206\006\263\326?\356\233\026k$\335b\277\215m\310\272\210\r\215\277\376\332u\247!GZ?AR\353\320Zb\275\277\271\304*\013\256\225\251?\235Q\370\025\027\354\313\277\243\251\374\347^\242\260\277\252\302C\354o\302\245\277H\343p\217\330\262\226?e\332\t\221\373x\266\277\305\221p:w\365\300\277\326\336B9_\263\243\277e\233{\000\026\246\303?\032\343x \351\255\223\277\'\373<\372\t\003\254\277\341t)\232!\244\265\2773\226\000\344\024d\260?\2369l\327\037\204\240?-Aw\377\350+\226\277)c\376[\371\235\302?7\303I\265\323\326\250\277a\007J\177\025\307\266\277>\r\224\204^F\305\277\265\210\335\371\364\375\234\277U\374}#)\347\216?\r#\233\025L\030\247\277\'f$\232\306L\214\277\334\243\355s\"\326p?\306+\231n\037\030\255?\004\366?\315~\316\260\277\235^\034}\007>\306?\252\335\374\375\242\001\263\277\3078<;t\303\237\277\t\375% \274\242\272\277\265Z\024\345\310g\257\277\005\306\304Y\024D\266\277\372\304a\232\204\001s\277"
      }
    }
  }
}
node {
  name: "normalize_element/component_3"
  op: "Const"
  device: "/device:CPU:0"
  attr {
    key: "_output_shapes"
    value {
      list {
        shape {
          dim {
            size: 749
          }
        }
      }
    }
  }
  attr {
    key: "dtype"
    value {
      type: DT_DOUBLE
    }
  }
  attr {
    key: "value"
    value {
      tensor {
        dtype: DT_DOUBLE
        tensor_shape {
          dim {
            size: 749
          }
        }
        tensor_content: "N\206\002\032\364|\247?\000\220\261\304\2464\237?\014\375@\322\216q\306\277\207r:\350\211/\204\277U\322\375\214s\251\271?R\370{q\216_\253?/x\273n\247\203\247?\255(\272I\353\256\251\277xt>1\n\366\250\277\324oI4\313y\237?V\321\014\342\305*\264\277MWM\210\270\307\261\277\007%\335\2731\336n\277\035\371\344\244#,\217\277\204\375\035\017\232\277\275?\200\216\276\271Y\267\223?\312!i\203w\320\246\277\036\364\177\221>\314\221\277x\350\014\002\024\347\301\277|Y\247\340\317\247\261?^\356\032u\030\236\256?\001\204\215\251gC\201\277x\244\361~\254o\270?\253\2511l\357\210\266\277\242\030\364\210\322\261\203\277\243@\r%\221\364\263\277\263R+~D\377\304\277\334\254\323=\242\365\244?U\214^*{\352x?Gr>\263(\334\265\277#f\335\252\017\363\260?\320\231\204,U\231\223\277R\241\233J\000\033\277?\343\235%S\213\276\241\277\353/\2168\356\341\274\277\351\355\236\342\261\312\305\277vh\203\275\271\330B\277\272\236*#M\302\274\277Y\315H\005$\003\266?\325\370N\302T\307\240?;\217\334\237o\214\261?\234\3077\261\321\200n?\355\237\021\363\264\312\207?9\027U\377\027\016\261\277\216\364\002\372\327\230v?g\274|`T\332\337? \261\350\013\275\t\303\277\313F[\367\203[\303\277D\340\004\334x\315\243\277\247\177\177\372\367\375\245?f\371F\264\205\235\230?\366\027\017\377\3702\233?\236\273\254\234>\216\241\277\201\336\226\215\316\220\222?u\rp\211\300\241\254\277\220\325d\371\226q\305?N[\021\323\001h\260\277^\017\301%#\211\235?w\254\226\310\0203\225?\354\272j\005\n=\266?\277~\346\374\3563\244\277\255\347.\237T\271\241\277\036\215t\276\267\247\223?j*\322n\371\335\247?\273\003\357U$i\221?p\366\243\253Y\177\240?mG\362\020\324\032\220\277v\341%\261\235\007\231?\022\344\001/L\024\261?;Qg\200O\226\300\277\257\0243P\326\336\252\277B\227m0\247\216\306\277X\036\320i<\320\221?\340\254\300\000=5\256\277\247G\275\315@\301\253\277{j\217\273\2662\276?0%M\301&\264\260?\2414_h\224\306\263?bB8\202\r\301\251?\350a\206t\327\260\260\27790s@_)\256?k\337\010\332\233\276~\277\306\357\003Jv>T\277\350\303\226\362\243o\224?\006&\200\303f\361i\277\331\356\305\222\262\343\262\277\355\017\233\317\266\233\320\277/P\"3\035g\245?!\2405\325\245\317z\277\021\262\270\017\206 \303?P$\215K\022\315\237\277\301J\007\235\022\263\246\277\303\350#58\260\225\2770o\346\254?v\244?\000\223\262\346R3\215\277\030\016\327\262b\260\252\277\367e\362\377\214C\233\277+P\351\250\017\313\274\277\315$\321\200K;\260?]><\311\220\312\235\277\317\025\275\323Ww\314?\026\374yI:\304\250?\357)\302\275\022\243\242\277\301\302\232\237\242;\203\277\377\325PO\372w\273?\003m\326\211\340\233\256??\363\310\251\244\371p\277b6y\372\255A\217?B\373W<\013c\240\277\311\235b\277\255q\225\277\204?\005>6\267\254?\372\351`?\225:\263?>P0\326\255\230\274?\243\317\236\002\350\301\262\277c\n\255\322p\267\226\277\331\027w\345\275A\250?\335\210\2330\351o\211\277J\306\204\254\314\t\300?\001\320\005\266g\272\244\277\t\341\362\332\316\341\225\277\265d=G9#\270?\013\356\021\272\3328q?(\037\354\201\365c\242\277\360\331}\240\315\345s?+8\353\343\274\312\266?v\016\233\034s\016\231\277gj2\244\254\223\264\277Z\365H\324\223\032\267\277\360\211z\342\2724\306\277K\307%\245\272D\260?\007\242D\303\240\330\314?\277\001\206lk\"\263\2774\300\226\306AJ\317\277\234\355\255\277\302\343\263\277\217\312\036\250V\306\231?\305x\314\307\307u\241\277\013\345\303;\032=\251\277\317\224\216\357\215\310\240?\341zU\010\311(\217\277&=\266\300\216\014\240\277I\314\225\032\227\262v?r\354\334\277\257S\276?\242O\236\020T|\222\277\245\376\223\247@<\212?u\034\334\261\257\022\246?\004O2\0071\244\021?\237P\360B\331\200\214?\377\374S \226\\\303?\312s@\000\374T\276?\377\005\202t\316\201\255?\2430c/\257\367\223\277\000\352\243\257\307\311\221?\337\013\"\240$&\277?0\347\331\241\004\211\205?\314\361F\341\021\232\250?\333\303\267\374\022\247\250\277p\200\036)\304\330\250\277\212c\236 \320\222\227\277\2377\013\021\323\007\252\277\304\032d\364\333\340\224\277\3052f>\276=\224\277m!\223~h\274\243\277d\225+K^\332\260\277 \232\324K\314\307\304\277/\335\345\233\211\365\251\277\266\224q\346T\347\304\277A/uAk\223\267?\323u+{5\266\223?O-$\351\360\n\244\277\\\276\224\' \232\243?Y\3279+&d\244\2776<\347\370\261X\211?\251\nOXV\324\232\277\357\201\260E\246\220U\277\036.\244\242\222\013\265?\003\230\3103\203\275\257?\313\213\215\301\252}\270\277Q\2268i\316\273\267?\361\270\231\032\277\202\256\277\3760\017\342\253\303\225?5\330\254\233\210B\263?\321\3616\356\0305\260?5\337s\270\255\354\264?`&(dC\356\261?:=\267\342\213\306\205\277\260\301\352\337=\313\252?\300`\277\036\250\031\251\277D\320\004\312g\004\271\277\376\351\331\004v\327\260?L\2064}j\233\207?\3310\372\370\223\376\206\277\0169\304\301\313z\313?c\272h\225\277C\271?v\337\322,\300\253\261?a\233)\2570\001\232\277o\024\367\025^\n\266?\334\022\254\037\354\265\260?_\220\263\277\242W\222\277\363=/\335\321\233\206\277m\007\274H%\214\207\277c{*\'\027\262\205\277\023\267@\347\254\227\271?\363\227t \036\323\221?f9\310\245HM\301\277\333\313I \240_\244?\365M\340\333\253$\270\277)\001\036\017G\017\224?o\023\035@\202\317\241?W\324\031\303\366h\271?\236\222\256m\243L\306\277e\023\370\010\330\271}?\310\370\334\n\351V\251?\020\"\010Ph\265\230\277\361\341l\177p\"\256?\\6\357\330j\331\263?EG\233i\021\036{?\214\232\374q\007\035\236\277_%\306XA\363\225\277\332\234\315\2779\253\230?\357\314\271\370\350z\272?\350\341I\230\311\331\234\277\014\327`\010\377\274\315\277^Qfx\301U\207\277h\221\202\022\217\314\267\277\233\016\242\007_\240\205\277\216\210<\241\t\334\223?\n\032\243\342\033\361\264?\326V\213{e>\267\277Q\033\315\300?\262\241?\250E3\rt\222\274?g\362\327\033\006\000\212?&\336G\217\307o\251?\020\003\300\036\272\004\264?\302r2\020}\271\312\277\020\021\323\026\340\'}\277Jxf\357\222\254\300\277G|\007\212\345$t?\nm\020H!&\275\277\372\232:Pmn\226\277\230\355[m%\371\222\2777\226\316=\035\246s?\010\310\022\000\033 \245?\034\r\032\340\033 \261\277\3676\to\033\355\260?23\206|\311\220\247\277\337P\215~\026:\266\277\263\343\240\247(\226\252\277\032T\371\334\335Y\203\277t}\242|R\013\177\277Zm\235J\032(\242\277\322\267\307\254\221\204\241\277\026wBP\317\345g?h\253Hq\270\231\220?\251\221\313\t`\016\254?\343\250\016n\025\341\226?V\345\341\306\2054\230?j\332\336\276\333\270\242\277\211D\354\327Q\002B\277\"\033\201\240C\\\273?\2370\226\343\232\303\225\277H\322\010\243+\341\260?\372\351In\277>\242?k\261x;36\233?wNV\270J\362\272\277&\347\353i\363\024\276?\241\356PXE\367\306\277\000z*\007\002\242\222?#dc\016u\362\224\277\212Rv*\013\274\252?\002\362\325U\341\030\252?X`0\265i\321\262?\201\270 \340\000s\235\277\001_;[f/q?U\271\223\373\366\221\237\277\303gu\322\267\247\213\277\210h\n\205\0063\324?\273;\260\033\355\331\203\277\014\305\016\306\r\300\276?Ak&@\232\321\217\277F\352\334\265bq\244\277\310+`\247\021\320\206\277\272*\027\230s\340\\\277\3766\3770\034\023\242\277\343+\337\310w\350\264\277N\351\212\006+\022\205\277\032\317\340LUk\177\277\301\300\334i.\350\253\277\030\032p\256\005\310\264?\003^\374\303Z)\256?\213\247\327%\332\321\250\277\251n\313\021J\244}?\005\334\"L\337\016\276\277\311\327\234\025\t,\234\277\240\314\036\344\277P\256?\230\014\n\272V\322\261\277\373d\277\321\025\222\261\277M\304\030\323k\003\232?\325\300R\252j|\210?\231\347F\247\3420\264\277\347\362V\014\264\203\261?o-\212\247\305*\262?x\334\213\0245}\232?\023\017?\305)\004\303\277(;\356o\373}\254?\353\233z\213\333<\264?\204c\255\271\347>\241?\035\204G*\216z\212\277\305\226\232S\324\003\231?\262\256\323(\373p\201?\351\372\333%\300#y\277+\245\306L\303^\276?\303\370\232!\t\237\240?\346m%&\222\250\240?\001\351\237e\265\023x\277\263\366\020m\020\317u?E_<\367\361:\267\277,\240\217\300\357\274\205\277\360\203\234\002\346l\256\277:\326\033`Ic\251?\030\r7\240K]\177\277\233\342Or\366y\250\277V\256\370\274\304]\260\277k\276\0056B\340\300?\002q\212\214y\260\204\277\014\004-c&\333\227\277$\265.\304V0g?Z\237,\270\277\353b?\313\030;\244\223o\270?\261\030]l\204\317\303\277<\260\201\350\230\030\263?\022\306Z\002\307\325\314\277\344\2277\261\363>\216?\340V\222\006U\275w\277t/-\314\316A\231?\026\345K\030\352/\243?h\321\3037\241\n\241?\223X\212*\007\321s?\270\323~\341\364L\332?\335\364\276E?H\276\277\'\271\231\"&\\\225\277*\022h\221\302=\240?\217\032\351\255bR\242\277\335\000S[\352\322\304\277\204<\221e\301\220\244\277Q2\247\3560\205\220?\000\021k\016\3661\262?N\211[,\331I\225?\243\002\211\215o6\304\277\251L\364\206\020\213\257\277\346\277\357v$v\221?\365U\246\354\200*\207?^\242<\264\013\316\241\277<\001?\016\240)\266\277;E<\377\301\202\257\277o\207%{\007s\204?\321\254\227\2161\262\273?\375\031V\005\314\303\220?\264U\220G\223y\260\277\n\246\304}M\312\240?u\337\375\300\277\322\264\277W\357\370\247\254;\314\277\257\374v\023%x\246\277\343\177\261\217\253B\263\277_~\003\240[\217\231\2778xutO\025\256?\365~r\031C^\'?b\373\316r\204N\240\277\220\3369\324\351\256\227?\377.F\216ZI\240\277\272\251\303\005\363_\236?\365\256\345p|\273\254?Us\001\356\250\254\211?\231T\362\360\207\020\270\277\035sl\222\245\027}\277\340 \214\373\324g\235\277\256&A~\224\273\270?\t\272v\275\340\305\256\277\312Y\000\036\362\247j?\366\302\357\266\311\214^?Y>a\230\244l\255\277R\316\275\260\362\035\251\277\003\243\332\333f\316\244\277\335\254\204\344\335\211\331?X\035P\275\370\370\266?\037\367\031|@\306\251\277\222879\032\232\240?\326X\342\243KL\202?r\272\376\311\242m\244?aC0\241L\340\265\277\2712\354=\345\343\216\2776\241:\222[{\321?z\nz\213\360M\230?c\353\002\371\354\306\267\277B\223RG\2553\300?[\321m\257\001Q\240?2g\025Vwa\245?h6\016\373\203\334\256\277\245\210\013H\202\300\221\277\376xy\343\350,\221?\300\\\365\373zd\252?K0\254gi(\246?\351\311.P\210\344\263\277\004v4v\022\027\302\277\203\350\327\352\244\334\276\277\004y\031\271\224\227\233\277\"\265(\351\025\240\243\277\177\235\306\376\007n\262?\242\362v`\305\'\243?+\000\016\332\"\342\270\277:\003Y\021Ax\233?\224\305v\003\222\375\240\277c\025\2254\312T\177?Cq\251\327>\246\222?\205\277\227\246R{\265?\351\014\235\316\372N\253?\203\371[F\331\365\242?\266\247\364\006\313\023\222\277\326g\003\370s~\245\277i+\230*\000\213\246\277J\274)\223uC\270\277\321#b4\241R\307\277M\212\032\025\216-\255?\3263q\000\215\327\260\277\354\363\344\240\310\"\233?\302](PJ\336\224?\256A\t\343\267y\206?.\016n\3234\025\237?\223v9\231l\026\223\277\213\344\236\220)x\270\277\000t\177\203\241\037\256\277\260p\206[\341\300\260?\026\205\217\267\376i\265?\006*GK\356Y\222\277\200\200\271\223\215\021\265?F-\212\033\216,\303\277\035\317\367\231dK\222?n\177ru\266\242\270?~\330\247\351r:\314?\004Y\357\333@\327\251?\347t\250\311nR\254\277\213\2750\343\255~\311\277&\253\202)\313c\262?I\341\332\347\366\177\256\277\2347\222\007\252H\251\277\315\332\021\"\274\354\244?\274\275o\253\317\351\230\277$\003\346\032\001C\242?\236`@-\225&\244?-\340\227qNX\272\277`\\\\\001>\335\247?L\\\201\273\225,\266\277\312\365\r\304B\203\233\277\251\216g\273\017~\225?\347{\242\027PT\247\277\032\254\250\016\221\204\250?y\0274\030\3569\264\277a\326(\366\346\340\216?\314\270\315\210\331g\261\277\347v\372G7\301\271?\365\237\334_1\323\263\277\275\336`B\314W\235?\263pa\036=I\266\277\361{\202\'\361\370\247?\033\240d\237z\327\303?\211\2104k\221!\\\277\305\024\327\346Sy\217\277\234o\257;\204?\245\2778\254\026+\362\355\242?=\301\314\010\334.\267?\276\r\261\217-\227\270?\024\237\327K\320\177\234?\234\204\007-\363z\275?\266\265\366\314\245\357\235?\241Q)^C\230\266?\032X\235\202S\353\264?\226\010\322\247,\373\215\277B\206H\327at\220?\240\233N.5 \260?\252\200\263\343|+\260?C\177\032$\266\266^\277\223\305\260\027#cl\277\003\373\253\036\352\275\265?\032O\224&\243C}\277\025\313vK\307\324\234\277\352A\340\013>\275s\277\222\250!\342h\034s\277\335Nhj\242\247\213?(T\274\203\010\026\250?VR@\300\231\372\243\277\347s\273\311\002z\243?\254\230SG\326\351\322\277\207\202>}\367\315x\277\033\265\323\331\3055\222?\362\351\022@\317&\266?\252\202\255\262\005M\206?d\025`w\377\334\226\277qU\241\204\247\376\245?K0P\035\317\272w\277\034\345k.\007\217\271?-\226\354wuB\246\277\331\364LP/M\243\277\262,\270\201\207\037\275\277d\353\326W\353)\266\277hk\211\305\020ay\277\205\305\251\'\341\313\246\277}\273\363 \003{\274\277.\204\007e\255\336\224\277\352tk\036\005{_\277\222\223\327\273\310\033\257\277\314\335\341y\256\366\214?~\006}\216\322\2459\277\277&\240\014\025\315b?\242\027\n\263y\030\233\277\344\256\211\231[i\263\277\033\003>\360\343[\251\2774\252\2074\214\260\275?\003p\226\237\016\010\302\277\004\361\317\274\274$\236\277\357\3647\035\341?\231\277\320\252\203\331\036\356\277\277\270G\257V\250\333\225?B\2059\3249v\220?-Zv\232\212z\241?f\244j\232\315\026\205\277)Uuu\321a\260?\233\362\252\271\217\301\255\277r|E\331\205\007\237\277\255\314D2{\\\263?&r\320\370\306(\231\277\317=\023\341\020\231\227?\245\217\354\377\275-\254?\030\01661e^\227?\327m\265R\037\242\230\277Fl\255\353\321LC\277\365\3130\224\376\310\265?\025\235:T\317\332\207?\260]\341Q\241 \270\277\306\004\236\220\311Wv?\023\332sF=S\231\277\254\231\271\304\351\307u?\005\263\274\276\003=\321\277\205\337\262:\013\240\222\277$v\'\025\017\264\236\277\244\034\256\033\370\373\265\277\365\t\270\314\331l\260?\310\313rW\262\362\265\277m\211\234F\332\243u?#X\'B\215\241\201\277\024r|\325\366\224\264?\000p\213\211FV\201\277\356\212v\303\224:\177\277ML\355\301\341\266\230?wx\306\311e\025\256\277H\262\252x\343h\204\277;:{x\260Q\210?\265,\305\2752J\267\277\233E\230[j\321j?\034\220\026\355\202\336\260\277\226\367\333k\232Ri\277\246\267\020l\356L\304\2774\301\004qC\322\266?\345\275\304\312\343O\262\277\276O\217\317\217\004\213?\210\361s\3235\220\254?\"\005\237?\267\226\246?\000lv#i\303\202?(F\020\311\372\263\206\277\177\276q\324L\226\240\277\177\267\r\370\247\231\301\277t\223\275:\017\200\232?\302\311*\374\275\331|\277\3335\320\017\224\212\267\277\310!a\357x\304\230?1\374\214WZU\241\277\303\373!Y\220\364h\277\330\330\212\376\211\215\254?\337\026\343\324\351\346\212?\365\351\371\372\223Z\264\277d\010ny?\247\206?9\344\342C\315#\203\277\361k\261\036\210@F?\310xz\314\305R\301?\352La\313\266r\211?\304=\036\330E\275\252?\020\242\207\007\347\t\262?\352\273p\016\333O\266\277\213+H`\216\232\234\277\003\324(h\354a\217\277\232Q\231R\263\013\266?\325\021)B\031\021y?\0305\023\0165Z\250?`\204\376\267\247\037\300\277\237u\350\376d\244\203?\\\341\215\232m\254\270?\357_Zdu\365\214\277\023\311\334\341\rf\264?\2708*>h\342\250\277\221\305\023\220\206f\200?5\326\026\223\030,\307\277|\214\354\233\017\372\263?\256h \314\"\237\257?QI{Jb\351\274\277\226\030\271\344\241\033\240?\376l1\261\244\222=\277\260\327\307!\005\337\240\277\255\201\265\013\364\363\255\277\272W\035\034SX\275?\271^\222\332\263T\257\277\224Oz\277\021a\250\277\006\335&\346\237\022\205\277\312\t\030N}\232\260?\002\322\346\3345\305\241\277(2\236$\277\345\246?n\023\323\200jf\270\277\311\213\356\253\371#\201\277\300\322y\247\2411\237\277\252a\177_Z;\254?\177S\327\225\004\364\244\277U\013*Pyz\200\277\277m\365P\006\252\214\277\213\014Aa\031\301\255?\315\222t\220\036\245\206?\320z\037\263\225\327\274?\021+A\374fR\251\277\n\247\263\326\032>\213\2779\013H\352\367\344\200?\006h\225\2452\311\232?s/\264\261\034\264\276?\201\224\271\231\r\302\231?\215\030\004O\3076\262\2770/g\201\340\233\211?\264\314`\342E\013\215\277aX\305*S\203\263?.\356Gt\356T\247\2771Z\026\371\362\210\264\277\301\372{D>u\303\277\256o\330\313Y\216\274\277~\302\307\030c\003\260?\366\313\312\001\372\036\244\277z\2177\\\204\226\276\277\324!\375<\007>\273\277\301\275:f\370\323\242?\235J\255\335\232\034v\277\240\241\326\270\277\345|\277\372\207\233\031S\326\264?r\226\200d\360\331\303\277\006\257\235\330\276;v\277\300S\006~f[\200?\351\266T\206\325\231\303?s&\025\226\236\023\252?\233\322\007^O\370\272?1\270\375\024~-\236\277\333K8\356A\233\314\277~\244p\370\365\374w\277\337N\200a,Q\220\277\236.\010-\334\200\323?.\2179kq\376y?\324Z\342\311\231\370\254?\224\220\375\032 \247\232?\342s\237)\264zn\277:P}\262\300N\216?%\347\200S\177\314\237\277\031\350Z\372\375\354\223?a\335\360-\230\303r?\312\024\325\233X\034\313?\\\035\242\273\235i\243?\260\215\257\341\246\313\305\277\275T\342\360#\231x?\177d(\377\230\215\262?\205\220\300\230\325\207\270?!\346\315\212p\267\275?\300@\250\340\230\213\315\277[\250\323\233\025\270\253?\376\337Bi\031<\253?\205\345\263s\033\305\241?r\350E\237\357\021\246\277C\324r\023\263\216\263\277\316\307oT\311\374\302\277\332\316\2207\372\023\302\277\202\274I\371\035\216\231?&\002T,\000E\260?@~\305y9\210\222\277\210\362\212\"M`\226?\024p\000\340\025\245\272?\326y8q&\377\261?\307=\261\230o7\230?\255\273E\251wt\247?U\310\213\363\344\202\201?Y\312\260e\366\307\223\277\320\r\017F.\002\262?,\321\252\305\037~F?\346\316\0328\207{\226\277\223g\317\356\327)\203?U\300!3\000\322\213?\rm,q\rK\255?\242\264 \263v\0247?^X/\000\350\005\264\277U\222\327\017Hj\260?79e\320\274T\305?gb@0\"mx?\333\024\330\0060\003\223\277\210\231\016\352l\016\254?2\206R\352\3164\271\277\017\334*\345\233\362\241?\362\332\313\272M2\242\277\355\275\214\355\265}\262\277\227`\\\332\3530\303\277\331\244\355\244)\005\241\277\034j\317y\240G\260?oj\301WT\207\310?\001&\307`\251\371\270\277V\370\376\222F\337\216\277\" \26675P\275?\340\334\215\006\255\222\221?4\254\007\277\032\240\240?\240\305R<\341\014\250\277\377.\3062\035\037\276\277-\034\246\030\260\243\242\277:\014\344\345\351\220\222\2774 {\r\023\314\264?\222\002\305\n\301\277\034?A\361\324\340k\321\247\277\307\333\t\321\215\271\303?\233f\332\031\203A\273\277Xu\024\013h?\300?]\022I&>\t\240\277q 9s\372\345i\277\357L\203pQ\304\221?Z\346\305\320\250\252\250?\032^\335\303)\263h\277{\371\2650M\342\261?\202\375ub\'\344\264\277\237\265\310%I\302\233\277\335\202\"\324i\363\300\277\300\036\220~\004\211\232\277CYD(\215V\302?\007^S\242\253\023\246\277(\374FW\265V\235\277\327\324\210\344\335\317\266?&\270\214\004\002N\247\277\217\014V\370\273f\242?D\231\217\021\331g\322\277\33617#\226/\322?\323\363\242R\013\361\271\277O70\372Bb\271?\032\r\003\367$\006\233?\031a[w\264L\217\277\306\371\245\013\353\000\267\277\024\355&pUM\242\277"
      }
    }
  }
}
node {
  name: "normalize_element/component_4"
  op: "Const"
  device: "/device:CPU:0"
  attr {
    key: "_output_shapes"
    value {
      list {
        shape {
          dim {
            size: 749
          }
        }
      }
    }
  }
  attr {
    key: "dtype"
    value {
      type: DT_DOUBLE
    }
  }
  attr {
    key: "value"
    value {
      tensor {
        dtype: DT_DOUBLE
        tensor_shape {
          dim {
            size: 749
          }
        }
        tensor_content: "HD\303~\246\177\275\277\243\313\226p{kz\277$\0377\250\353\300\262\277Y\317G/)\230\256\277\215\271\376h\313\232\250?\372\000o\036PR\252?\343\034\230s\037\220\263?\237A\270\204\252\005^?\276\306\345\265\305\267\250?\3350\373QS6\245\277j\226M\334D\353\220?\377\226\r\2046\321\251?+::N\246#\230?\030\304\370\370\021\211\247\277.\261\341\365j\244x?$}7\342l\213\243?#\244\232\350A\267\324?6\327\367\023C\375\271\277e\013\310B7N]?\252N/eQ\360\251\277\314\nb\207\302\254R\277\275D\006\223CF\260\277\346\016\316\365\262\334\253?\334:w\206X\266\263?``\240\224\226\263\270?\220\370=\370uv\204\277\370\272\203\216\022\251\303\277\"\236\302\340\341\303\230?\3648\202\356_F\230\277M\336V1\357y\263\277Y\325\316C\347\334\272\277H_\333{\222\255\241?\224(\331\236\035\341\262?\274l\377\036X\235\220\277p~\236\330$\263\250?\251\356i\345\300\245\262?Q\025\021 \370\362\202?\371\023\336\2343X\261\277n\017h\213{\217\221\277\262\3135i\354\344\272\277Hl\372\364\030?\255\277W\031M\367\025\026\242?%\236@\035Q{\274\277\334L\353\355`\244\262\277\304I\201\350\201;\260?\3751\001\261F\231W\277\0259\267?\264\357\237?T\334=\266 \371\242\277\033\203\230\214\201\223\262?L\300\001\333\030L\301?e\202\017+\376D\236\277\314\331\232\352\225\243\300\277?\304\305F\310[u?\215\007\216\271-\214\243\277\022\374\000\374T!\231\277\027%\250c!\355\301?\363D\206\306Q\222\250\277\373z\t*\316\330\251\277\351\360\003\3332\332\201?\2175\340\235f\013\233\277J\231\371>\214\336\224\277\010nN\270@G\256\277\326\006\317\035\366\267\240\277hi\362k\331m\227\277l\"\2129\310\033\315?\317\232\341\200\"A\270\277Z\022\177\301i-\261?N\325>\017e\370\261?\254d\356\301\233S\253\277\027i\213\016\034`\227\277\200\231\022@\266q\265?x\241wv#R\264?\216\2514n\r\331Z\277L\316\256\302Q7\253\277Z@\347f\364\021\200\277Q+\245\260\325^\216?\313~\310?\373\\\251\277\243\255\271\211\036\010\223?z\014f=\357\315\255\277\222~Q\343\271\376\231\277\232\361\227yj\375\252\277y\241\343\241p\230\270?4\201\254\233s\022\277?\200\215\233\341\321LY\277\306\276Qm\211\362\231\277\201\tdi\006\035\301?o\375\264=,V\270?\304L\004T1\333\302?\r\2371\254\372\004\233\277\177\303|\002\373\306d?\017\354\017\207o\213\241?\245\270b[C\210\250?\375\247`\264p\007s?\320\225)\326\n\346\270?\214k\256:\033\267\220\277\265y5\370\330%\276\277\221\317\007\014^\235\262\277\264\006)>\242\207\241\277%\232\261$\205>Q\277\203\0268L\222\340\200?\031\214f\223\221]\300?\352\003\363\2314\334\244?.u\23480@\265\277K\365\327#Ok\302?FT\207\001\356\240\240\277\033\241\210\336+e\265?\006\216\307\326L\357\234?=8F\001[h\247? Ty\354\305L\231?\311\260)3u\342\261\277LX\231\247\231\237\230\277\213e\351\267\033\251\262\277\217\216\026Y\257?\242\277\0019\234\235\364\013\231?W\000\336\370\251\375\241?\2544\014\371\241\364\255\277\231<\372U\226.\305\277\017X8\316\262\013\307\277\357\277K\365\240\322\232?\037\377\325w\277=\274\277\260\027wPY\313\244?~\026\346\037\267@\255\277VZ\206\007\347\356\256\277\021e\320-\243\007\305?\374\004\210\0141\265\275\277\021\352\245\024\\d\232\277\260p\324~\250\205\272\277\260\265\033+FwZ?\307\341^7A\335\246?f6\245\307tP\240?\244\233\352=\'\310\307?\221\302qji\035\277?*\305\241\266\211b\260?\366\254\235<K\375\177\277\231\236\200\372\363/\276\277}\261f$\323\372\231\277l\274L\302\0200\300\277n\344\247\310\216\007\236?9\375\tx\253\"\215?\024]\326\327jN\224?\014T\373\314\337p\250?_\376\247u^\241\242\277w\375\200\314\270!\237?w\254\300A\212\366\250\277\026\321h\272\374\326\260?\027\347<\277\010\013\235?d\342-\256o\026\260?:\273 \316\223?\304?\026\2234-\373X\263\277\267\356\366\302]\022s\277\354luP\2241\267?\201\240\206\210:\337E\277\007\252\031\255M}\246\277$\242H\221\'\340\261\277\200\025,\342\002\245\245\277\200\010W\n\365wu\277\031\377y\027\216^\302\277\267MK\353N\331\264?\261\273\275#\334\246\223\277\272\321\274\237\211\\\234\277\211I#\177X\000\271?\244/\323b\215[\227\277\374]\354\3207\235\241?qa\216\273\2324~?\037\360Y@\002\370\226\277\326\354~\225\260C\265?\275\250\030\346\312\276\245\277*\025\266\361\016\r\243?y\033\307V\364\234\263\2775f\335i\324\242\260\277\031@\000@\023\036\277?(\374\023\251\216\034\221\277\274\023d}H;\237?\270\002B\327\016\177\251\277c\274\r0\033\016\300\277]z\265 \372\371\240\277\265BZ\232\207%\245?\306\355\227X\362|\267\277\225N,]\362\240\233\277\331\237},\225\'y?*\257\357@}*\252\277\033\025\177\206\321\341\220\277V\351\347\025=\345c\277\037{:\364\241\036\264?Xw|N\006\252\263\277{\274-\251\021\360\221?\267\351\277#\346=\257\277\346%\325Z\364Z\231\277\\\376x\033\273\266\302\277\311\214\223\342Y\005\257\277\"iY\006BY\242?\243\377\330\204\375\251\272?\355\350C\220/\236\254\277-\226\225\327\201\353\264?g\251KR\003\243\260?\310\310\343\016\035u\251\277=\216\247\270\325#\302\277\224\351M=\325\304\217\277v\233\261\324\213|\252\277\310\003RY\2521\216?\277x$\255\255\324C?\370,\016\311\024A\202\277\300\332\236\344\206\270\242\277`g[\031\255\243\254\277\030A\344\263\235L\222?P<\024F\024l\274?B\355\231\204\330\323\252?\222\245N\2033r\262?e\233\003\021\253\035\260?Z\254\346\330G1{\277\021\n\206\274\251\"u\277\022\306\026\211=\227\266\277:,+\350\n0^\277\002\233\356\227dU\260?\324\372Y\253\304S\240\277Q\225%\023\306\367\247\277\255\247\372\314%\207\272\277\332+\311.\344\320\272\277\337u\333UIB\250?\021{\001\270\234?\231\277\315\325\370\366\371)\235?\367&x\306\372\342\207\277~7O\361\027\206\257\277I\021\366RV[\276?caVE&\205x\277\032\221c]\312n\263\277\252i\024\327&\254\301?J\201\3776ar\277?\337|7+\266\262\223?F\323f\tX\235\225\277\030\037\331\000\337\237\263?\357\312\312.L5\263?\216\246m\362#\316\213?B\231\003\'\016\375\245\277F\237\n?\302-p?\336uV\312\006\206\250\277n,\210\363\204\363\226\277\256\366zU\235\256\250?\212\343=\344\363\314\263?\363\006\331,\276\363\177\277\357\277\231\026q\336\316\277\323d\177\2572,\246?\251\246\031\'\341\005\264\277\204\005\222\226e\234p\277:i\"\342\332\345\302\277\260\275\274\034\230\303o?\230\212\343\007\002\377\260\277\257\020M\306V\331\275?b\226d\2335\244\240\277\270\325i\330\224\262\265?\330\256\tj\t\005\231?\232\201\027H\360n\260\277\341\317\347`\257\t\225?\317\023v\267\031\330\231?8\273\340\234\021O\242\2771L_n\201\363\252\277b\021\275%:4h?\372\327\n\342r\237\267\277\023!\274\335\0357\271\277\223*\252\235\340\265\266\277\340\332\274[\243\366\247?\357\253\220`\016E\273\277/\014e\025\315tk?\350\250\177c\257[\270?\2661M\244\377-\254?\203\352\340\372\212\016\230?.\016\341|\003/\252\277\262\302\177N\337\223\240?\276\222\241\004\204\333\275?\316\377\271\372\263\263\302\277\te\365\342\301\275\241?.\217\366Y\212\246\274?\361X\317\252QF\217?C\'\310\007a\003\250\277j\"\367\352\340c\234?\016=\270~\320S\301?\214d\330\210(\034\300?\334\241\355\357wQ\243\277\243%\2417D\013f?\231\"\177\032\n\207\206\277\320Z\2539\271\360\250?\347{R\376\345\325s\277\r/\306E9Mx\277\244^j\034\342\373\205\277J@L\357\310U\306?\351G\316\274\260\216\303\277\314*]\315\355\330\231\277J-g\353hj\213?q\234\202\222\216[\241\277\020\277\025\034\020&\243\277?RE\256\267\263\300?\376@xAA\374\267?j\257\241il\237\265\277\375\364M4\332\223\300?\241\325\257\325\007\357\254?]\263\244\242\003\365\204?\\\035\370\312d\026\237\277\276\251\240\263\246\366\252?\357`\027]\221\323\247?\201\276\233\240\236\000\251?\266\020\361\225-\006\252?\267p(\013\030D\223\277R\247\231\371\334\314\260\277\001\374\210\325\023\007\272\277\250\037*\034\331X\223?\"\220\001W\027\351\264\277\335\275\2169\254\017\240\277\343\312\006\001\304\244\266\277p\nK20x\235\277hp\021L\362cf\2772\202\016\226\226\244\271?\2554A\'\0346\274\277N\024\024\367B&\244\277\005)\352\211\201\370\247\277P\357\361\320#x\250\277\200\3564m\374\336}\277\177\304\221\247\032\003\275?\3737\\>\334U\236\277\2576\245\305\006\232\234?^)\260\250\201\021\243?\'\034R\326\024\376\223\277@8i{I\247\211\277?\262\"\255\234\363\250?\211\240\020$\241!\226?\251\352\022\';\333\254\277\337\364\267+I\345\220\277\025%)\017\272{\255?;\337@\211\367:\226\277\371#\240\305\316\301\244?\215\343\314\304\354\276\316\277h \\b1(\251\277$*\013\004\270G\251?\237\004\266\257rW\223\277k\260U\006\310Q\224?\304\005\203[\210\355\252?\315f\000\204\372\255\261?<|l\017-!\210?\262Ut\370(\372\241\277\200,q\206\224\233\272?\253y\025Br4\273?\304\222\340\331F\225\222?\221\016\'P\343\375\274?[N*\254H\006\242?\265_xr\305\343\235?\233\333\366N\200\256\263?\030\310\223\036\313r\244\277;\254\276\210\332\257\247?\354\336\222J\353\350\212\277\003\321\177\344P\305\260?\307\021\367\373\207\333\242?\277\301\245\332\210C\226?\266\365\370%\277i\313\277\346\213C\377\231Y\216\277\360\3225[\310\\\221?C\315\021\372cB\217\277;$\242;\310l\241?\234\301\357\367\303\212H?D\003t\372\256\312\265\277+\rM\365\326!\270?\276I\322\000\te\233?\370!\322\331\025\206\226?7\312\273\375hx\265\2776\347\020x\344\357\216\277)\210\212\313\270A\263\277\376\333\221\030|\305\307\277\254\227\271v\301o\267?C[x\326\252\\v?\226M\275\364\277\031\304\277$\212\0234D_j?Zz8\027\331/\241\277ZrV\223\327Q\263\277m8\217\235\377?\204?Ia\327\376\\\371\272\277\303>?\310\264\260\202\277<.\341\345\356P\224\277 \027\255o\tq\275?\253\261\316\3231?\201\2775\363\001%\235\226\241\277\370\354?\264\375\024m?\257\326*\223\257\347\273\277/\363\303\253J^\204\277\332\327)\346\340!\265\277E\346g\n\031F\265?\300\222\312\213\3533\235\2770\261\204[j\345u\277m\321\013\245v\307\266\277j\026\231\004\330~\300\277\364{\036\270\322B\265\277\300KP7\262\261\223?\002\260\311\306?T\205\277\n%\366\372\024\302\272?\230\215T\304\207L\214\277\331\246\375\030\304j\252\277\030\302\364\347\336_\252\277\312\346\016\357\017-\263?\201O\317\032n)\230\277\233\342G\262k\337\265?N\221ac\266>\240?p^7q\236;v?\365\274D\262\342\235\310?\371I\203a\2534\262?\374\3432\206\200I\224\277\225]\365\252N\225\272?\245\213\372R.\365\240?\343to{I\033\262\277H]`>5\237\222\277\2567\352\210\037\030\201\2775L\332\337\237\330\273\277\271}>\266\366\024\230?BI$$>a\254?M`h\277\202B\210\277\t*\010\375o\375\257?\367\257d\304m\350\251?\037\352ZZc7\227?\022b\320\\\340\210\272\277)\021\226mQ\325\301\277@\316\303@4\274\250\277\343\003#\334[\242\262?\341\201@\212T\020\273?\331z\036\245\206\026\225?\001{\332\010s\377\266?\253|\034\223\320\375\220\277M\034D\321\242\\\223?\023\364\007\205\350h\240?\362\235\342\177\362\370\245\277\214^fuT\333\265?\326\220\332\355\217!\250\277\t0\224\341\021r\237\277\241>m\354\r7\241\277\022C!\306\260\020\232\277\033\232\373\326^)\251?\2146\343\274\203\335\266\277\236\237\320`\277\305\262\277\276\3336\224G\305\301\277w\"\036\261\374=\262?|lOy\222i\211\277\025\261\333bV\323\213?|\266\002?\205\275\254?B\305\277I\032@\253?g\222{>\375\342\241?\234\213\247\300\320\377\302?\232|\264\374\344\340\224\277c\217\225\364\024\322\260\277\311$\263a\364\r\221\277_\014}=\254Zo?\314\031`y\351l\261\277\207\311p\241*\220\220\277\311\006\231\265v\261\241\277\325:\231\257\371\217\244\277\226h\230\325\300\016\210\277\223\030] \375\204\247?\177\317\203\3375\241\253?G\326km\357\346\307?i\tY\033\003\t\225\277~\244o\013\255\265\226?-W \345\254\216\241?>\333\241\301y\305\220\277\200\204Iu\034\177\241?\320<\256\217_\216\244?\311\022}Lk>\247\277[\207\251\225\037_\241\277\021\316\330\355\303\'\241\277^a9\321\376\241\250\277@\027\256MnT\302?5kvU&p\243?.%\025\211)\306\201?p-\275l\236x\256?\251\300\027\230\250\260r?\252\216\233\013\030\253\307\277\241\243@\207\356\365\241\277M\020\332=\224/\263?\304\206\'\357\023\374\244?\363G\261_l[\225\277\243\3223\216\035Nu\277\307\375\234@\207_r?\r$`\353\353/\255?E\363>\202\221p\203\277\3454XRq\372\266?A\211)\360\336M\253?\327E\211\260\203\350\232\277\233\271l7&\224\216?n\2428m\201k\217\277$b\314\344mQ\253\277\277}\177\222\033\237\230?\000\314\030M.\251\305\277\010z!\023C\365\260\277\264\037b\036T\017o?O\304\'\031t>\272?\257\253\014\374\357I\211?\204\312\2171\316\265\261\277uPy\034\361\032\304?\363y\245x\223I\225?\014\r\377FK\243\255\277\234\313\022\233\202w\254\277tp(V\313\030F\277\311\004\347\345kz\306\277\355{\274\355\347n\224\277\200\354\326T|\350\265\277,\364\356\343\242.\200?\013\027\3029\370\205\274\277\205v\324\231d\314\255\277VK\250\251\270\002\220\277Zg\364\260\031\207\246?hav\010\342\215\271\2774s\341ouA\265?\326X\250o\262\026\227\277\366\006\255\255\004\371\223\277\374\275C\276\304+\250?/\321;\205\314F\257\277\004e\006\313\013f`\277\022\220.\ruZ\265\277\354\270\354t{W\207? \343\263Y\241\235\204?\355\013\347\204\336\246Y?\372\"js\363(\277\277\273\274V\222\266>\262\277\200\365\277\270\022\222\227\277\350\305\243\324\321\306\253?n\376\027\274\317A\304\277\204\300\034\203P\024\262?<\003v\367\017\215\263\277\036\'\014\201\257\234\246\277L\271\206H\226\375\237?\tye\217\265\267\216?\307\r\227|E\337\234?\003\360\226\013\263\257\272\277\302\345F\254\331\375\244?\271\311\262\312[\213\277?\231d\275L.\337\224?\025\221\334/\241\212`?\334]\225\215\014t\252?0@\314\343\376\224\221\277Sb\356h%\256t?$\t:\034\324\212\261\277\300\245\020\361\233V\237\277\337q\202Q=f\251\277W\\4n\371\t\202?\244\222KW\372\003`\277\004\320X9\220Z\240\277\036u\243~\020\246\254\277\n\010\330\264\031\352\233\277\032P\334\327N\246\245\277H\303-\241O\355\261\277\321\323NV$H\262?7f\327\330\361E\265?\276\261\026\326\212\251\262?00=\311\001(\232\277\307\350c\n<\316\245\277\320\220N\333q\355y?\275\365\276.\nb\236\277\337c\014)\032\235\245?)\214ke\271\321\263\277#n\n\255,\250\234?4\003Qj\303\357\275\277GA]j\026\032a\277\267\272\226\212\021#\243?4\262\03779\264\247?+HB\342\264\314\335\276k\343,\r\303\321\270?\300Wk\016XX\222\277Zc?v\220^\237?\n\312\266Sz\247\244?\247\372G\213y]\270\2775s\336\264[\'\271?$Q\352\026D\215\271?\361\206}\250[q\243?\272\223fl\023w\236?/\'\035\236\214$\207\277\211\005\263\037\377G\220\277\353\233\353!#\226\264?\344\331]1\257r\261?v\214U\266_\363\241\277\010\303)uc]\242\277\374\215\300\210n\024\222\277-\024G\243V\217\272?1\237\033\346p\037\307?\302\2716\2434\373\263?\255<\025\243\3171\234?N\370;\244\'\205~?H\274V\241\221\274\270\277\241\021\276\201\206\320\243?*Z\376\234\010U\241\277\240e\314\237|\277\277\277A\264\364^\233\351\177\277\'v\252\222\361\003\253?\ti:\334\001\352\225\277\010\275\025\377\022:\305?\037=Q\'\020\027\244?\222\021\235\303z\274\263?g\230\227qs\376{?\334?\351\314\304\322\231\277\265\001\350hV\266\251\2778=q1\005j\241\277\021KN\244g\214\253\277\035\366y\213\210\210\221?\346-\315n\3258|\277\240\260\347\240\343\354\233?\027`ki\264\241\265\277\361\023\273(\220\215\242?.=v\237r\243\230?\177\300$~F\312\212\277_(#\243\037\212\237?\224\260\007\214\2270\231?*\217\002+\253\257\226?\350H\205c\216\325\252??Q\325\261v4\270?\251A\230`u\272\340?\206\2607\277wS\230\277\344\311\366A\217\241\273\277\353P\023f*\377\245\277\274\207\355j\270\263\241\277GSd\367\033\027\261?\310\227~\r\212\200\247?\203Q5\375\024\254\250\277\354K+&\016\016\226?\246\375M#AF\250\277awrl\270\r\224\277\"\264\344a\370`\243?%\236\177\227\036\242\266\277\201\255\177\316;K\226\277R\203\360\235\016\325\301\277\231O\016\013\324\245V\277\253$\364r,\321\301?:Rk\t\361\267\270\277\204j(\237\205\351v?}\177%[6\302\224?\334I\000%\370S\252?\267B\237\217\200\333\244\277\3567\033\212\267\213\245?\252\nI`f1\256?\353\352\323K8\242\251\277\211\365\202o\344\247\241\277\323\244\246\243\2642\251\277o\375=\350\2232o\277\275xfM&\270\222\277\264!\265\342\313\233\247\277\220\350\312M\217\030\243\277b=a\366\276\013\214\277\007\360\334\rcA\240?d\022[\342\217zr?\377V<\255\006\224\247\277X\301X\262n\376\220\277\346\005CV\013\373\232\277\230\004\254C=\033\230?z\270\027S>\'\251?\326\365\353\214b\217\255\277\025L\304,\332m\242?\277\007$\"\261_\262?5T\261\335\335\377\275\277\007\375L\275\234\302\272\277\256\243\337\243\213\330\254?Pn\370\325\002\276\242\277\327\315AI\366g\261\277fy)\201T\211\251?]6\037\214\220:\203?.\020\225\037\214\222\266?\032\035\321\222\036 \253?(Ml\346\334@\255\277x\350\200\305\034\364\265\277\260\2026N\\\237\251\277]\302Y~\274\301\307?\203\301,9 /N?iN(\230\037zv\277Q\177\0020\343@\213\277d3\356\330\254\301\266\277o\376\324\025\337;\260?8\332\2631/\313\267?\253k\320\323\362\356\227?H\t\245\235\020\010\250\277\256\310\351/\216\261\254\277Jn\221\037\000_\242\277\325ek\256\311\003\300?\321k2]\227,\206\277\300\217\236\363\300\272\266\277\007\034\371\244#\323\202\277\251\250$\006\217\313X\277\225\007\257\336\025d\234\277\026y}\303\303|\300\277\225\340I\013\276\236|\277\246q\242}\240v\235\277\207jt\265\210\327\265?\253\311\305Xr&\240\277\243\003k\360K\353\247\277Y\355j\273\313\336\242\277\000~\245\014\r\307\244?\377\002k\302f\226\243?p\205\354\307\366S\267\277\234\225\242=j\350\266\277\031\273\241\205Y\256\234?\037\350\020\317\033\\\243\277\220\262\025<\271\211\255?o;M\230\271&\207\277\300\345\203G@\022s?5\021\024\010\364\214\254?\306\177\252p\270\310\256\277\225i\353\237\341Z\275\277\313\276\271\250\177\302\277?\326*ie\3727\303?\010n\215\307\035\232\237?k\2426C5!\223?[\372\363\030&\016\266\277\314\\\210/o\300\256\277L\320\030\214\314\243\256?m\0160\231!\245\233\277E\002\\b+\217\241?\303I\213\237qu\241\277i\034\331\320\215^\304\277\304\337\320\305\370@c\277\202\347)\361>\331\255\277)X\200\217\251>\244?\346\3363\231\t\200\253?251\362`X\237?qr\370b\376\325\226\277\026\225P)\244\313\261?\375\321,\321Y\337\261\277w\374d{ra\231?3\225A\254g\227\301\277f\324#\200\304\321\302?}\001Ef\031\013\235?\326\260\364d]\023\301\277\252\273kh\265\335\267\277\013\342\272Kv\357a?S\023\216\353u\222\220?\317\212h\n\306\227}?=h\205b\316\212\207?9\275C\t\245;\257\277\332]q\235\372\365\223\277\225\221\366\033H%\311?\0213r\007\016\202\226\277\243Fg\034>I\236?N\267\232\0304}\245\277_\336J\332g`\261?\346\256\346\257\022}\201\277f \n\217R\265\266\277\340\006\\v,B\243?B,\225Sd\322\301?x\226\0101\263e\211?8~\353\330M%\242?\005W\023\273\336\030\220\277\335\2348s\275\252\177\277\262\210\201^\213\256\257\277\305\256\203\214\205P\251?R\002b\203<\203\273\277\267\017n!\035\261\221\277\303\332R\240\246\237\302?\2319!\177\324y\260?k\310\t:\257g\307?pV2t\333\306\270?ez\300K\017y\270?"
      }
    }
  }
}
node {
  name: "normalize_element/component_5"
  op: "Const"
  device: "/device:CPU:0"
  attr {
    key: "_output_shapes"
    value {
      list {
        shape {
          dim {
            size: 749
          }
        }
      }
    }
  }
  attr {
    key: "dtype"
    value {
      type: DT_DOUBLE
    }
  }
  attr {
    key: "value"
    value {
      tensor {
        dtype: DT_DOUBLE
        tensor_shape {
          dim {
            size: 749
          }
        }
