node {
  name: "global_step/Initializer/zeros"
  op: "Const"
  attr {
    key: "_class"
    value {
      list {
        s: "loc:@global_step"
      }
    }
  }
  attr {
    key: "_output_shapes"
    value {
      list {
        shape {
        }
      }
    }
  }
  attr {
    key: "dtype"
    value {
      type: DT_INT64
    }
  }
  attr {
    key: "value"
    value {
      tensor {
        dtype: DT_INT64
        tensor_shape {
        }
        int64_val: 0
      }
    }
  }
}
node {
  name: "global_step"
  op: "VarHandleOp"
  attr {
    key: "_class"
    value {
      list {
        s: "loc:@global_step"
      }
    }
  }
  attr {
    key: "_output_shapes"
    value {
      list {
        shape {
        }
      }
    }
  }
  attr {
    key: "allowed_devices"
    value {
      list {
      }
    }
  }
  attr {
    key: "container"
    value {
      s: ""
    }
  }
  attr {
    key: "dtype"
    value {
      type: DT_INT64
    }
  }
  attr {
    key: "shape"
    value {
      shape {
      }
    }
  }
  attr {
    key: "shared_name"
    value {
      s: "global_step"
    }
  }
}
node {
  name: "global_step/IsInitialized/VarIsInitializedOp"
  op: "VarIsInitializedOp"
  input: "global_step"
  attr {
    key: "_output_shapes"
    value {
      list {
        shape {
        }
      }
    }
  }
}
node {
  name: "global_step/Assign"
  op: "AssignVariableOp"
  input: "global_step"
  input: "global_step/Initializer/zeros"
  attr {
    key: "dtype"
    value {
      type: DT_INT64
    }
  }
}
node {
  name: "global_step/Read/ReadVariableOp"
  op: "ReadVariableOp"
  input: "global_step"
  attr {
    key: "_output_shapes"
    value {
      list {
        shape {
        }
      }
    }
  }
  attr {
    key: "dtype"
    value {
      type: DT_INT64
    }
  }
}
node {
  name: "global_step/VarIsInitializedOp"
  op: "VarIsInitializedOp"
  input: "global_step"
  attr {
    key: "_output_shapes"
    value {
      list {
        shape {
        }
      }
    }
  }
}
node {
  name: "global_step/cond"
  op: "If"
  input: "global_step/VarIsInitializedOp"
  input: "global_step"
  input: "global_step/Initializer/zeros"
  attr {
    key: "Tcond"
    value {
      type: DT_BOOL
    }
  }
  attr {
    key: "Tin"
    value {
      list {
        type: DT_RESOURCE
        type: DT_INT64
      }
    }
  }
  attr {
    key: "Tout"
    value {
      list {
        type: DT_INT64
      }
    }
  }
  attr {
    key: "_lower_using_switch_merge"
    value {
      b: true
    }
  }
  attr {
    key: "_output_shapes"
    value {
      list {
        shape {
        }
      }
    }
  }
  attr {
    key: "_read_only_resource_inputs"
    value {
      list {
        i: 1
      }
    }
  }
  attr {
    key: "else_branch"
    value {
      func {
        name: "global_step_cond_false_16265"
      }
    }
  }
  attr {
    key: "output_shapes"
    value {
      list {
        shape {
        }
      }
    }
  }
  attr {
    key: "then_branch"
    value {
      func {
        name: "global_step_cond_true_16264"
      }
    }
  }
}
node {
  name: "global_step/cond/Identity"
  op: "Identity"
  input: "global_step/cond"
  attr {
    key: "T"
    value {
      type: DT_INT64
    }
  }
  attr {
    key: "_output_shapes"
    value {
      list {
        shape {
        }
      }
    }
  }
}
node {
  name: "global_step/add/y"
  op: "Const"
  attr {
    key: "_output_shapes"
    value {
      list {
        shape {
        }
      }
    }
  }
  attr {
    key: "dtype"
    value {
      type: DT_INT64
    }
  }
  attr {
    key: "value"
    value {
      tensor {
        dtype: DT_INT64
        tensor_shape {
        }
        int64_val: 0
      }
    }
  }
}
node {
  name: "global_step/add"
  op: "AddV2"
  input: "global_step/cond/Identity"
  input: "global_step/add/y"
  attr {
    key: "T"
    value {
      type: DT_INT64
    }
  }
  attr {
    key: "_output_shapes"
    value {
      list {
        shape {
        }
      }
    }
  }
}
node {
  name: "normalize_element/component_0"
  op: "Const"
  device: "/device:CPU:0"
  attr {
    key: "_output_shapes"
    value {
      list {
        shape {
          dim {
            size: 749
          }
        }
      }
    }
  }
  attr {
    key: "dtype"
    value {
      type: DT_DOUBLE
    }
  }
  attr {
    key: "value"
    value {
      tensor {
        dtype: DT_DOUBLE
        tensor_shape {
          dim {
            size: 749
          }
        }
        tensor_content: "\323\275V\003\275\024\003@\237;F\252\r\211\021\300\213\201\2778bq\360\277\341\"=#(\272\005\300\016\333\034\23351\033@m\032F\337\277\356\013\300\254\325\2045\306\311\357?\017\224g%OM\030@:\315~\267\253i\031@\335#n\376\315\360\037@\177W \361s\030\022\300\331/\352K\374m\017\300-\346os&\346\020\300\r\220\310c\341{!@E\364\214\354\353.\020\300o\327\250d\031l\356?O.\026.\321n\313\277\270\273\005\266\026\026\023\300X\037\032\222\202\236\366?\177\ru\271\342\177\300\277\316\275 \276\036\313\314?\337\022\317\234\251,\r\300\025v\035\344\362\312\024\300\331\315\306\310\207$\003\300\232(\311\247p:\014\300\356Y\334\200Un\020\300\230\020\316\323\235\324\026\300\311s^\274\350\207\023\300i\021\310\214\353\231\021\300\333\361\331_D4\004\300\230#Dc9\302\374\277r\312]l#`\021\300V\323\261\343\323\017\020\300\3740\227Z\026\375\r\300\372ZLT\017_\016\300*v\272\006\030\266\001\300\317\226u\375\234\347\n\300n\n\224\3110)\005\300\227\203\373\246*Q\006\300\265\350,o0[\031@\377\353f\014\013\023\020\300.s\310\\[K\321?\357\351fe\033\177\003\300\367\270\035\247\024\325\030\300K\345\335\362\202\001\333?C\373\211\263\2609\003@\376w\272\217\257\032\020\300\207\257\014\220\364\234\002@\376\351\242\263\373\331\023\300\210\027\211\025\314\030\016\300&S\033\000\213l\016\300\360P\336\021 \232\035\300\223\003\345\200\331Z @!\314f4*\250\256\277j\255\227\010\315\322G\277\010\210e\240\316\357\032@:\246m5\276]\035@\2138\377\277\267a\002@\230\026\262N\270\346\262?e\205\272<\352\237\n\300h\030<Y(r\031@\350\005\243\255\014\016\016\300b\334z\031|\260\023\300\204\310\303\233\312\360\005@\317\214a\275\302\267\363\277\370\330\343\0213\357\n\300\365\210\303km\035\363\277.\272!w\366\341\305?!M\277G)\222\014\300(\224\233\033\306I\032@&\340c\202\006P\020\300\004S\366\272x3\007\300\306\233\357k\374\265\016\300e\301\237h\263%\007\300?)A8\311\317\030@\'\211hK\275\237\037\300\343\340\211_x\347\362\277 q+\310\326l\021\300 d\254x\003\006\367\277\365\355\312|d\313\030@L\201\tk\254\313\027\300vp R\026\313\346\277\033\275\277KZ\211\020\300(L\330\304j\027\274?\222?4Zy\020\013\300\3510)\375\215M\343\277\224wym\327\331\t@\332\210NG3\277\031@\200\3731}W*\021\300\321\223\226pi\275\021\300\032\251\215\220=\304\363?\'\n\230\277\363\244\021\30035\365aTM\032@ \232\266:\310\206\035@\351z\372\230\252\241\036@\251QO`\031z\r\300\262CsF\327\356\027@j\326\321(\337N\003\300\333!\203\222\021\"\014\300\205\260\204\355p\020\307?\351\251(\205\242\313\036@\222B\242|\2501\320?,)\264\250\276\021\377\277\247\025\244+K.\005@\035\225\344u\270\305\016\300.,\026\226\224w\016\300-6g\2200V\021\300t\356\360\250\363\'\335?\204\240Z\367\301\231\034@zn\226\317F\241\003@?Bm\244\351i\232\277\325\2455~a\303\007@N\302\014\370\373D\021\300\307`\231G3\200\r\300#j\270\300\223?\021\300\265\333\026\335g\355\020\300\226\366{L\033\023\030@\377\302\202\206\260\345\017\300&\326\t&\025\220\320?\274b\336\003\232\\\014\300\351\232\240\231\337\030\034@\231^\306,\245\014\366\277\262\2431\232\345\207\002\300\211.\367\335\260j\360\277*\320h\241\215\200\007@\270\232\023xH|\016\300\373\266\227@I\257\020\300I+\ndG\177\020\300\274\206u\276c\000\036@N\3155\227\217\374\035\300\031(s\267\275\016\036@\260\223hs3\250\315\277{\263\263\225\240\240\002@\371\227\002\202\223G\265?)V\301\220\'\300\032@f\362n\036\203\312\017\300\236?-\340\307\237\014\300VT\226\361\022\023\340?[\275\330{o\220\007\300\352\'\'3\027\202\027@\001\262\360\312<\\\006\300\033w\005\023\001\323\022\300\341\201\200`Y\246\242?\304\270*(\272y\020\300\226\nu\2043\037\337?\t!\316\252\212\351\020\300\006A\344\",\302\024\300\375\215\\\206\251\005\023@\234\001\301\320#Q\014\300l\203\357\215\240\355\326?#]z\026\345q\021\300\226u\244\273\010\272\014\300\211\370#a\350[\337\277\222`Gm\307\231\r\300\306\203\t\\?\210\237?\352\2307\266q_\336\277\tR\177\253>\030\026@&\261;\246\373\277\357\277\373\325@\205\300W\340\277Iejo\236\212\001\300\016\030\254\376.3\352\277*ZU\337-\370\006\300\331\242_\300V\344\023\300\010\245A)\002L\021\300tcO92,\023\300^5n\227\310\335\370\277\023-}\353\014c\034\300\262\350U\303B?\331?F{cG\271u\013\300\222\254-\245\336T\372\277\2347\253\002^\341\002@\027`\361s\237C\324?\311\211\231\032\364?\344?$Q\377\1771\326\377\277\220c\243\264Yb\002\300:\247qo\203\221\021\300\274\263n\327\352\261\374\277\217\020\356\'\005\r\027\300ER5\257\201R\033@\214\332\r\353W\021\017\300+9{/\333l\035@a\314f}\036=\360\277\371\007]G\330\316\t@\355\347}\021\346\264\343?\214\245\227\211d\352\033@\203c\267\202/\036\023\300\322\202\"Z\2319\021\300\317\303\222\322\311 \265\277\201\262Z\212\300\265\006@^^\273\215\271\242\027@\323\221\263A\335\335\322?\037\206\2027\217\362\n@\312\324rA\305\323\312?\201\036\373\343\203\274\361?R]{\027\\T\023\300\305x\330\312\326E\353\277C\305\222\307H\267\002\300\303L\207\236\332\241\031@\274=\232\277u)\033@z5}Q\333\361\030@\276\r\0067*\205\356\277#\361R\337\220/\026\300\247\242J\010-\376\001@O\361NK\361\006\357?@\306F\377\326O\323?\005\211\366\355w@\020\300\027\234\205YU\342\357?t\232\230\304&\017\363\277\264\026\223\227\\\336\370?\365t\361\257\2440\026@\326\217\313q\227o\317?~\263\310\026M6\n@\302\356\033\025\017\216\014\300\310\0070\275\204n\023\300s\370\241\324\244L\024\300\223\300\257<\230\241\000\300o\3636]\020V\027@j\344\007NF\366\353?^\366/\000\021*\001\300-h\257\271\2369\023\300\006\n\340\305\355\002\031@\262\340ss\002\315\365?zjq\370\017~\031@r\343\026/\214[\367\2778\311\rY\266\224\034@\254\033\371\254\320\216\005@\031.S\033\212\033\034@\222=\207\377\250\347\332\277\377[\342\361\3420\017\3006\333-H\211\216\037@-\253j\337f\250\373?J\205_3\300\035\363?t\222C\361\266\316\022\300B$Z+\2103\002@\314\236]F\277\231\021\300\264;\201\002R\302\344?_\021\274\002\255\035\016\300\357<\257\304\321\021\033@\316\332\033\354~\343\037@\242\340n\025\335\367\332?\350F\n\"\216\335\006\300E\236}\2312\221\350?\021\254\227\213#6\000\300\023\300\257\256\344`\024\300h\346\227\276e \002\300%\244\331?Y\362\t\300t{A\360\303\025\024\300eb\351|M\022\365\277\234B^\376\022\211\023\300\002h\325<\377\235\374?\356l\370\003S\312\032@y$\026\221)\365\027@f9\373\377PR\342?\023\257I?\234V\365?\303\017/\205\351\231\024\3006\034\316\344\211\222\000\300\211bp\234\232\357\003\300\321\312\266#\244\330\036@\365q@\246r\352\024\300\0244\013\274\233\201\376\2771Ae3x\002\024\300\302\210f\3605D\005@\010\021\"\330\215E\010@k\273\316\r\223\350\327?;\355\0009(&\000\300\372?\310x4\251\363?\234Axx1y\243\277\272\362RG\233\236\225?\355\265\213\225\345\303\361?6\323B\326\335G\002@\2505\002\314k\305\343\277.\215:\033\222=\372\277(+\364e\211\254\006\300Q\n\232\031\360\007\030@5B\033$\220/\032@\341U5o-\007\016@\201Gh\270b\272\030\300\220\031~\222h\221\341\277\311\037\276\227\nE\020\300v\031\330\314\262\232\377\277\276\371\344|0\266\205\277\361\205jK\004\013\032@3\266M\025\026\265\021\300\337\001\177|\270}\014\300\010\323\036\205;\212\005@BR\311\3263\340\376\277\245\244\251\256\001h\261\277\303.2\245\260\205\013\300\3169q\351q\204\017\300\335\314\202\263\001\325\377\277\351N\207\025\223\036\375?D\225\242\356\354\251\031@-\034\375\2541I\374\277\270E3>\300\000\022\300Z\250\264\262\257\340\356?R(\006\244L\313\022\300\302\326j\222\276\251\304?$/I\364\257\201\372\277\0378\003\203\350\203\030@6\364\353\254\313\361\022\300\211\347=\350\300y\364?\241\'\250\024\310X\251?^|G\331\273m\334?\001\345\231C\320\215\005@\244\235\326v\376\210\006\300\200\247\037S+\302\371\277{\026\302\205\207L\013\300\242?\310/JV\371\277\263\360\217\361!\013\014\300{F\211\215^\016\025\3006)*\331\033?\031@Y\005:\325\271s\031@e\264\260\027i\315\034@#\314\037\023\346\234\037@\340\254/lp\270\031@\246\315\361n\2147\005\300\326\334\204\376\376\240\026\300e\364\303\277J@\344\277=\262=\311&\260\020\300q\320\320E\036,\377\277\025l_\333\211r\366\277\201W\2072\007\241\031@!X6\214^\207\000@,\225\263Fn\276\021\300k\262Q\2355\204\031@b\026SN\304c\312?|\024\341Pg\312\004@\320\216\200\377\003Z\304\277*\001\262HJb\005\300E\005\016Q\347\027\002\300\201+\253\010\226\272\021@\310\233\004\302\306\024\030@\231\013v)\252\247\020\300\312\0260O[\367\020\300en .\335:\023\300v\220\037:+!\351\277\252\312\212P\201\244\325\277\251\tX\r[j\005@\304\213\273\377\336c\003@\240\243f\177\225M\361\277\2633\345~W\256\n\300O?gB\272\243\023\300\033\r$\032\001\020\021\300\005\236\253\0334*\027\300e\330\354%\216G\323?\"!.R\nC\354\277\231\316\307\026\023\260\316?\325\216\241\254r+\t@=R\035\317\347>\033@m<\375\311:-\010\300\316\247$\2300\253\311\277|\"\272~[\375\373\277\337\007\023\366j`\025@\341\332`{\220]\030@L\245\315\251\023\016\256?\201\004)\317\373U\020\300hPf\344\202\377\007\300R}%\020z\363\361\277\377x\263\262\372\006\357\277fb\352(%\205\006@\217\365\332\231\262\364 \300\345n\370\3377\301\027@<\256\322>\2329\r\300\313\321O@\216\215\033@\031\231Q\227\226\366\005\300$\215\262\272,\325\344?\246W\262\034\320*\351?Z\230\215\252\232\321\001\300\316\323\t\340\335\265\370\277\220:&\276\301(~?c;0\244 \363\n@+\357\346\265\001\234\007\300\001\212R\277\024[\r\300\304L\\\3632\322\034@\246\223\232C\356\215\305?\357dY <%\312?\023\314\313@\227\247\370\277`\3271\272m\220\020\300*q\370`\017H\r\300\336x]\032\025\347\000\300\332^\362\r#9\030\300\262w\201G\361R\376\277\"\024\017^V\245\013@\247k$\t\302s\264\277\246~\277\250&\302\312\277[\202\374-\212`\344\277\026\202\024\031\330\'\014\3000\217\236\261\334D\017\300j\023\370l\370\337\016\300C\325eT\033\260\031@\235\235u\264\346{\017@p\335\252\324\220\364\017\300=\362\216\ti\267\t\300\033{\007\215d\270\021\300\030\320^\262\306\352\377\277\237\305,\'\034\265\035@\251\272[\024N\'\362\277\0219\364\016\203\030\031@\201%\332~\363#\003@D%P\366l\256\010@\351\037\3646\020\216\305?\250\014LZ\257V\r\300\232g\327\307\221Q\367?Y\177\021\001\2038\027@:\207(\364\005\306\006\300\022\344Z@\372f\334\2774\t\207\325<s\005@\272\034\315P\241;\031@\302\266{o\236\370\257\277\344\266\243n\352\223\010@\254\nk\351\016\315\331?\316a\207d3\307\000@\356\344\250\230G\034\032\300\315\301\242\036W\365\006\300\004\027<l\001h\030@D\207%\347\013i\367\277\'xM\200k<\031@\312}{8Y&\374?\025\027\372\274!v\363\277\251\277IY\226i\003\300\255\3156\310\201W\027@\301\010z\211g\337\006@\265\270\332\010\254\352\027@\276\227\033\357\300=\362\277\343\2656A\232j\026@\356\366AV\275\210\014\300\307\020\362\301\031\250!@_\225:\215\222N\033@\257\214)cU5\362\277\235\3033>\032,\027@\025\252\336L\221W\023\300\036u\315\007E\331\026\300\344\316W\205\001\007\033@|\376\027\301i\336\002@Z\311\351\362\315A\372?&\037yP|+\211\277#\362\236\305e\215\r\300\364\223P$\371\222\221\277\273;`\014\224 \352?\370\224\215\007\356\351\032@\'\"a\025\007/\026\300)\303\003\264\346\277\013\300/\032\346\311%\317\026@\231\235xr\370\223\033@\357\372,(0\267\017\300z\344\354\036\255-\007\3007@\206M\022l\033@d\232\010\017\372;\010@.Zz\021.[\001\300m>8r\273\250\017\300lV\313)\006\"\375\277m\322\330\273\034\\\346?\242\233^\215\026A\000@\304\230\206\'\204P\024\300\370\203\366\227?\312\302?\273\206qw>n\030@Q1\366\0216\003\323?\014\'~\372\3065\000\300Ro\344!\251L\000@\221\365\324\2272\317\025@@S\251N9\\L?\376F\273\2516(#@\206\")R\037\245\004\300\300\310\344u\320\211\030@J\004\222\370x5\n@I\317\021X\307=\335?\032e\211\002\331,\032@\\\310-=#\307\013@c\210s\204\tZ\037@\205P\236\005\274:\022\300 \200\351%\352H\024\300\001\337\035\3378\322\004\300\253O\305\264\013h\020\300\273\225\207\376i=\356?\027Hd\265\253]\020\300oc\232\240\274\231\030\300gr~\362/F\313?\366\347\230\016\345\303\341?\242\331\261\271h\270!@\250\362\035\024\304s\020\300\213\tcy\372\337\010\300\n,\034\"P\005\350?Y\237\343%rn\016\300\300A\372#\330@\000@\371!O\333\301\223\014\300\007\000\033\355\025\266\021\300P;\305<O\260\365\277\262x+2 \307\363?\321F~i3\317\373\277\342\253\360<\237\264\004@y\375\032\000BG\n@\262qV\246\203\205\021\300\334B\022\232r\346\024\300\364E \014\034E\320?\010\214\340\334m\344\020\300\265g\231\202\376\356\017\300)\257{\311\352\031\363\277\276\277qF%\241\001\300\r\352\224L\346\334\026@j\206\216\331sv @\263\036F\257\357\265\001\300\227I\363E\023\'\363?\351\030&\032k\273\030@\017U\345ez.\352?4Tu\035\345.\032@\332\260\357!\242\246\004\300\367\t\224q\373b\r\300<P\210\303\212+\373?\320\022^9\262\354\033@\342\371\361v\327\'\306\277\270E\000\244<\365\034@25\274\377\361\205\022\300*\355\344\321\345\245\021\300\261\347\346\271@\237\371\277\3330|\350wD\030@O\'\243\226\004\250\022\300\252\246$Vu&\363\277S\337b\016P\304\353\277\351\243@P\010~\027@z0\341\256[\003\030\300b09\245(c\001\300\033\021\255`~\336\000@\346\n\370\351(\354\023\300\0037\001d\\\234\021\300L\324~)\217M!@x\300\233jM\006\006\3007z\367 ]\273\367?z\"\307\366\315a\366?\013\223\372\3400\312\031@=;TE9X\017\300\227\243\366\0162/\010\300\266M\024G\227\223\311?\331X\376z_(\370\277\231\352\235\313\246-\004\3003Z\217\024\257\373q\277y\314\345\330\022\374\013@\3423Y\235uz\030@\2728\201\366\333P\007@\007\255\240\n\253\204\021\300^ \334^\226\031\307?pdc>K\344\000\300\035\037P\212\257\334\020\300\247\210\341h\277\344\017\300&{\353\nK\310\026@\2502\353V\245\212\024\300\344\010X\203\014\370\025@\203\202\227\263A/\350?K\215y\320\240\265\273?\310\016>G\027I\016\300V\352\223\351\3269\034@\355a\313(\307Z\357?\357\206\305\211\267\321\004@D\266\265\333\371X\372\277R\033\346b\3367\002\300\233_\243q\232\243\033@I]\004=:\251\373\277n\247\266sl\014\300\277Fb\362\220\010\273\362?Y\256\016\212I\364\001@\232\304$\211\026\360\003\300\203s\033G\030&\373?\365\254\337\332\304\371\037@DU \274\273\256\034@g\323\224\331UO\003\300d\243D\230I\357\021\300\340\t\017&\273\377\003\300\036\307a:\217<\317?4\361T\006\377\353\031@OV\037\227\244\023\017\300Z\277Nn(\342\005@\276{\013d\310_\344?J\336\226`\340\033\020\300~\022l\002\371S\016\300\003\212\226\255\205\234\r\300T\263\340\177\032\325\026\300\252i\0137N\255\354\277\322\370=\245R\322\014@;q\200^\326\311\003\300\356\235q$\331\021\034@\203h\350Sb,\014@\205\307\214\342\353Z\021\300\242O?\3401\275\021\300\336\212FT\270\345\024@\n\316\017I\343(\304?\0317jg\210\007\023\300\206\2226\330>%\006@,\370\214\200v,\004@\215\233\347\255\260Y\021\300\\\315\340\371\"\312\013@L\367\250#\2033\021\300]\371\266\003\277\220\361\2772\316\346\360\200h\351?\3364\252dU\333\006@(\236\245\342\243\236\t\300o_\250\230\363\017\321\277\231\021\310\032Nu\r\300\270\264\350\227\273@\253\277@\275\t\357\216\025\034@0F\237\340\216a\375\277\200mk\254\334\204\021\300\360&\030\346\233@\t\300\3557(p\\8\000\300\t\212\n\206A4\007\300|;\230\257C\\\020\300\r\222}\331#\234\014\300\016J\226Qo\270\361\277\325\262D\t\3448\030@\300\016:g\001g\340\277*\220\214\275\3417\025@\261\256\244Pq\025\003\300\334_\364\267U\315\210\277\000\221Ww\004l\014\300b{h\225o\277\351?\211\251V+=6\354\277\37182x\370y\017\300\266\323\256\226\177Q\026@\211\312%\301\305T\020\300\334\034\006\254g&\363\277\343\241\211\3362\222\n\300\355\363\2375\210\362\r\300>\260\376\330\226\330\366\277\0142\331\351\034S\033@\004\r\211\254\372\010\024@i\266\340F\204\336\026@\325\246J\220\330\302\032@/\327\300\306M\337\020\3009`\333\303\344\316\022\300\217*!r\030o\331\2773FyjX\341\004@Q;$\353\344\245\363\277\355=\215\346\017\312\275?3\312\0049\345z\033@;\200YGk\212\007@\010&\255\330\214\264\334\277V*\340us\336\342\277\276\332*\213\2679\351\277\343\261\203h\030\014\021\300Jl\316\231\214N\327\277su\'`)\237\027@fs\253L\260\016\033@Dx\030;\037i\357\277\262I-\207\tf\364\277H2\003%\211c\033\300\270\343\203q\001\201\004\300\0311\370r\316\370\022\300\304\335\376\306\327\326\031@\3679\\O\271\350\323\277[V\336\213>\347\021\300\n\0160\306\021\230 @\334=\307\363\244\376\371\277\001\362JF\365\202\022\300\245\3754\024g\261\030@\265\3508|~\'\360\277\347\263\253~L\017\026\300\267{eu \340\037@\231\237u\"\'\224\002@\357M\242\211[+\352\277\233\345\305{\270\276\340\277\217st\310\037\010\260?\260E<\320\341\252\020\300L7$\334\224\004\005@\265\026\371)\002\221\277?\313\020\360\247[\353\343?\331j\2552\317\254\316?\"%.\332\373\362\034@\374#\310\314\244\272\003@v\3027\022\277o\010@\245\037q$\306h\024\3003\273bM\305\347\357\277C\217\227jt\323\310?7\005\r\300\363\346\020\300v\224\250I\362D\005@~\265\362\014\350T\026\300z\3200tU\027\022\300\367\007q\376\006n\374?IL\231)\371G\360\277\302\nM\315\356\357\371\277\310\352vAz\316\371\277\331T\260\267\017\211\r@\214\320\016\346\222\013\004@\206\005\362\223\244\207\377?\354\367\316S\021>\031@U\377\340F\243 \n\300\350\254*r\260\242\020\300\002\273hJQZ\017\300\230\353M\344\257\335\021\300S\377\361\327E\020\340?t#\373{\2366\363\277\203\000={\373\367\004@\360\000\001T\016\177\321\2774Ia]+\352\033@Xg\223\360\272(\032@9\226\200Z\244<\007@&\336c\240e6\007\300\2634\222]pH\340?\255kwm\r$\005\300\0132?E\355F\372\277\335\340%~\360\271\340?w\265%/H\364\030@(\\m\367\340\277\361\277\320\211]\201}\264!@\355\326\200\234\340G\020\300w~p.\200\267\352\277\323,\242\312\020\370\260?\032\205M+|^\031@\025b\217\214\272\215\351\277\\\256\325QT]\363\2779\341h\365\325$\326\277U\270\213=\354\227\300?:\360\3547w4\034@\3718KPoE\031@\254\344\266\240\307\264\327\277\247\321\357\2430\027\022\300\332\315\266\325\022h\362\277\226\230T\t\025\365\010@\224\031\274\331\\\304\026\300s\227Jr\230\375\021\300\205\303Lu+l\377?\226\336\257\"\355\341\373?\303\201\340\227\031\213\005\300\363\360\275\221\376\030\002@\277\224\242P\234\036\005\300g\271\003du\242\030\300\223\270\254\230KS\373\277\211\365\332jT\226\027@\302B[\037NW\346\277\000=V\234\3021\031@9u\221\"`9\n\300\024M$wK\306\031@\247\013\236\276\322\361p\277\23035\227(P\230\277\237\356\370\013\362\256\020\300\223v\356e\310\027\033@\257>\331\365k\"\302\277E\247\033eK\320\360?\027\005\023\005\311(\025@\371\362 @\302,\r\300\311\362\260\201\005\227 @\227\253M\035\202}\021\3006\225\305JM\221\030@\374\212\350b\272\231\014\300\341\203Dz\247\257\025@Yi3\363\362\264\035@\240\210\216\360Ha\034@X\203\332\177x\000\000\300\\C\2062\333\270\367\277\332P\304\031\326\345\000@1)\205\2150(\023\300\353\265\304\rW\002\365\277"
      }
    }
  }
}
node {
  name: "normalize_element/component_1"
  op: "Const"
  device: "/device:CPU:0"
  attr {
    key: "_output_shapes"
    value {
      list {
        shape {
          dim {
            size: 749
          }
        }
      }
    }
  }
  attr {
    key: "dtype"
    value {
      type: DT_DOUBLE
    }
  }
  attr {
    key: "value"
    value {
      tensor {
        dtype: DT_DOUBLE
        tensor_shape {
          dim {
            size: 749
          }
        }
        tensor_content: "_\326i\254\234\013\030@\322&^\202\265\371\002@\237TA\364\257\037\000\300\273\035D\371\351\245\004\300\"9]\376\344>\351\277\272i\034\374\260\032\013@\301\222\353\240\r\331\t\300\r\rC\312\204\223\345?T0\003\203\210\315\315?]\320\244\222\007\251\343?\2001G\246,\216\002@g\376\265\222\003\205\006@c\267cUG\331\357?\323\315\324Qb\245\361\277Z\016Jx\257\030\006@\230\333n\366*\365\022\300\221v\351\264\321\350\017@\021\327\211\035\005Q\003@o\016\226\255\216\332\026@\271\266\213\'\236c\020\3006\0332\372@U\022\300>fC`>c\000@\265y\235\365\352\007\n@\260\333\036\203\213\037\t\300Fo\256\327\246&\003@}\323f\035\334B\364?;\327b\263\014\340\010@\001\357\341\245\276#\005\300\266\301\035\314h\270\004@\201JD4\006|\000\300z2_\254sA\006\300vY\336-\351S\004@3\324\245\030\325Y\377\277@\227\034\031\331@\363?;G\022\204*\267\003@\271Z\023{_Z\006\300\356\322-`L3\316\277BU\357\313\346\027\005\300\211\330\361\371\255\201\t@\377\014c\371\333\312\260\277\261q!\t\356\233\003@\032KPI<}\023\300`!\205\244g\360\001\300<\242\276F|\025\001@Uj\027W\377G\022\300\016\302\n\321\356\232\026@\312\303)+\372y\004@\243\007(#\305Z\363\277#\363\023\352\254;\005@\200\260)ckU\010@\302\377\246l,\347\010@\247\365\374q2\334\370?\225&\200\355_\217\324?\306Y#]\326\357\023\300E\361\220\r\232\243\023\300\335\205\030\371\211\032\361?\372\032\364S~\227\323?\301\024\364\334?\030\030@\316\025\031J\261K\026\300\231JLk\013\245\003@\217\342).\323\231\302?[\302\316\277\220\241\374?\226\221\353\274y\230\006@?\3026\365K\262\027@\372&\345\343^\303\377\277\226\024\303%\227$\007@\020h\3553y0\365\277\021\217>\032\240\332\022\300}\342\035\240\260\352\002@5q\251\177d\236\204\277\376E\203\224\020\352\t@\014\377\225\n\252\322\010\300\030(b\032)\036\001@\3344-\364\251|\007\300\215\337\232\034\032A\321?\0143\016;B\026\r@7\305\220f\251q\010\3000\377P\244\207\022\375?\373\206\373\370\266\031\000\300\357\362\220Y?\n\340?\335\213\037\311\334>\t@\344/\r\205\002P\000\300\276\001\303\036\260\365\013@\025\223\337\370\207.\021\300x\206li\210\244\000@\367\321\033!1\300\370\277\203\024\317\270\306\r\026@\253\370$9\342s\364\277\336O$\213h\375\004@\267\243Z\346\312z\002@\203\201_\255\r)\022\300Pl\256\345s\245\002@9*\340\371\013\210\360\2775l\210\226\246\007\362?8\362\007\237.\340\312\277\335\257O\216\024\261\351?\304Sr\343\244\224\000@4\215\334X\276h\n\300Z\343{pf\203\376\277\3421\320F\242\n\330\277k>\371\274\300,\222?1>\003\007\326p\022\300\304^\362`\301\023\314\277fdV\027Z\246\030@\246E\3469lX\000@\325%\341QDQ\360\277\361<\246\217\"\276\002@\222X341Q\023\300\221\345\321IL\022\375\277\241\212\277\357]I\026@\217\025F33V\022\300\350\036\305\261\034l\030@\323ZJ\252\371\342\001@\265aY\205\347\247\362?\363\212\340m1m\006@\310\323\227U\266s\013@_\342\340\r\250\026\372?=\234\35263\353\013\300\347\252\261\264R)\022\300\314m{\327qz\004@ \200\t\344\274\016\353\277\301?\214\005C\260\003\300\335\n\250\223i\213\335?8\261\032G\\Z\000\300~\357W\260HH\030@i\273(i\277\205\374?\251\272\340w\370\210\330?\342\223\251\245\315a\006@\302`b\022;\235\325\277\177\304 \022{:\005@\217\3365\377-\257\340?\350\227?\204\201\321\363\277\276\177\205[\"\364\026@N\306\006\375\250\003\r\300\365\207\177\344b\344\347?\251\266\377\270i\340\363?\334!!\263\010`\313?\023{\371\222wG\024\300HK\243\326(\025\t@\222\372Pm\305,\355\277\205$\361N\345\370\010@(@\2745R\373\001@\344\311f\324\227J\023\300n\r\233\331\240c\375?\355\225\355\333\000d\021\300\345\177\226\327\312\007\002@\240\350\241K\010\370\000@\244\031,\246\022\272\002\300}\220@M!\004\016@9\260\357\013\017\022\022\300\005\330Uo\3450\344?\367\246\331\313\001\037\377?\225B\275 _\301\021\300\277\314\244\241\205\255\004@\345\362q\314\321\006\021\300j-\324\t\307\327\025\300\350\270\347\276\211\373\374?^\320\200\267\215\356\001\300hM\2228mg\026\300\353\235\351\203\335b\005\300\341\024L)\005\203\000\300\363\352T\353\020\260\010@\246\331x\217\365>\353?\237\211+v\032\000\r@\204\313\003\204\353\330\354?*\271\3567;3\003\300\307\371\315\201\035\t\372?~\275L\307\301\223\024\300+\327\377\247gV\334?\313/\350`T\001\005\300\325\375\316\327\260\265\027@S((~\215l\021\3006\201\331\374\2122\023\300 \225s\305R{\004\300xS\252]t2\006\300\252X\232\036@\377\006@@wh\342\351\356\361\277\267\206\327X\347\342}\277\003\334+E$\230\337\277\004\005U\264\377\216\357?\233jl\007\2218\315\277<\003q\333\337>\001\300\316\371e\250l\330\031@\261\376\235\330\337\367\014\300\021\307M\tE\342\321\277>E\236u\365*\005@n\005\0347\017M\373?\317\251o\227\360\177\027\300\335\037\3612s4\027@\006\227\274Z\237\020\335\277$\231\362\325\235K\021\300\347\32799NK\016@\370\3260ai\035\022\300B>\336\255U\032\010\300\250@\r\377\333\004\355?\327]\3236\313\"\361\277$\233\334\365QI\007\300\330V\263\276\305\360\313?j\tyr\342\360\274?\230\301\370W\305\323\000@\346-\253\361\303\307\361\277\331<1\206\363:\366\277\266\370\364\200/\032\030@_\203g\242d*\t\300\212\263Sg\212\016\025\300\236OR\223\345r\367?\225\021X\271\032F\002\300e\264\374\023\277\337\006\300\206\255\360\3252\275\005\300\312\007\342\333\230\277\362?\366\247mD\203\224\021\300\252\311\337\273F\'\027@j\267pC\232o\373?~6\310\310\031\252\004@F\334\020{!\007\373\277\375\243\270\361\263\222\362\277\214\355\257y\340C\341?\317\311\264\301j\375\333?\326![w\t\214\n\300u\022z\364\331\334\003@\207\331_\037H\216\372?\'\232\236\214\305\366\370\277\335\237\010i\000P\305?7y\021AN\217\365\277\206\332\361\372 +\334\277\374,eI\265X\027@\305K\211\n\250\325\001@ck\317\261\327\252\351\277\031\217%\346\360\227\007@\007z\r\307\357>\277?f\272.\346\206\346\026@\000?\325\375\354\032\017\300bx\342\267\260\341\003@m\274L\305\222\226\026@\t\321H\275\365\346\006@} `x\267~\347\277\323^&NkG\t@\234s\313\020k\333\370\277\002\333\027\017\274u\333?\326qS\035r\001\024\300\037\306\3008\205\002\002@\274L\005\340\023\376\021\300\r\177\362\007|~\006\300S\316\002MSU\376\277\251Y\312b\016\246\371\277\035r\212\236\"\215\004\300\0234G\0349\t\010@\215\320A\314\330\206\003\300`\372\313\237\310#\007@\207\305zN@\201\027@\227\032(>\256\333\326\277\004\266\356\307\307>\341\277\350]DR\333\206\023\300B\375~\303\026}\022\300\305p\235\003\214}\005@\021\202\345R\275\231\367\277\270u\370\273G\353\005\300\326\'\375;C\262\353\277\203AEW\245\313\002\300\272Y\345\013#\246\003\300\206x\031\032\202\276\004@\342\rX\372.I\027@\317\023\212\036`\215\027@*{#\354(\r\326?y\346\177\271\254\337\366?\023\342Z|\264\304\026@v\326\347X\022\343\017\300\272$i\\\rj\356\277o5\021o;4\022\300\"1]\213Y\301\027@x\273\3422\243\010\002\300\023/,\027f\010\375\277\307\006\247\014$\210\345\277\267/\330,s#\361\2776H\257\217t\350\307?\033\305\321&\022\316\023@\230\307|2\325\277\362\2774\032\200\313\346\344\021\300G`\020\330+\275\004@;J#\214\340\036\377\277]\210\021\002\257K\025\300\243\216[F\257\264\352\277\247\024\305\372\001\r\001@J\331t\010\n~\007@3q\355T\223(\027@\277\033w\033\367\335\300\277\3152h\302$\257\026\300w\354\036/(\252\002@\356:XW\352\314\343\277a\356x*\2206\006\300w\"$\243\225X\027@*BW\'{\232\340\277\017\005\022\363e\'\322\277\2550\371/\256\266\005@]1|2s\232\013\300\372\327\304>J\224\n@5c\347l\253\333\021\300\nQ@aS\214\032\300\000\270\276\201\037I\372?5A\273\3755\252\003@\217\245\337m^T\r\300!\020pYT:\022\300\363^\3023)\360\020\300\300\"q\351\326\317\027@\317\344\377h\265\231\333\277$,\313}\206m\003\300\022\036\034\203d\350\375?\252\026\322C\367V\003\300\034\033\037\372k\223\002@\nF\010Y\336W\007@\342\212\rQ\026\333\360\277K\2754\316\242\201\263\277JI\246\020\340\311\324\277Y\0162\304\r\242\326?\345c\326\337\202\333\266\277\035\277\277a\031\032\007\300B\303\213\220\t\366\365\277Q\031HI\370\270\r\300\236\360\321\2568\274\354?\220\312\321)b\034\365\277OkU\263^\016\000\300\030\242\234\363\373N\256\277\260\0011\n\016\016\375\277\t\216\343!\306\263\006@\221\347zhhF\363?\014|iW\225\341\021\300\\\346](\303G\031@\032\213\365\215\206\315\023\300\214u\244\003\343\013\t\300^\220@\002Wg\322?\340\372\370\362\r9\023@2d\207\367\256\344\226\277~\313EB\222\341\010@\314Au\237\t\323\361?\361\0170\370\021\346\002@\333\331\235\242\257R\007@\307\265*\344Q\246\370\277\340)\346\356)\353\032@\350\320\240\310\031n\031@\307G\306\272,\370\000\300\357\n\017b\334:\001@\024\322\337it7\001@\351\214\220\0106\006\r@|\'\360!\324\376\376?)\230\026\377\300d\024\300E#\343tx\271\027\300\310\374\313\233\332\275\023\300\226L\211$s\262\374\277\356\233\205\374\356w\321\277\314\271\213\310\314-\347\277j\350\366\216\310i\024\300\320\246\317\304B\355\351\277\"&X,\030\272\353?\270\336JC\310P\317?2\351\334\r\347\036\021\300\213\314?\221\'O\006@d\376\350\350\354\275\014@Z\240\372\201J\244\024\300\275\332\363\212\210\341\370\277\275\236/\266\"\342\030@\030W\023\374\257\243\010@l\243-\352\234\207\353?\254\322\341\277\313\345\003@j\2017\277\363\034\320?_*y\t\347T\004\300#\001q\315\363\262\021\300\010\3156\326\233?\016\300YU\237s\343c\001@B\231\350~\221\203\005\300\333\364\267A(\224\023\300?\261\027\344\236\363\026@\332\317\213\363iZ\351\277\267\314s;\']\373?:He;\370\372\267?\353\266b\231\363\217\025\300l\373Q\252\177\346\020\300\317\3109\367\250\212\346\277\217Vj\023H\304\007@\376h\375%\305\350\320\277\225\\G\256O\r\374\277\217\032\276\020\023U\370?x2[}\217v\310\277&L\2501d\253\022@\223\032\341rdN\022\300\223\362\361\225\351\354\026\300\230.G4\313\030\364\277\247\310w\251B\240\003@\246\252\363\013\036\305\005@IA\270*\206\253\001@\021\027{{\325\356\310?n\000\270\276\037\343\342\277\241H!\303d\002\327\277\357\026\243\276\234\254\342?t\236L\252\036\267\002@\230\034M\203\370v\004\300\033AUl\325r\263\277\024\246q\243\027\357\000\300\272Xa\303\023\"\340\277\242\330\257\333\026\023\030@\032x\223\232\3720\027@\0039Gc\225\317\020\300\224R|n\245Z\005@\325\331\030l\'@\024@4\240K)\017\265\371?\327\371\202\302\241p\013\300M\310\245&\3472\025\300\217z\216\3069\212\366\277g\316\37772m\270?\220\254\334!\0227\336?\223m\223\375\226[\030@\032\236\006\332\0029\021\300\375N\371\003\020e\004\300R6=\261\306\235\346\277$\263&c\"\332\365\277D\223.S\236\334\243?\255\246>\377\"$\361?\313\276\005J\300~\204?\207\320\014Q\363\222\030@{\"\372\020i\221\003\300\351B\001\005\325\237\000\300\t\255v5\257\325\001@\"\337\017E\316\322\027@\202\007\300\204s~\001@\300\226\340\246[\254\001\300u~\332\204\t\033\005@\254\336c\304\032y\013@:\303\252\344\265\311\363\277c\235\237\020\\\314\307?\245\013\304\344\010\310\360\277\2018\316<oV\367?\0200\376\242\317V\364\2776\334\345n\211T\302\277\345\361\024N4\216\320\277\313\332\275!\330E\030@w\006\000/\247c\024@\036\225F\227\250c\024\300[P?X\377S\005@\224Ux\250\327\020\032\300\203F*\227\351\323\021\300\264W\273\201AC\277?\220/\361\360\205\340\t@\000\227-\317\000m\005@#\030\t\004\213\225\353?\026\007@D1\224\320?#9\003\355e\317\005@(1N\356\324\360\010\300\0309\t\323\230>\257?\221\352LU*\376\026@\256\016W\250v\253\005\300L\333Z\2218\241\007@\274\262\336\211\030>\004\300\273\361\3426\257\306\013\300\002@J\337#~\027@\017_\"\004\242\200\005@\r\240I\260\202v\022\300\245\006\232\027\032v\336?AsPt8\277\021\3005\227\306T/\t\356\277\022\203\342\327Up\002\300x \005\246\231\260\370?\"\222\354\362\223\305\021\300\271\031=\'\360`\377?%<hd\205\007\375?\206\036\213at\252\312\277z\360\217k\233\236\032@C\201\231\177\203E\022\300\322\275^G\363\252\321\277\031t)\341\370\013\027@\361)\031\347\377\013\362?h\250\237L\006\251\000@?\270z\016\337\177\370\277\033\361#j\277]\021\300\177\243i\320#\214\002@\200Q =\265\270\023\300/\035#f\036A\003@cM\177\021`\317\375?\362\rI\377\270\365\021\300ta?\252\213\n\020\300g\375X\031o\330\325\277OsFZ%\354\006@\366\316Z\336y\354\007\300\017F\001\375m\014\024\300}\272\351\255}g\377?\235\245\230\007\270\231\027@R\022\303\366\261}\004@\253\200\320\261\372$\013@\300\270%E\207\257\264\277\256\201\377\270\013\312\010\300c\367h\230\326%\000\300gEG*!\312\027@6\367\006\327|\331\021@j+\264\226r\030\366?o\\\214\253\273\314\n\300\220\275\322\213\250Q\022\300\256$\016\347\253\344\003@I\260\013\2126\270\021\300\344-\007\316,:\014\300i\356\264\346$\252\350\277\320;\357~\253\010\330\277\010X\374\222\323T\343\277\315\\\005\037\304L\005\300*\004?-5\215\n\300\332\370\341\362\017\177\261\277P\335_p\326%\335?;\370!*\271\366\344?U\266~=^\220\005\300\2256\377\367\201k\362?\375\324X\262uA\013\300V\237k~W\316\304\277-^\2229\355\220\022\3007\234L\301\362\270\326\277\367\356;@\367\353\000@8\375\367\335\256+\005@/\302\342\313\373$\004\300EHU\030\361\325\363?\377\241@2\275\244\005\3005\017\323w\021K\014\300&T:\010a\334\025\300\024\203\264;\350\232\372?e\232\260\361\323\214\374?\326\371f\'S}\370\277u\3048\206%\345\027@\271\216\213\371)\216\000@\306\006\367x\321\246\006@\375\332S4^\325\365\277~\305\301\371\0178\004@!\025\364b\225\356\n\300\267\006z\300\026\355\t\300\304\nr\313>T\357?y\020\013@SN\003@\336\326\330a\031\312\362\277Y\312\257h\230\347\021\300\366\337\275\211\211\003\004\300\r\225\022v\245\344\013\300<:\257\313\346\350\002\300\250\203\023\225,\320\026@\325\242\200\243\037\201\331?g`\207%\307\267\027@\211\357\244!5\331\003@*\271\361\360\335\234\020\300\225\205h/\357\223\373\277\364\233\266Rg\\\003@\233\214\222\344\245\220\363?\305\335z\224\021D\370?\360R\277\200\014\307\367\2775c\006\351F\251\000@H\024\212\206\311\021\r\300\305)A\236\333\013\022\300I\335*J\237\255\001@\\\022B\337\362\r\333\277\262b\325L?{\r\300\034\213Y\331\223t\027@\332\303a,\200%\354\277\3260z\2354\031\365\277\316{ML\n\372\333\277P\022\006\353#B\357\277\202\213\201}\223\350\024\300\320\311\252\202\257m\016\300\006^\212\3674+\027@;\017\331\264\221\226\002\300\326\374c\254$$\010\300\255\021X\354\033\360\360?\221\277\253_,:\327\277\347_\032\274\373/\t\300nG\026+\202\344\007@\352\244~^\365\251\343\277\311\235N\350\222T\021\300c`\23350\340\321?\200(\"\230z\267\372?ph2\351\004\327\026@\377\320\007\023\267\264\016\300\212\000\232v\013\031\333?\266\330\200\304\014\377\371?\006H\310W\375#\362?\236I\037\207\234\326\337\277\032\233\204\244=\270\021\300\014\313\364\227\270\037\002@\316\2714-\027,\003\300\224\006\220r\326I\305?\255\351\347{\372\240\026@\337\240\232A\021\242\361?ln\3334\345\353\002@p\0370\'W\315\360?\022\237\311\024f\001\022\300\3440<*\321\210\005@\n\013D\351\361G\027@\264,\216\3337\354\026@\024;M\266\240\216\001@\327\207\r0\374\\\031@\247EJ\360\021\243\003@2x@\\f\301\370\277*\351;.\250\215\004\300\312\212\302\341k\020\027@s\256\023\266\027\223\355\277)\376/[\314\312\025\300\020\235\0011\301C\002@\022\262d@\032\017\025\300\034\236\255\261\246U\320\277\273d\202.B\352\000\300\247%MW!B\005@,\326\266\266\357\213\342\277\276Y\363\313\204\316\003\300F\313\252\323\214\225\350\277\244\317\363\270\224F\001@*\276s+\326\022\001@&\211\240sg\n\375\277\231\235\215\017q\232\023@\264?\217\262v9\026\300\352\007\353.\322\336\375?L\001\024M~X\006@\303\\\270q\245\225\020\300u\020V\376\270\227\337\277\351\240\220\267[\030\021\300\332\250=\264R\034\026\300I \222\273\351\022\373?~\335\305\037\220\"\003@\322\237\204Xa\320\374\277\003\021\217\204\203I\001\300\277K\371\363\036\232\360?\312\244#\355\206c\005@R\252y\260g\020\003\3003h\303\\\3315\331\277\220\317\031K\233$\r@\235\013V\363\331\217\364?/\327\001\304\352\301q?\353\356.m\277\000\004@\3157\316)\303\270\004@|<\262c\020\262\022\300\030&\261\262`\251\027@\262[\000K\020\266\004\300B\233\r\363\217\261\020\300\354/\231\371\244\363\355?\r/6#\322\324\030@U\023\307lG\213\026\300\371pv)\013\266\027\300!2\241\357\232|\003\300\254\030\334y+y\006\300K\324\303\246 ;\023\300^\257\243\303hj\361\277j\004\035\252\332\262\335?\205Xa\235`\250\025\300K~\005\032\274\017\002\3007T\210\346N\211\362?1/\321.\2654\013@\214g3\031L-\002@?\365\272\326Z\364\365?[\312\247\nS\375\024\300\333\033\346\317\272\016\352?\221 \301\036\n\241\360?\232c\022\007\320\236\004\300\037\342$9|\t\004@\327\013\226\233\376!\365?\t#\223\344\260\327\244\277+\231\236>~Q\001\300G#\344\371\262\367\320?\214\261P(k<\021@\212\324\274ZS\342\371\277\361([\257\2241\020\300\200\2315\237?\330\016\300\272\370\301bm\226\016@\3008\177\274\362r\031@\226\233bP\376\017\025\3006\333\226\3335 \026\300\252\343\365\232/\301\021\300\331V\252\214r>\332?\363\207\325 \306U\377\277z\023\304e\260\301\023@\254$G\322\261\370\005@+&\222\360v\374\363\277B\343j\016\205F\022\300X\353\252\367\317%\004@\264\300\354FX8\027@\365)\210\253\252\001\375?O?O\247\010<\n@`n7\2455\374\027@N\3439I\031\205\002\300\345\333\303\357\352\206\376\277\365\321\364\333\265\236\374?\320\347tL3\317\367\277\216M\265\250\365/\030@eh\255\355\016\\\032@\353n\ro\236\277\375?\375\260\036z\032\277\007@T\332P\327\276\242\001@\302\321`2a\325\006@kCrT\247M\364?\244\347\341\203\t\202\346\277\324\\\2016\252?\365\277<Lc\357l\211\030@\273!\251\037W_\021\300\271\004>M\263\323\321?;\347\344\\\005a\324\27757\036\212\234\307\027@~q\353\210g\227\356\277\0031^\234\231)\363\277\'\247\306\237\030\276\371\277\016\325\376\2154\021\371\277\006\201\007\251\204c\021\300\tf6\274R\016r\277\247\366P23;\367\277\301R\341yE\276\320\277P\314O\004\273\253\000@E\226\263\357\237\360\001\300X\207\200\005mI\021\300\3650\350S\350=\315?\270\007\345\366\030u\031\300d\244F\215\266\203\363\277}\014:_\003\213\025\300\215\351#W\345t\001\300\373\310\226\207\324W\357?1\300\370@D\261\316\2777\036#\311r)\024\300\230SS\037e\332\375\277\226\350!\3725\271\007\300\366\271\337\021r\270\026@)%\264\t\271h\005@>\325\006\217\230\373\361?\003\222\230\317\223f\016\300\356\204\2429\211\177\006\3004\363\246\342Y\317\004\300{U\343\363a\354\027@\333\236Y\357\014h\005\300\244\000*F\227\350\365\277\347\340\317l\357\256\004\300\023\330\370\371L\357\316\277\210z\351y\213v\023\300\0239\000\301XB\356\277\214\211c\034\327\004\006\300[Bnc\355|\321\277\206\214\255~\353@\024\300\3034\252\367\032\202\017\300\247\223\372\320\325(\005@c\343\006\331,\260\317?\245|\267\222~\024\r\300\206\200\330n\361\321\375\277\026\034\277j\340@\017@\257}K\013\3079\344?<Pw~\203N\370\277#\265\226x\305\371\000@\031\373-7\200\343\370?T$j+\3521\002@\364\217\035.\334#\342?\021\024\233\332\033#\006@\345\343\257G\020\200\337?p\304\333\030\352l\r\300Q\374c|\334\000\014\300\264>@\261\251C\027@\274=\364\375\365\020\016@\221\225\245\371\372\210\025@"
      }
    }
  }
}
node {
  name: "normalize_element/component_2"
  op: "Const"
  device: "/device:CPU:0"
  attr {
    key: "_output_shapes"
    value {
      list {
        shape {
          dim {
            size: 749
          }
        }
      }
    }
  }
  attr {
    key: "dtype"
    value {
      type: DT_DOUBLE
    }
  }
  attr {
    key: "value"
    value {
      tensor {
        dtype: DT_DOUBLE
        tensor_shape {
          dim {
            size: 749
          }
        }
        tensor_content: "\321\262\225\023\363\300\366\277\303\341\263%\237C\365?\032\252\"\235\315\272\001@\343\344\036\265h\344\373\277\256|\372dI[\371?\021\002d\336\004\013\344\277?\006\242Z\007\026\r@\244\305l<\211\254\360?#%\032\203\232\361\351?\\RW\220V\017\335\277_g\230S[\017\277\277\235c\321\327\001\257\266?\221\241\326\354\005}\372?\314\031\r\007\254\371\375?\274\343<\315\212\317\005@\204B\3547z&\007@\255\345]\332\370\237\023\300\025\267VE\206\034\351?\270\215\227Bm\315\352?\234\002\240\000-\354\r\300\367\tM\341\306\375\316\277\371M\3223\337\330\325\277\307\260\205\322!\277\005@\n]\202\3410U\000\300}e\"?\335\264\344\277\310\\\265@\325\344\350\277@\0266\314\331i\001@# {\214K>\007\300\013M\307\313ym\373?\371s3\320\035\250\371\277=*o\010\235\221\362\277}b\006\037\201=\336?.\321wIR\241\010\300\213\274\277\306R\210\302?\275\335\034-\003F\236\277zg!x<e\371\277\321\261\200\346\232$\371\277=zs\001O\272\372\277\221\3556\334~\205\013@4>OU\270\304\341\277\037\002\254\221\t\361\016@Z\332\006\034\035\353\377?\257\032\303m\236\343\364\277\026+\004J\276\031\353?g\257\230\216\206\376\002@\214\201F\265\266\205\367\277\355yt\352VN\310\277\203\357\266k\314c\027@\251\035c\207\377\312\005@=\202N\324\300\013\006@Y\240\221\247\351>\363?\014T1\002\037\203\313\277e\330;\333\361\251\327\277\266\332\341\222\246\276\310?\333\017E\177 \251\016@\2718\214\233\353\t\317?Fl\013\211\260\003\345\277B\377l\355z\320\375\277&\232\025\031~\372\003@\210\270\344|DM\313\277\356H\354\371\212^\373?*\307\360V\342\354\266\277-\207Wo\232\322\374?\334\317\2310\364\274\376\277a\032\000\357\346\360\365\277q\032tY7\245\330\277\240\251_x\014@\n\300\032\361e\220\347\247\377?\247\316\236\237\240\275\005@\232\245\235s$\261\227?\377\221\275B\007\374\313\277\t\001\202Bp\325\006\300\335\373+{\243\031\n@\020\261I\306?\036\000\3000\327\360\315\021\340\363?\037H\205\\\301v\311?\034\031v\341P\243\244?x\\\021]\251\036\374?\334\367\0013\267\211\001\300j9@\257\037\342\361?\236\271\352\326\244;\362?#\003\377\t\255\331\r\3005y\223y\3778\006@\327\235+*WS\366?\212\374;/\202\233\n@v\375\316\274\016\\\017\300(\266#\346\234\326\373?_\2059\272i\300\347\277\243\027\316&J\301\351?Y4\3511\261\321\002@\0039\323.\202\261\n@\245$\212V\266\220\331?\243\273\017\223`$\374\277\\\177\t\255\2306\323?+\027\214\341\016\026\003@GK\001\367\237\242\343?wBWQRa\356?\314W\314C\2373\001@\354c=#\t7\367\277D\262>tN\345\t\300\216v\371\375UV\262?hy\233,\2230\363?3S\216\007\231t\006\300\356qR\240\233\332\001\300\360h\266s\017\t\002@\347\320\327\262\\\037\355\277\317\0230\330L\020\343?\314\022\264\306W\311\004@B0\214*\216\325\367\277\312Z\036\007\364w\361\277\0179\366\317\315\303\357\277\206\022\336\364\016\207\364\277\264\227\026a\356S\001@\315\364J\364\305x\263\277\353\301\200SY\020\330?t\031j\226\370(\316?\010\320\212C\224!\364?$\014hJV\376\375\277\327iZ\253U+\342?%o\\\244\335\233\322\277Y\032\251Xu\343\372?\316^\245!^\206\315\277\217[`\333\223k\007\300;y\376\302\010l\363\277\267\261\226\035\274\245\364\277T\231#\375\225\251\346?\302y\303\357^F\276?\337\202\265\230\331\335\334?^\240\301\234\212\233\307\277\037\206=s\231s\262\2772\200\240\245\336\237\006@\033\264\177\003\222\223\016\300\371\270\206\216BS\372?\370Y[\333\252I\362?\324\350\250 \"\332\362?p\332\311\306?k\306\277\364\2360\335:\254\300\277\220\232\307[W\251\003@\245\356\333h\\\372\352?,\037\254\324X#\372\277\363N[\215.6\341\277J\322\240\215\307\270\004@\275\366E\032\222\266\022@\252\243\347\225\\\270\n@\330\010mx\"\377\010@\250\342-p\0107\360?\325.G\034X\025\001@|\3323\357\364\223\340\277\267\346\224\220f\344\002@a\0035J\217+\340\277E3\316\0178\267\365? x+\373\2709\004@\r\312\226\031\362\017\016\300f\205q:!\347\000@%-\222]\023\347\377\277\246\316\000\020\233\351\375?\265\321\203I\265\036\372?&\242\320\205\231\315\013\300\367(\311\2062~\000@V\322`^\0076\373\277\\a}\224\211+\n\300W\273b\240G]\366?\272{a[N\376\355?\307\3037\244\357\373\327?\253 Pd\016\333\346\277{\277<y\225w\000\300\370\310I\207O\006\345\277;\260x\2300#\001@\232UQ5\332\276\317\277$n\341\026`M\000\300\247>\310\256\036\002\001\300\030\225\265#\351|\335?tD\016|;\017\023@S\344A\020\257~\364\277^\374$\013\006[\362\277QG~;\2120\t@5\314\311\220tR\t\300{R4dy\"\001\300\227cJ\\\373\247\335?_\002\352\310\360\252\000@l\342\342xK\273\370?\252l\243235\004\300\323xC\307\375\265\373\277\253g\3725\365\321\013@\245sI\352\370\207\357\277\365\340\222\367\262\214\353?\034\267\314$w\016\321\277\337\031s=\235\323\021@\350\337\306.+\362\363\277HWl\2644w\367\277\344 \375l \366\004@a\275\t\354v\001\352?o\272\211\200\030\366\000\300\262s{\347hM\377\277\340\335\365j\025\t\362?9\343\375\331\367\323\006\300\375G\234\223m\361\351\277\235\313\263\367q\350\343\277\264\223!\321}0\341\277\251\234\3704\324\233\311?I\324\307\300L\\\013\300\032\246D\201~\"\003\300\350-w\235i\274\363\2772\370^\001\2610\371?T4\277\340i\231\003@\205\345\031\036\365\307\373\277i\254\337\277\"\266 @\030`d\363\222\025\013\300\3633\251\316\330\245\022@\370{\014\300\377_\004@\'\226#Bc\\\344?\251}h\275\311\212\362\277\263Nj\357\367i\247\277\347y\253\2635\302\t@\345zR\311<\257\001\300\225\010\032\t\233\256\003\300\262o\017\272\332`\377?\005\3123+\016\330\007\300\215=\'\232\277Z\000\300q\333\355\243\261\233\003@<9qc\000C\351?\034\377e\3641\035\023@\336\330\237C\303\305\345\277-\362\300\301\336\244\014\300\257:(\366\314@\361\277\335\344j \200\003\362\277d\"\375\324h\365\r@\305\317s\301\010\310\017\300\266\305K\332\340;\371?\177\032E\355\3740\360?\351g\272\214U\342\002\300\241R\356\252\310\177\026@B\334,Kj\204\006@\330\366l\363\213\032\003@ZYQ\n\371\013\344?\002\2670\2066T\367?On\332\241\371\351\335\277\271\260{\316\357\022\375\277\314R\340\252\210W\335?N\376\340\271\223\253\017@\265/\005\271\202T\006@\243\010\341\031\205\327\r@:\240u8\\\236\343\277\007*\371p\206\236\003\300\312\263(\252\356X\365\277\032F\376\213\272A\n\300w\362\007\235&k\340\277\270\347\266\262\250\252\373\2771!\226\215\367\277\366?\224Q\034\336\n\251\000\300\007r\263A\326\230\352\277;l\267\005\257\247\363\277\004\301l\255\037\021\023@\2261md\221\036\006@p\335/W\215t\357?i*\335/Rz\370\277~6\022\006\224\277\377\277\"\346\3528\335e\342\277\315\235\372\003\022\367\002\300v\242/P\376\221\342\277\235j\254\315\241\t\n@\256\327\317\311\270\247\362\277\016\003|h\257\367\371\277\234\232\223n\336\230\013\300!\330\026\334\305\320\362\277Q\367\027\\\324\316\344?\r\024Z\305at\367\277RO\363\034\201\270\014\300\342F\021\207_\215\006@1\304\020\306\311\363\364\277YU[\227\204\207\013\300\324\013\275S\036\031\n\300\177^\332{#W\364\277%\371Q\010\263\262\363?j\373m\311[\271\366?\214\335\340\\\021f\370\277\0277\276\017\274\227\001\300\246@\031\025\206\275\016\300\305\365\253\3153y\371?\"\242\301]\271W\371\277E\243q\016I\254\366?\264d<\367u\233\350\277 ha\274\206\367\365?\377\263\210V\036\017\334?~\267\302G)\354\003\300!\262\353\355\007e\330\277\272\363\303\303\363\366\006@7\235\251<\206\027\t@\243\251}\266\207\344\365\277\223?\353\275\366&\371\277\037@]\202\273x\005\300/o \313zf\345?\177\345\315\t\033\363\006\300N\2702\364\352\374\344\277\365\034\005\256\224l\007@\203\364\007\014\224m\327?N\002\275\326\313\222`\277l\207\\S\243l\353?Q\212\344]\363\002\360?\214\022\311lt\016\t@s,}\326\316C\022@\277gf\310i\323\221?/r\r,K\360\336?]\214\235\302#\356\366\277n\350\277\000\370\325\367\277?\026\214\031#\242\364\277k[\361bJ3\n@\027\304\305\032._\371\277\022\344\177\326\320\241\004@)\026\335&\353\200\340?,]V\332\361v\243\277\245\254\0251\030\356\341\277E\273IC\\\334\357\277\t\335k#\3056\304\277b\252\260\332\373\013\340\277\3746\271\311v\003\002\300j\364\027\311Dz\000\3000KM\235wx\361\277\026\024\245\002\036L\367?\204!\342%l\304\n\300B\260\255\301H\203\355\277\230\233\312\305~\036\347\277\263Kj\225[+\006@o\030\276\276\010\352\342?\325\211\272\246\016E\352?6\271\330_n\373\332?\177\005\235\235\007\270\372\277\343\340,U\221T\005\300s\245\204K\244\240\000\300y\2106;\363\355\327\277\256\262\274\301\305a\002@\233\025\273\316\023y\370?\277\177lV\036\362\364?\231\\\236\033\177/\373?\363*?\310\352\034\t@\252\246\037e\302\264\002@\272\362p\274\262\031\006\300\374\3461,X\027\014\300H\210\347\267\335E\350\277\232\252>\007\225\341\013\300\0006j\277\204.\006@\222\003\021\276\220]\362?\333\013\274\251kh\353? X[:m0\366?\016\232\320`\313\375\373?\342\2248qY3\270\277\202\267m\264xw\370?\310\356\371\315\250o\032@g\335\357\255\022\034\341\277t\002:w\310\246\366\277;\221\270\214\331\363\001@\270\227\372\243\237\035\345\277\255u\241\212\305\362\366?\237q\032\020\200\372\362?\n/\357\357EH\311?\031\334\303\311\313\034\006@\352\343\203\n\361q\260?\346%|\335Zu\326\277l\027\373\313\230\241\020\300m\327.\254\221\227\325\277\372<\021(\225\006\370?\333\241Bt\002\347\365?\212I\356Z\361\211\330?\002\007\243\373?\262\366?\r\376\207\336_\022\367\277\313P\367\243\254\346\005@\240\370/\332Re\002@\300\214\343\213\277\261\010\300\347\254\013\342\013w\372\277\013\367t\335\223-\310\277\342\223M\341\364@\364\277\343\252+q\n\222\364\277\000\n\275\226\270\001\333?\225\321\215<\024\r\345\277\000?~=r\224\010@\352\230&rr\252\010@\233\257\230\310/\215\t\300\245\246\374\244yT\352?\256\346kN\010\205\367\277\201{(\004`\373\360\277\335Kh\254ZL\343?|\026X\366\335*\006\300\206\316\232\032u\370\363\277\315|\t\n(\323\367\277\216\n\312\tLP\373?\3228\321\372\372\371\000\300\316\373h\000\204\017\333\2779z\221k~\227\000@\014\225\365\226B\311\333?\215\010\366\034\t\327\346\277\225\355v&_D\005\300\216P\264\202\210\223\371\277\201\337!\0144w\352\277\313\334$\013Q@\370?[\261\225\332\257)\t\300y\021\366A\321.\360\277\2249#M6\307\007\300a\220\027\236e\312\366\277|A\205\200\215\326\375\277\203\003\276?\300\327\001\300!\263o~\000\345\361?\311=\252J;\304\342?\274\006\316\327\327\321\360\277\'\364\363\3258\016\365?\374p\r\222Y\243\365\277E\201\334\337\257\360\374\277\353u8\242~\261\013@\032\n6A\346\256\260\277\000\2568\2556W\013\300l\025\335\033\261\023\373\277\035-v,i\257\331?tK\026H\010\306\005@&\236Eu\336\315\002\300\234z\025v\367|\370\277m\316\330U\264Y\315\277\252\336/|hw\324?\374\213x<[\336\322\277\347M\264\377M<\002\300\\`\022\355n\312\013\300=[~\251K>\376\277\007\222\032OA(\t@\037\263\240\203\202\373\373\277\315<^\227I\305\342?W\217\033\255 \327\010\300\034=F<m\246\352?s\000j\201\300F\324\277\361?\275oY6\322\277M\022:\2559\336\334\277\250ZGQ\t\220\366\277\311\371P\275yZ\364?U/\370\377b>\376\277M$\355\310a\233\001\300d\312\366\320\274 \364\277\257\234\036\214\241K\370\277Z\007(\243\017u\004\300\020\306my\007\251\312?\371{\212v<\200\010@\235*\207_\251x\001@\344l09\216\006\020@\255L\321{.R\340\277i\351\331&;8\361\277\234\221\022\300$\254\304\277\303\263r\000\323\244\370?%\327`\365\226v\274\277\355Usu\206.\002@\010\234\312\235\327\236\376\277@\341\235\333O\226\375\277\336\215\253\304\3706\373\277\036\357S\373\253\302\365\277\000=j\325iu\t@E(\357q\301\360\374\277G\016+\017@\313\023@\256\257\016\217\343\326\005\300\362\324H\371\261\237\367?\312v\330\227E\202\345?.2p\372\344c\361?=\006\024\311\232\234\334?\324rq#\233\321\010\300\263\363Wr\247\263\n@!\276-\277ft\363?\276D\010|N\373\346\277x\254\302\221\370\311\366?\036kGU\370?\341\277n\206\313\3367\233\306\277\353\362,w\361\267\363\277\367\024zG\361\"\326?1\344\016\036=\247\353?\317\034\371\013\342\256\370\277\360E\006X\nC\355?+\223\366\232\232/\004@\313\307\037\005b\212\002\300\330d8dH\313\370\277q&y\312X\273\002@\360\246f\363\251:\360\277p9\030\355r~\005@\354\255\016\263h\010\314?\006\351\373\231\252\232\326?L;\315\331\363\340\004@\317\337\246F\202H\377?p\013<\275j\000\356?t\226\006%3\361\007\300\265\274\r\325\312\350\364\277\301s&\274j\025\373?D\277\3524\335|\372\277\031x\024\027z\n\271\277\212\203\rv}H\370?\300\361\310\037B>\016\300\315U\242\355\031\023\007@h+\316l\336~\371\277\255\321RY\227\356\366\277\311(\263\315\033\320\350?\336\306\327\203\315\232\363?E\206@sC\221\003\300\242\331\345B\232\232\002\300b\263!\250\253\037\357?\036c\271<\230\301\353\277D\035\303x\364+\300\277\023\013|\317/\330\003\300\325\266\n\372\337\233\355?\220\221\234$N\371\364\277\026\361\035b&\020\371\277\266\213N\316\355^\375?8o\230\223)E\360\277\205\033M\014\272\352\007\300\207\234\225\022\372\272\343\277\252\342\013\010\2569\003\300\300\246^\354\374D\305?\202\2439\360\230q\000@\000\025\030b\354)\346\277\010%\203\034\261$\354?\250\177c+gY\355\277i\024c\335\266h\332?q\212\205FT\233\342?\307\376\250\345\034\246\355\2774\334.\030Y\377\365?\214\263\005\253\224\344\374\27773\357\002.\211\327?L\371\322B7x\013@.\324(*\222\322\365?Y\027\342\224\006\302\334\277y6gH\315\334\366\277\247\237\331 M{\367\277\306p\247\270H\010\370?p\305\340\252L|\341?\034\307+\014}\r\007@\022\311gb\271\317\010@~\361%\262\241\202\006@\334\256\307\347\223\304\r@\314J\230K1\212\360?\265l\267\324\002x\005@\345\t\273$\370\'\365\277+\312\325\267Y/\266?\216\330B\006-}\006\300I\'G\236;\366\365\277 \247{\330\005\315\031\300\n4\250\311\210\336\360\277\354\214\363\335\264O\366?\252_;\213\254\r\360\277\221m\2024Us\355?\"gh\275\021\336\341\277\321\365L\002\261e\002\3004\214h\365\212\271\364?\023\324\220\266\345\314\316?&\267U\274C_\354??z\005p\303\204\376\277\023\214!1\303\230\357?\351N\034\210\371\337\315\277\322\311\027\346J\250\260?\252\224\351\213xl\007@(9\213\006\312\217\362\2776\376m\322\343G\337?\177q\227y\233\326\366\277&\2562\024\003f\n\300J\241\351\232\253\024\364\2773\026\242\243\325\353\361\277\221\020\257CCj\010\300\307h\340\211\254J\000@\032\347\271rQF\363\277,\310W\301\224\'\001\300_\014;$\213z\372\277\241W`\021\345\275\024@\3644\334\234}+\001@\030\370\310.\034p\323\277\325\262(\351\233\373\342\277|\256[\013!(\010@\023\324\312\340\244K\017\300\304T\340E\3246\377?\200\255\362n\2614\341\277n\221\375x\221\361\262\277\364~\244\252\210\375\000\300\353\005\377\235$\014\001@\271\0014\005\234\031\352\277\273\354\323\245\223}\345\277\017\334\036S\234\321\310?\0227E\336y\233\371\277\212(6\270*H\301\277\037\307\177p\2277\005@\212\346*\300\314\231\003\300\277F\3305\026\267\344\277\200\005r?\351\307\355\277\246c`\275\271\224\365?\355\205\215\310/{\007@\270\240O\373\334\261\360?K\247\005\365\366\335\327\277gQ\207\240\346\200\n@\353\261c\000\022\023\320\277\371;WR\270A\003\3004\302\365Z\023\337\342?YmV!\351\005\376\277\263\233\r:>\313\353?fV\265\252\316\334\007\300W\034(\010\221\022\372?\263yR\320\246\014\373\277\003\336c\021+\321\365\277\360\350Y\374LV\375?\226\241\347\226\375\r\006@\2433c\354\367Y\344\277\023\202E\266\210D\331\277\237:6\300\341k\366\277\034yB0\244\006\377?\006\201\322\000Rq\362\277\025\320\004\366\363 \002\300e\006A\001\207\320\364\277\3507\262SZ\273\310\277\027\332X_-Y\322\277\250@\272K\326\007\n\300\021\346C=\242O\021\300\\x\324\210\337\363\374?&e4\005:\325\370?\264\032\206\2423\010\001@\376\372\242\211\030\336\007\300%\333\365p\344A\366\277*XX:w\252\005@\343\312\346\264\363\336\303\277\366=T\331{\232\364?\376\030\301\355\017\264\361?\245\031\315>\310.\000\300\0274g\313Y\n\007\300\371\243a\276\365\336\266?\031\226\243+\316>\356?\300cp\021\333*\320\277\277\220\367\251\212\314\347\277z6\244oB\374\364?j\313\0348\237\337\363?6\310Q\200\212\261\347\277\264\307\026]\244@\341?pv\324/n/\000@p\224U?5\342\013\300\0020\251\010\275\350\372\277\346\017J\022\014\241\006\300\200\014&\004\022\334\334\277\006\335\354\242;\302\360?\013BM\203\217\367\373\277\355\001\033\366G\217\377?\237@\344nmP\375?%\266}\357G\257\340\277p\371\343\325/\007\020\300\251B\224\334s\355\347\277\345\210\356\213\260\"\362\277\226\266\274\376\022A\002@u\021\241\220\212\020\342\277\001`f\361\0173\003\300Q \331nr\317\321?,;\202\301\251\356\307?\354\334^\250[\317\010@\223\346\341\"\350$\002@&\337\302\314\360\350\374?\217S\230 y\356\302\277\251\315hZ\"e\364?\204\346\270(d\037\374\277b\341\301\357\024q\007@\342\225x\037G\r\356?\245\"V\257CV\000\300\003\347\374\2760p\013\300\"R\221!R\020\003@\326\354j\274\356\202\301\277f\001p\322dA\r\3009!W\036\326\321\351\277\375\354M\314\370L\n\300\327\250B\240,?\355?\206\363\013}Cv\004\300\342\235\227\370j\207\326?\026*,\236\366u\025@S>\230?=\251\326?)\353\274\277\241\300\220?R\364e\027M\177\003@\344^\032\005\344\271\345?8\334\002\t\031N\347?@\364\324k\222\244\242?j\345\256\241\245m\003\300\313\255\350q\376>\005@\355\247y)\177c\365?`V-fi=\007@\014\273y\036\304\306\374?\177\342\223\343\245\316\374\277\211\251K\217\276\311\376\277\254$\2221\243\336\363\277\377*\267\036\024\227\020@\246\2057\026l\266\023@\371\3258`\234#\365\277x\351\372\226\233\\\377\277>D\363\353\034\200\323?\n\324\217@0,\346\2771B\243\027\200\360\001@\365\351`\t\230\314\376?_\342\312\024\342y\365?\242-s\331\372B\032\300\334\345\003,\305u\373\277u_&\035\316p\360\277\355\tL[\322\031\375\277\2066Gn\310\004\337?\266\2708-\367\236\340\277\373\321\004\036\000\034\364\277\276\347Q\243\355B\372\277\004\246\336\273\t\347\032\300\375@\232\272\tP\371\277-\023:\354\366\334\013\300\3674\341\265\332\376\377?5-\230\377\367j\321\277\216`\267(\3434\014\300s\254\232\213\r\253\362\277)\315(\326\315\347\003@\320\344\0043\331k\001\300^\246\266,\215\356\357\277\004\233\\\330{\371\357\277\3053\215\020C?\374?\204\224\201N\023\242\356\277\014\320\300L\347S\377?\247s\347\270\324X\031\300\314R\245\013\304y\355?6r\224\013\023\334\224?\000\313\217z\245\002\001\300p\334\344C=\243\377\2773\350\372\346s\036\t\300G\004\216\202\025!\363\277\272h\037\341mi\370?\327\301\237d\033\037\261?\324\354\373\324\256\027\354\277\t\016\3441zA\004@L*\252<\253\343\342\277\220NM\254ty\363\277\\\013\256\272\t\254\376\277\273\215\027\266\251$\373?\035\324\237\207\331\245\365\277S4\246A\277\301\345?\361^cc\301@\341\277\207\226\271\213\226\013\001\300p\307\201\202\261\205\372\277\033#L\251I\010\352?q@\217\246\213r\002@\313\244\346S\273\222\n\300B?\274\000b8\345?\'\263\212\333\342\347\334\277(\003\371n~-\373?\353\324=\020\372\t @\361\325W8\253\006\362?]\3508\'p\n\356\277\031\375%U\232\004\006@[\376 \221T]\002@\r\303\365\217\032U\351?\207W\376{\317+\367?b\020\002cr\332\376?je\372\311\010\371\354\277[l\341\326\3376\005@\333\005\326\200V\344\360\277V\234\231\032B\257\352\277\221i\377NL\332\003\300\336\337\\\264\216\365\000@\\\002\300\357\271\366\377?"
      }
    }
  }
}
node {
  name: "normalize_element/component_3"
  op: "Const"
  device: "/device:CPU:0"
  attr {
    key: "_output_shapes"
    value {
      list {
        shape {
          dim {
            size: 749
          }
        }
      }
    }
  }
  attr {
    key: "dtype"
    value {
      type: DT_DOUBLE
    }
  }
  attr {
    key: "value"
    value {
      tensor {
        dtype: DT_DOUBLE
        tensor_shape {
          dim {
            size: 749
          }
        }
        tensor_content: "~\247\3201\346\037\246\277\333+/\330\321h\364?u\002\257\352\350\376\355?\274\306\0304\266\022\005\300\336\000\014\213\r\002\000@t\222\0267CW\370?I\271\272\362\323\245\352\277\350\351?q\t\302\364\277\257\032$\337\271\206\340\277\354-\300\233Lc\307?u\023C\rX\230\337?[\305\017\317u1\007@\314\304\215\215\214S\006@*D\033\214\020\315\371?\363-J\350\220\300\325?d\264\034!)(\341?\007b\351\256\313\212\016@c\033\342\205\323T\005@\021\211W\253\250k\372\277\263\007\277\003\"\200\021@L\004\tp#\275\366?\331\364*\320\357_\375?\336\r\327\026[\t\344\277\002\257R\005|\316\374\277\t\350\322!\226\342\351\277\225\335\014%\313\274\325\277\026N\240H\003\201\327?\276\354\030\202\240j\005\300\010\214L\363lW\357?\035\246\231\302\210\030\002\300\324\013\0353zs\006\300\274\342.\004$\026\006@{o+\243f\234\003\300vj\350Rj\271\377?}\273Gx7\006\013@\223\310V\210K\351\375\277[\263\3338&\323\356\277\211DB\263B\023\004\300c\013\204\303\336\037\363\277\225-\016\207l\247S\277{\352\304\337\340\275\350\277\003\0038C\255]\362?\031!9\"/\003\005\300T\nBn\274\212\006\300\356\320\013\22135\361?\365\te\222\242\341\371\277V\037\027\244\224c\341?m\255n\021\032\306\375\277/s\252Z{\312\367\277H\263\353\341\010\350\370\277\230_[\3058\373\361?\204\027o\354\377\341\356\277(\226\232\213\367\304\344?L\333\361\246\335&\372?\220Xo \226\301\340\277E?\023I\362*\366\277\377\326\236\243\033\304\342\277f\326\020Ij;\337?D\312\310\233-\300\361?3\326\253\270\212\266\367?\210U0>\272\352\374\277>\2331\271\210\"\373?\n\355\221\353O\t\356\277\257\226\213\r\314c\340?)\252DF\274z\344?\345\035\323\334R\366\002@(]@Q\033Q\364\277\206\230k\370\205=\355?\004\271V~\210\021\332?^\247a%\005r\271\277\365\302\300\007Z\014\002@\333a\245\316\034\253\372\277\207{\241\323\215\240\331\277\037\321\375\201\001\371\003\300A\230\347g\032E\357\277f\200\246<\361\021\374\277\003\030a\206]\236\374?\251\226\324\324U`\275?d\232\301\266\353T\000\300\203\267\3036+T\363\2774\036\263\212H7\342?\240\257\307\257\371\360\341\277\244\252\303\262_\376\373\277\023\302\324c~e\306\277\373\252\273\360j\263\300\277p9\212\347\3122\213\277\223\337\275\243\302\340\360\277z\227\004\241\252\317\312?#8\231p\327\333\006@\n21\"\273\214\350?\266\177\200\033\357\241\267?\024^\203\367\241\330\t@\360\310\340m\0019\370?\\\213\316|\306q\367\277\010\230?\305\314\222\374?\251\233\232\033A\230\372?X\031\323\266\325\226\001\300r]_\234O\026\376?\\V\236\241E\271\020\300\r\305\342\357\016\231\341\277P\353\246\205\276\273\342\277\334m\202\250L\336\315?\300\0028\225\215z\374\277\356x\353\251\250~\327?\332=\261H)(\366?\014\354\253\365B\226\006\300\315\261\224#\305\202\007@\214\241HE+\025\344?\034\340y\267Xz\000@\272\377\350\033\263\326\340?\365L\360\311\360\017\371?e\371\313Jt#\262\277U\0303j\350p\360?\031P\271d\323*\367?$\265u\n\202j\006@u\032\025h\034\237\276?*\323\377\271k8\002\300|\352V;\223\244\017\300\360\'\233\271,\264\001@_\342X~\3216\005@O\217\330\340\202\214\002@{\305\276@\311\333\003\300\310\025>\374Q4\362\277I\324d\360\364\023\315?[h\341aj\366\265\277K\323\361\372\304\370\013@\252\340\315\330\230\334\000@\246\224\025}\307f\003@\"\314\\\310l\322\363?\300c6r\345\316\364\277h\362\311\001\036\267\000\300s\007\257\312&T\304?\344m\266G\202\365\362\277s\244\3432.S\355?\313t0\253\003\270\327?I\315\205\275{j\375?\375\214<\0214\370\000@\267\310\034\306o\336\361?\016\205Z\314\261#\345?\020\275\320b\247\222\363?h\346\003p\226\223\374?\'\034\204\320\251\333\343?\327\034\203\336P\337\001\300\267\206\204=\377\257\265?\262\307Y\271\253X\261?\t\210\226\215m\324\007@\201\263\243\204\304\363\360\277\212\002r\274\300V\375?M\317\256M2L\324?\301[\376\2105\216\372?\366P\030\305\306\200\006@8!\305\261\300/\344?j\360\250r\017i\007@c\032b\375\0027\360?v J\000\271<\006@\312[a\341s\t\365?=\203#\353\364 \003\300p^\023\261\301S\351\277<eu\334s\372\362?3\322&\345\374r\001\300\213\3436\227\206C\347\277\346E2?J\026\354?\267\353\341\2103\324\372?Vrj\276\2367\376\277(>\350\2346/\346?\003\247\211\\Y2\361\277b8<\236\337\310\001\300;\014wG\306M\364?Y+; \021\366\002@S\330\306\372\007_\003\300\244\034\013h\002\345\342?9eF\233\242\\\361?K4\215\367Y<\353\277\311\323\230\317\345\337\006\300\220\241kD\303\307\t\300\303\251{\266\255Q\333?\021\244i\2076\212\367\277h\031q\370\024\r\013\300\250I\360\311\362\205\343?\010\264CL\004\310\007@\\\333\374\311Nh\360\277h\256\244\\[,\377\277\013[0P\217A\321\277*\366\207\320\370)\360\277y\251tS\300\204\327?C\235\205\022\241?\365?1\224\272\310\226\274\370?\000\373\t\352\306\276\266\277\256\037\303\010\203\212\302\277\3729\370\032r\251\341?PS\024\2202\273\343?T\370\203\026\375\227\003\300\371\2648X\0039\003@-\214\375\375\2304\305\277\211\002\326mD\024\005@n8L\024\220\201\375\2778O\356B\320\005\013\300\273\206\354x\376\212\267\277\037\335x\302\207~\355\277\331+s$\032\307\355\277\271i\306P!\"\351\277\311\220\001S\006]\013\300\370\234C\3058\234\301\277\002\241!\350\370\006\254?\245\343\027\245\253\021\355?7\244\273yWa\273\277\036Dj\270\351R\020\300\361^/&\017K\363\277\004eU\333D\366\000\300\253PL\345Z\211\332\277g\257\236s7\317\355?\252\007\370\241\236J\302\277\n.>\335\302\031\002@;7\022ny\016\372\277\361\013\003\211v\225\020\300\274\266\r_\327\350\000\300N\265\374\220<f\003\300kn\345\024f\231\341\277Zz9\363\017\361\372\277\212\354yU\003\275\346?P\331I6\322\036\375\277\300\300U\021\207C\001\300R\2773\257\325\305\312\277R\2670\035n\355\360\277g\312ln\027\'\344?\330\270\217k\355r\317\277b\211\235 @\216\355\277#\244\004\241\177\343\260\277C\221Y<\226\360\262?\021\245C\325>u\326\277\000jw\332N\253\363?\217!\213\276*\326\001\300\204\311\377H}\014\360\277\233\257\342]\016\307\353?\254,\203\363\337d\005@A\2155YJ\006\001\300d=\014\350\320\314\000@#c\335\223\224\033\000@E\021\200DL\372\340?\257r\000\326\242\372\330\277 g\212\374\232\r\337?Nq\363E\0060\320\277i\301\023{A \002\300X\263\2304\245\267\010\300\005j\321\304E\035\005\300\237\367\326 \232\207\000\300\230\301\231\234;\350\326\2776W\227\332w\n\334\277\321\202O\210\3714\370?\242\366\035\031qu\337?\001Rt\371D\347\331?\000eH\312\332\245\343?+-@\306b\247\361\277<\014d\200Y \360?\207 k\363\236\373\373?\355~@\360\226\261\004\300P\276\376\020\001S\003\300\253\330J@\304\270\346?F\240\250`i~\006\300y!\022tZ\331\002\300\200d\2153\003\211\373\277\325\340\230_z\032\303?\363\320vp\322u\325?q\030\364\213\333\217\307?\335j\235\331\240 \010@#\365\237[y\303\370\277tYa\317\323\366\003@\352s\\\351\310\006\325\277\237z\317\201\242\312\350?\261\017\000\375l\234\301?\341\210\332\355\321\273\345\277\262\2428YVF\363\277w\276J\007\357*\336\277\314\242\264C\006\240\334?\220x\213f\250\212\372\277=\314\300\020/(\340\277Y\236\340\257\\\267\004\300\307G\023\346a6\007@o\360\276\010\020\032\265?\237\004\305|}\376\001\300\345\032\225\260\235\206\371?v\303G\276\236y\372?\350\365zN\254}\376?\363\342Rp\276\344\004@\nwCj\263\272\360?+6\371o3g\010\300\332fC\037Vc\357?q\320\246N \217\262\277FW\316\262/\316\005\300\270)\372#\270\035\004\300\316yC\234Z\357\363?2\243\200Y\256\203\356?\230\211\361\251\263\300\373\277\242\304\223\257\256\317\361?\327\240\300&t\272\357\277u\005},!\017\001@&t\320W\0177\364?J:\237kjB\003@\027\352T\361\257S\363\277\367\357\014?\\3\371\277\002\370o\014\033\357\361\277a\356\375\257\025\313\365?a\235T}s\320\004@\341\322\204C\351m\301\277\352\'\246G\241\321\362\277\024\262\300\207\253\307\004\300\227\230%\245\"\311\307?\234tnFO\377\004\300\tXw\252\365_\351?\026\216\255IF\277\367?\344\223\364\340\313\356\257\277\350R\254\206\322\233\226\277\031\007\005\246`\344\346?\304\306H\306\314\037\324\277B\003\262\300\327\241\320\277\023\032\264<m+\377\2772I\357\317\342\347\002\300^A\222\'\260\374\352?\375\324\2444\242\000\010@Z\017;j\255\205\356\277\305:\2660{1\000\300Z\310\312$\354\223\307?\3737\306]\367J\376\277\t\306F\361\334\347\005@v3\004\311\034\235\361\277\222w\207\263,.\362?I\327\230\254?\340\201\277:\366\013\'A\022\r@\t-\276\264\017\336\371\277\340=t&-\035\r\300\320\027\226@Z\267\373?\004\353!8\360\206\301\277Q-4\036aH\357?\374\225\007\313\264x\004@\3748\215\014\325\253\371\277\341H\006s\002Q\016\300\271O\270, \346\365\277\006\340\027i\227a\240?X\257\235O\203F\354\277~\010\022\257\272J\360\277\3114~\2539%\306?\332\237\272\357\256U\304\277\200\027\006\324\231\363\355\277S\214\035\034\261/\352?\341Z\211\230\014\332\370?\246>\222\313\323\025\345?\\\262{\362\335\350\367?O4ifvT\367\277\037\232\260\353+r\303\277\335\251\355]z\302\352\2776h\177fk\027\353?\235\017S\256\240\024\010\300\253\230\035\213\336\r\000\300\013L\350\277oh\365\277\312\356i\340\346\204\367?#RL\330;\224\325\277O\262\345\306e\022\365?\030\370\340\236M0\004@\344d\267vW\316\344\277\202\335\310\275*y\317\277.\256\\\016\027\005\347?\343\267\023|\243e\374\277\214:\235\347\344\345\006@\n\327\246\036\223\210\361\277%\263Tv\327\304\n\300\370\230\220\210\352C\330?;\017l\r0\262\267\277q\006\346n\336u\364\277\214\030B\t\300\325\252\277\377oj\351\3643\372?\202\014\314\211}\274\300\277\323]=\006c\314\356\277\331$\036\024\250\256\000@\267B\225\376\350\365\322?\2670\232\246\251v\346?tjv\240\337\321\345\277\n\262X\242$r\371\277Z\215\2604\212O\004@,\021H\331<\353\360\277)\177[.#~\005\300\365\316\301 W6\361?\355\021{4g\374\374\277i\010\230\242\3376\360\277\232Ww\325R\375\377?cA\274C\226\373\376?t\305\252j\357\260\374\277\212t8\252\023\033\002@\321mi\022\300n\376?c\270t\247\365e\005@\214a\335\214;@\272\277V*>i|\213\344?i3\211Y\010\303\002\300]>]\240+g\023\3000\\\024\315\326$\362?\252\302\004\210\302\\\375\277\347\220\332^\366\355\347?\\\371\270\0021\n\362\277\013\303\001\300\215\334\353?\250y\326\\` \332?\312\313/\002\324\031\303?< \205\025\321\313\364?[\235\220\220\261q\006@\'\262\324q\2066\313?\274\317\300\3524\341\360\277C\335\220\333\271\n\t\300\017=\006\226\327\266\021@m\217\316!@7\370\277\304\\\n\263\274\007\323\277/\002\200\006\206\031\340\277\334,|8e\355\305?\007\264\027\311\202N\003@\231\256\235q\036\350\350\2774\366\220\226\213\377\007\300\264a\342\305\021}\370\277\334\303\315X\006\335\271\277\325\271\237bS^\t\300*\266\000\005\246\266\322\277\250\344q\316?w\323?\221\265\355\374U\004\357\277\032-\266LeX\003\300o\316I&\343\330\375\277x\227\344\302\234\202\341?\245\304EqA\256\353\277\302R\215\026sT\361\277\025\010!\262\253j\001\300=\220,\022\311\214\372?C\234\266\255\313\260\000@-\014i\367\355\r\311\277\270\371\257=QD\005\300\210;\220\243{V\000\300N\006r\016a\016\n\3005z\310\330\004\267\t\300\240\032\274 #6\342?\2448:L\224\270\343?lNK\200\340\343\371?R\006v\026\301\346\370?\244Q\231\332\242:\305\277D4\326\301\320s\345?\033&\232\267&\277\350\277\264\032`T\326\235\320?\3203\224\2077\267\007\3009\272\272\'\203\375\340?\375\244{\313\'}\376\277lD\004\007\265r\342\277\n\257r\014\231}\311?\210}\352\252\330\247\010\300A==\017e\307\240?\004:\357\247\362/\342?\343S\304\330\376e\377\277}\334\360\321\263\022\315\277cTp\326 k\000\300^\317\376\177W\204\006\300^e\246\000\272\266\356?\344C\350\333vS\365?\351\355\205\222\3545\356?\0220IgV\243\363\277\254aV1w\351\361?I\376\034\350V\216\373\277\2245\034o\241\000\361\277\225\323\203\272\000\265\376\277\373\334\3220\003?\372?\207\3408|o\373\002@\376\264\366\036\347\331\007@\2418[\036k\000\342\277?\2055\327\226\312\241?\312\177G\307\250>\006@\0133\243\230\022\324\360\277\314\035\314\034\235\332\271?2\231\017\303\344I\325?\336p\036\333\013\224\357?\032)\364\nS\247\n\300*\377.\312W\245\005\300@DF\300\035\207\321?\234\272o\266\225\327\004@O\307\320\362D\t\226\277\366\206\265X\006V\372\277$\226z\362\233\256\362?h\021\314\364\036\342\325?\366\352\320\200\016v\366?\232\236\023\017\242D\006@\262Iq\217\233<\004\300\321P\224 \335C\007@\270\267\203-\007N\371?\242\264 $\334\273\326?\370\204\270\033\237\024\375?CnL\013N\311\364?iH8\311\034$\347\277\225\200\247r\301\"\315?_\342\230\324\022t\000\300\003\220\316~\327\272\307?\003\262>p\266\242\366?\200\030\2758\231\355\t@\335\336\260G6\225\322\277\224\327\033\211:\324\006@\223r`\213\036\004\005@IQ\236\364&f\245?\306j\231#;Z\000@\202/\177\223l\217\377\277\177(\212\261\252\315\356\277\261\226>|d]\002@\2719E\037]D\002\300{\255-sY\266\315?\365\364|\202?\252\275?\323\213\250\205\023]\336\277,\370\325\243\001\201\275\277\221\262\311.U\000\002\300\255d\365A\361\377\377?6\206pF\207:\277?\333e}\017\220\227\264?\260\363xv`\370\347?yA\330x\251e\331?$\035\021\235\317\341\372?\361?c\227Y\355\005@2\026\376\363\030^\001\300\036evE*\371\375\277\t\2562\313>\256\007\300\036\360\376\324\353W\376?\336\336\307\035\354\020\343\277?\210\224st\353\002\300R\330\366\361\303:\n\300\037a\255\361o\323\004\300\373\206.5S\217\340?\315\246\365a\347a\361?\370A\267d\343\000\007@\371\014\027\353\030V\271\277\".\354\350\275T\273\277n,\226\217.H\312?J\247D[\231_\340\277\216\2203};\274\370\277B\3011\240\301\255\341?\313\2021\'\261\005\376\277\330]\377#\353\t\364?\021[e\355\336\263\370\277\245\216\257{\343T\006\300V\2057Aw`\030@\272\022\343]\002\021\341\277\362\312\025\220`J\366\277\360w]\004\267\201\337\277V6\030\216\363\234\007@\363C\357\231\0331\371?\230\240\022\366\211\322\366\277\266U\255c\217\207\006@\336u\200\334\025\"\374?\013\372\224\232e\332\370\277\223\034\271\2121\341\010\300\020\313$\251\037\356\375\277\307\312\341\013\252T\000@\023\253\177\000\341\334\363?\225\024\211x\322\202\326?6\0078\020\233\310\324?\330|S\302\2131\361?gD\216\336\231q\263?EXFo\262=\363\277\224\217J\306\370O\002\300c>\205{\313\303\347?\353\324\314\243\347\321\366\277\256^\200C\232\213\363?[GkU\nn\010@\327\tkOz\364\347?\rV\014\327~\032\001\300\203\014\016\235\377\001\376\277\177\330\330)\242m\365?\250\246\212\331z\003\356?VR\335\3771z\350\277\005\3345\177\210$\370\277S\037\361v(`\351\277\375v\200.\275!\231?\003\375\201 >\275\304\277\2132\266\206\340>\357?\213\364\241Z\266\310\351?\271\255\320\022\031\344\325\277`\346@\177+\233\365?x\256?we\002\365?\274\313\001!\'@\000@\270j\361\270J\032\021\300\321R\375\002\205\216\007@\203\016\003\245\021\243\375\2773\033\311\316\212\'\000\300\370d0q/\274\301?\275\343\262Rw\344\350\277+\204T\21080\007@>\305\200\246@t\215?\210\252\021\237\206\357\370\277\027\203\224\247O\343\370?\325Fb\234\260\307\373\277\320W\230\232\274\340\220\277t\004]x!h\357?\027y\256\033\003q\007@%\267\"\205\370u\255\277\2306\301\013^\241\006@j\232d\374\326X\371\277\320\252\262\274\343\257\340?d\374\240)\\\313\326?:2\200\311x\326\374\277\350L\231`\221\312\367?\027\027\276\242%\332\324?\360zT\335r\355\014@\211\002\256\002\177\343\264?\243\356@\212XY\000\300\273\343\220\354Q\n\331?\207\005qO\263g\367\277\334\371\\\257\365~\000\300\206\376\276T\306n\355\277\215A\271\270Qf\330?\323\233\310\034`\014\004@\2674\305\375\222\n\355\277\266\357\216\271\265\374\372?\341\256\341\3648\377\370?\227\231\312-\373\342\004\300\272\203\236\365\347\257\303\277\375E)\035P+\014@\370\034]=\307F\333\277+\334\344\267\007\246\340?\321N\310s\342\304\010@\303,\222\210\001\317\004@\027\257\225\244\311\224\374\277\305\\\252\242\201\331\010\300\367\026\301\227\301\023\366\277\006\257A\3028\205\376?\0378\000\020+\261\365?\320\371P\243\303\231\007\300i\204\357\\%\241\342?s\256~\323CY\372\277\256\300\330m\004j\376\277\310j!Ey\r\273?:q\364[T=\007@t\365\256(\014\342\355\277\212{\321J\022\324\t@\272\360Q\213\262\351\332?\212\242\241\251\024\377\366\277\234\353\265S\032G\372?}\341\225<:\\\364\277\274$E\212\354\276\265?i\005\201\213\204\225\366?\0311\347n\013d\374?8\213,Q\363\213\361\277y\202 \206Wg\367\277\225\206+e\312\347\372?~\366\371\002B\322\363?\220z\214k\374B\365?\332\376\355\322;=\014@\261\247\013\3205*\001\300\307O\207\020\237\343\364?\247\351s\216//\362?#\201\243b\355\331\362\277\211\243\"\272\305\034\370?j\032T\210p\351\364?~H\345~d>\343?\217\246\002\307\305l\001\300\035G\2600M\014\005\300\345f\371W\210\305\301\277\334f\334\232&u\365\277\255\231Rx\351\350\003\300&\226z\342\005\330\377\277U\364X\250\231\335\364?w\247\017\266/\247\372\277wP\247\251\372\026\346\277Y\247h\342\357\205\362\277S\216m\242M\204\020@\360\217V\336,(\002@<O\310\232\362C\340?\266W,\226h\316\007@\027~)I\3627\363\277^\304\351,`\016\362?\010\244rU\225\026\255?S\010+\026\352\233\344\277\027\033\370.\352\272\335\2775V\321\'A\260\377?x\352\370I\251\203\003@bF\\\310I\275\005@\224+s\340\273\316\342?\354*\031\363\207C\361\277\257\003\316\317*\302\354\277\227\360C\030\335g\364?\230\003/\301\034\033\332?v9\254p\260\324\001\300\370&\030tg\222\001\3008s\335\271\255\250\341\277_\230\361\020\203\024\374\277m\000H&\365\331\300\277\004$qTNu\325\277\235v^\3015D\352\277\352z\311\365\267_\003@pC\321\233\006\352\365?\242\024\270m\263<\305?\2566\363\330\202\201\006@\355\351d\3614\250\031@q\027\361\242\346{\006\3002r\264\330\236\223\320?\010o\277&\326S\373?\255\254\\\302B^\360?\321\374\352\r<\276\274\277\210pT\223\026|\305?\311\307\227\233\202l\350\277\025\232\225\355X\222\032@F\035su\323T\010\300H\031\010\017vd\362\277\362\005\274z\261\255\357?t\241\255\025Z9\370\277v:B\366&\243\365\277\327\343F\310\263=\363?3\244\236\305QP\363?\253k\263\212\232 \351\277f&\321u\350%\000@+\246^\\\342\344\303?@K\333\316r\224\000@Ly\355\345s\270\004\300\345\236\332\222@\237\363?\203\255\022\307K$\031@\004\212\235\177kU\373\277-\017][v\327a\277\327\317\010\371\323%\021@\235\233^\342L4\014\300q\250T\346\314\206\364\277\'\366\334\261WV\247?\202\307\271\250\372\356\333\277\236\2632C|s\377?\002\306e~\360\201\004@\301\016\227\031Qj\334\277\305\335\220\311N<\020\300w\'\001S\335w\242?\250b\260\321\262\323\002\300\301\001\263\217\035\354\010\300}\300\033\023A\353\000\300v\360h\016=\375\354\277\331 )\354;{\003@\224\251\234\323\357\364\362?/>f}S\304\006\300\340\n\242byv\265\277\207\000+\337\371\030\355?F\033\205\305\207\342\016@$2\037t\307\007\377?^\361\347$\251\231\270\277xy\372\2057\370\343?\017\351\234M\036Z\020\300\035\235\250\335\020\001\365\277\375V\366\254\023\216\315?\311\026(\032\314\033\007@\315\331)\235\273\257\336\277\320\316)4\017\271\364\277\207\257\311>\'7\373?\313\265[\307\025\277\351\277\363\001\241\207\306>\353?TP\371\371)\337\366?\252\316s\353\253\245\246?\35091\337,S\343\277\377to\227u\007\360?\354\315H\375\014\225\007\300\275hX\266\230\006\023\300"
      }
    }
  }
}
node {
  name: "normalize_element/component_4"
  op: "Const"
  device: "/device:CPU:0"
  attr {
    key: "_output_shapes"
    value {
      list {
        shape {
          dim {
            size: 749
          }
        }
      }
    }
  }
  attr {
    key: "dtype"
    value {
      type: DT_DOUBLE
    }
  }
  attr {
    key: "value"
    value {
      tensor {
        dtype: DT_DOUBLE
        tensor_shape {
          dim {
            size: 749
          }
        }
        tensor_content: "\'\354\274t\262\n\004\300S\320\027\205;H\316?\346\013\354\3008l\021\300d\026\226\006\364.\320\277\254U\223U\222$\372?\341\277J\244\036\222\342\277x\244 $J#\362\277\233\237\022\357\010W\004@\032\270G+1\032\003@\333\222}\270\024\000\350?/\242\354:\211\253\361?\341\273\3338\302\301\343\277\220\226\312\240\210H\000@\335\372\342c\272\371\000@eM\212SH\214\357?k4RYBG\364\277\022A\240;\021\365\337\277\323\305\037R\017\233\323\277\301*2\360_\267\020\300n\245\2621\212\207\322?\271\225:%\253\263\365\277\276\300M\315\003\022\343?\334\035K\273\r^\321?,\331\275\tx\"\242\277\003xO\003Wq\317?\366@\360\301\355\345\360?y\033\223\335\016\217\346?\333\315\026\244I\036\372?\177k\224\237\263x\321\277\262\357&W\363X\301?\330\251\227\312@e\211?\260\201\230Q\250\352\321\277c\033\024\353\337A\253?Yd\'\213\362V\353?=\250\026z\267\244\306\277\004\364\317\224|+\344?\331X\326\241\250.\361?\036\264D\341#\312\317\277|\374\215\023\364\207\300\277\327L?;sd\336?b\022\272\243\247\266\344?\017\341&\204\303^\364\277\373u&\220\037\230\322\277n\333%\245\024N\016@\014{\215\346G4\350\277\346\370s\314\201\222\004\300\340A03\327[\336?b\261\246\315\350\304\007\300i\362O\211\236B\351?\315\r5\016\274\267\334?\233P\310\204m\022\016@\357y\355z\333\321\343\277\347\020H\226\037\177\334?*,q\366\275\222\372\277\233\316\306>\'\374\374\277\032\303*oVF\004@\360\240\346\004Z>\310?\324\220\2250\316u\004\300\"(\025\270~\361\370\277q7\30158{\241\277\310\214\017\224\256W\010@\004\266\325\316\t\245\341?M\214~\245\320\315\000@\327\273\205\177\372\227\004\300\374\217\020W\232\350\346\277\024\254\\\241/K\347\277IA\300\301\227\016\275?365\3469\206\370\277\257\254d\314U\332\000@G\332\347\233PX\350\277-L\017\210\367\347\326\277n:\2060\010[\313?}\005\304N`\202\355?\212\'\207\366\231u\320\277[o*\363Ca\005@\236\374\003\314\251\234\360\277mcR+,\014\332\277\376\020DN\337\270\n@\317\252\023E\212\002\314\277\347\244\027\244\t\310\003@\317\374oI\342\007\324\277\221\342\330\337@\231\350?\021\263\344\304\005\036\225?\226C\240\333F\001\377\277\274C\376\275\230\355\354?Rq\004\023\252\235\342?\300\337\220\237\342;\r\300\304\340 \3642\256\007@\307:\317+\203\204\332\277\210\342l\324p(\003@W?\030h5N\370\277\3363R\323*\005\250?\214$\370\204f\262\362?\274\377\020\341v\244\376?2\230\240\221+\357\345?\322\241&Y\362M\350?@\227\242]8\243\363?\014S\327\314\212\246\005\300a\302O=\276\276\357\277m&\222*:\214\340?\322\027\270\212m\206\375? 8\035\215S\244\003\300 ,v\271\031f\334\277\315\262J\312=\330\374\277\236\374\213\377\265S\006@\355-\016\261}j\346?o\325e\365\251)\310?\244\302`\321\013\001\356\277O\\\334F\362\210\007@\201.\036\327\250\342\004\300\036y\314\223.Y\363\277@=\320\371V\300\t\300\314\361\273\010\301\310\005@+\3374P\355\337\352?\354\036\203\374\214j\344\2770\031.ykI\371\277\3005\263\343\0009\356?\0230\302\023V\310\372\2777\267;\032\331t\347\277L\273)\026w\315\316\277\316\363\n\275\243\376\366?g\017~Z\034\205\334\277R\3332\204\235\252\344\277N\334u\032\002+\341\277,\014\325Yuc\006\300\320^D\314d4\331\277m\310\231v\"\321\345?\226X\324\007\254\203\250\277\024\240\355\275\371\305\327\277\273[\302\030\033\327\355\277v\3347\360\336\305\223?\255\001.U\206!\356?\341\200\026.\363!\017\300\340\265\216\177;\262\364\277\205\026nq\360\302\366?;\324d\265)8\364?\234\341\010I\247\275\361?yd$\026d\034\363\277\245\"\212\373\270\314\342\277x\205\305\307\3404\371?\323=\347\315)\231\346\277\256\265e7\307\001\001@w#\262\001|4\010\300\017\365\014\275\343\344\366?]\321\035p\224C\376\277.\236\367\244\356-\322?\213G\354\013\027\334\003@\326\217+t\320{\360?\330`\200r\254n\336?\250\t>W\020\306\361\277.\247\320YsY\002@69>\217\270:\377?K\327\345I\316\010\370?d\203W\327\346y\346\277\017\343\016\240>I\343\277\267\235\230\345a<\360\277\244\236\222Z\023P\366?\247$\370\222|a\323?\002\243\340.\026\341\361\277\242l\"6\210\222\307\277\331\364I\306\266d\303?1{\315H\254b\337\277\007\033_\351\211Z\003@R\025\177\330\237\033\363?\304\000\3033\260W\003@\255P\213\202\321G\361\277BI\277\201Os\353\277\306\'\nc79\360\277\223\200\302\261u \367?.A2I\373\326\333\2775\301\025\303\362\353\004\300\274\232\240\242\206D\366\277\263\255\254\211\335\271\363\277%Q\362D\202J\274\277\'\357\311\3409\322\324\277\331\316\204m\326\037\334?\334!\2738wR\255?\236\345\326\225\360\006\322?\"\n\"V\225\251\361?2\271\265\265t\206\006@\355g_\373\366\351\004@U\271\246\373\nh\247\277\357fy\253\207\000\010\300\332\213\257/\306\036\332\277S7u\247\262\321\353?\344\273Z\243\265\352\251\277(F\030\336\265\341\341?\000\315@\375&\321\346\277\371Yv\300\'\256\004\300&\337S\n\203\241\373?c\272Y\250\253\214\350\277\270\236\246\253\"\260\007\300\313\003\352\000>\315\327?\024eA\263\360\343\307?e|\331\010l\302\004@\342\343\002\\b\255\335\277\335oF\255\231\025\322\277\253\310\242\304\2670\334\277\367\321y\354[7\353?2H\265\035\036H\361?Dx\323w\351\300\302?v\327\370\010\304\226\356?\270B\374U\327\032\005\300$&v]u\257\003\300\023+\354\t\2542\365\277\203\223\266\376\254\244\372?\255\234K5+\347\002\300=\005\334&&$\321?\372\2764i,\265\371\277\262H\030\000jy\377?\257\353\363\217\375%\372\277\177\210\304e\210\351\004\300\245\250\211\254V$\325?\231\261>\312\r\277\354?\223 \014G\320\306\351?\262\356B\307\2676\336\277\332M\303\262i\340\006@+$\354\343s\355\335?\305\352\245\004\222\225\335?wX\371U\234\262\366?\233\343\361\244\275\236\000@|\334\'\241QT\n\300\350\220:\270H\236\354?\212\031\345\236l\010\342?\354\377\214\264\354x\363?q\003\357,k\230\003\300\232\240\311\346S\307\000\300\350=>\233-(\361?\000\253\317*\005p\321?\240\010k\t]-\376?`k\221\213\274_\005\300~\333\352 \332&\367\277K\010\3702\326\212\001@\354)]\253\036\317\002@k/Q\357\227G\332\277u!\213\026\301\014\362\2772w\265`l\205\327\277*L\354\342\241\207\t@J\341_\201\341)\361\277\260\212\r\033\360x\361\277\351\243D\344J\364\256\277 \r\201\327\331\005\371\277\362%5\003\304\206\340\277\357\227\241\242\271\336\367?\367\365UR\274\354\301\277\2661\261/u\300Q\277*\346Lk\261\030\331\277\022oFu\224\251\335?\003\031{oMT\317?\037\036\275\236\370\340\001\300Mjd\003\267\206\340?u\344)\231I\305\365?\336\370a\003\370\256\366\277\255u\243\211x\016\357\277\340\001\266\277\342v\334\277E\\\220\271C\316\343\2779\247-\014R\312\307\277V0\003\367_\360\372?\326BN&yw\341\277\001?\254\271MN\330\277\337A\235\375H\\\360?I\235\343\331;\022\006\3009\371l\357OX\004\300\236\370S\234\261\021\360?\364\321\325\203\004\243\350\2771\232\023nT\004\014\300\236/K\021\254R\342\277\313\352\'4\237\031\350?\\_pb\n\002\350\277_\351\262\221H\304\003\300\220K\371\023iz\266?\t\032X/=\226\341?\031\354Go>w\370?\252c\263\324\300)\340??\371\321\322\230\362\007@ \333\330\231w\000\004\300\304\033\315\272\2510\000@N\034\271#\356\024\370?\016\346Jp\033R\n@\376\331\002\247\003J\241?p\\\245jI\265\354\277\227\235\026\307\3559\362?v\200\372`\360\350\326?\245\246\371\325\037@\342\277\256X?).(\003\300o%\220Q\323\327\354\277w\222C\025_}\354\277\332k\352\237`\234\366?\226H\033~\231\027\322?\3109\353<\334l\333\277e\215\330\372\362\207\003\300\351\252\355\3715\235\361\277>\375\316\252\\\265\337\277\376;\263\364\257V\324\277\343r\020\222MG\376\277\370j\010\363w\260\333\277\017\336t4\273\221\367\277{\3005\367\036\337\003\3003v\257\203\201.\373?\320g\275\361\221\267\364?\377U\000b\024\373\372\277\240N\276\260\033s\372\277x\025{\3240\005\375\277\301\032I\230\363\n\002\300\312\351r\351O\027\370?\374\270`l\037=\323\277\252\215\265\336#4\362?n\214\0244\200r\336\277\304\352\313\362\231;\371?\035k\024\334\251J\343?\256\304\242\005\343\004\n@v\212\'#\376\320\273?km/\037\025Z\342?\240\027~J<-\300\277\375\272\302[\316`\361?\302\240\377\010\231T\300?\341w\301\217\303\312\003@\003E\226\371\tJ\365\277\212\025\221\033\232\253\376?\232\303x\021Q\224\346?\204H:`\001\022\264?+(\002\211\330\350\303?+\263\200\256\262\221\370\277\010\243\257C\227`\331\277\212\367\201kM\264\372?Z\303\257\257\226\027\367\277\215x\266!\262\247\376\277*\214\260CUa\355\277[\347\351\234\260\305\255\277\212y(\356\246r\322\277\220\177\311\025h\263\023@\017\266\213x\341\007\260?@\211\254U\216\016\t@\"K]h\320(\002@P\200\354\371/\371\364? U\013T`n\374\277\256u\327-\317\241\264?<B\241\r\326v\023\300\324\377\312V\032\327\014\300\013xB\000M\345\337?\034W\233\246L\211\362?\361\367\237\r\233\355\001@\242+d\253\020\363\360?\301\237\006\341\265\031\003@\307}\253-\2564\345\277Y\\\300\337\371\230\000\300|1\000\213\223^\360\277\366\243&\214\214\314\014\300\202\020\375\226;\242\344?\216/\246\227\217\331\372?\311\324\345wqs\364\277\372\256\315j(\250\343\277*\371`\336\204\207\n@j\363\214\2121\t\007@\'\352\303p\254\030\363\277\317\350+\033{\317\351?\372\341\313\314%\237\364\277F\244}\273\365u\366\277\304\337\256\340\317\234\331?\220Xe\036\303\362\t\300\001k\333\257\345\305\341?\325\367XG\263\n\003@\213\355\035\0072\033\242\277P\247`\310y\315\002@\365:\351/\216\366\343\277\256\226e\017\206\022\357\277\3705 \252F\266\004\300\252b\301\372\252\020\365\277\250\322e\277\205r\343\277\224\336\200Ad\216\370\277\313\203A\246\031.\006\300v\360t|\372\245\373?\311\022uMV\014\340?\231\014\306\301\353\211\305\277\310O\317\330\332M\352\2771$\347-\274\227\000\300Q\307du{2\246?\356\250b\315\265.\345\277\322\033\265iFf\373?\355V\247\304\005%\277?H-\001\026y#\345?\022[\004\372\225A\325\277\252\374j\351\304*\002\300\317\211\250\266l\375\345\277\216h\332rR\266\326\277\014G\265\350\016\004\344\277$\343\210de\206\337\277\340\217\005|I\313\327?\315\367\306\364\267\260\314?]\207\005\262\036{\325\277\336\215\\\332s\265\370?\353\317y\006-G\353?]\220\006 \032l\367\277\177k_H\206\004\017@\303\366\211S=E\344?{\235p\321\270=\303?9wu\313W]\303\277Q\344.u\\\215\361?\365\261|\371\341\022\002\300$\346qV6\013\002\300vUyH\034\361\345\277z\367>\027\275P\323\277\305\224\003(\237f\n\300qm\304\345\023\017\376?`=&\307Z\354\342\277\374\320d\277\364\202\340?\244\004\231\350\375\346\371\277\371\327a\221q\265\345\277\251\300\260e\342>\350?\207sc\223\250\005\010\300\212\240\016\007\246\307\313\277P\320\206~\201\356\365\277\2112\002}\321\r\361?\t\\Hl\261\336\360?\225\310\"\272#\211\307?gO\232\333\311\320\316\277zW\352:0\207\273?\231\357p\331\325\234\367\277\341\264\311\306&\364\335?%,G\3339:\316\277\325\031G.\007y\263?\244\260\235\001~\356\010\300.\036#\010.\234\363?\033Dx7\035\337\303?Oy]\001Ug\007@\323W\301\307\202\213\347\277R\026\366\236\220V\013@*BV\010\212\315\331?<\242\260\355\\|\331\277:\315\347\361\237$\004@N\247\262G/\244\351?\364;\025\371\243I\275?Xz\227\246g)\353?\354U\317\376M\256\013\300\3579x\346\210\004\001\300\037w}y\303\224\376\277OTX\366\367\245\343?\315\227$\001\225\006\342\277\331\344;8\336\365\371\277\231\255\202(H\355\314\277\2500z?&\316\354\277\353I \317\356\335p\277\217/\316f$\223\005@4VE\320\316T\257?r\2020\3234\177\270\277&V\3309z\275\341\277\\Z\303<\334N\361?\367\024Y,^O\005\300\241\0366x]\365\315\277\357\217\026\016%J\335?\342\364\236M\034\227\311\277v\035}\316\334O\010\300\221\021\207\n&k\377\277\200\323\316\212\364\375\341?\327\330\223C\273)\001\300v&\306<\310s\007@y\214C\365+\353\364\277g\034\217\311\004\000\263?t\2414i\366\253\371\277\206\326\242\2336%\375?R\266\240\367\"f\363\277\265sR\035\177C\365\277\277hp\350#\370\362\277\210\276e\260G\337\006@\206\320\221\330\376\250\004\300\236\234\036\311\222\237\302?\270\301o\200\006)\010@\010\023\234\006g\256\003\300e\253\3147\032i\355?\214Uv[\202\023\002@\035\3724+\032L\363?}\357S\305\324\331\353\277\3173\215\254!E\354?(\3047X\355\r\311\277W+\007\253\302 \351?\032\320\364\"\323\014\020@\356\343\217\274H\263\366\277\302\250\261\261\213K\374\277\250\240\223\t_\230\366?\325\307\304{j\212\346\2775\020\r!\014\300\302?\025\265\nU)\236\260\277a\t\212\221{\350\346\277\310b`\324UC\013\300\374\215\246;\222\353\330\277\032b\273\345!\351\347\277\243\017\361\320i\225\341?\243E\031\233\311\302\367\277J\024dn\351e\304?\253\246\234\362\014i\006\300z\346\261\3264*\r@^\231\307\201d\377\366?\367\353\021\305\252k\320\277\226\005\345W\273\020\335?\235\310\326\031\366d\217?\212\267\205\370t\001\365\277m\333\277\265\262m\363\277\257\354\345\370d\035\343\277\203\310\366\257\270\233\006@\2546\305\020\001\177\007@h\240(\265\367\350\303\277\221V\027\366\276\303\003\300S9>\302\315]\345?4\315\314\201\n\332\334?\253\340\316\242\202\312\345\277\212_M,\3323\300\277\257\244\002\331\337#\351?\350\034\000\006.\317\371\277\376C\240h\303I\326?g{F&\322\"\377\277\207)|\376\321\027\373?\023\370\320\021`\321\303?u)\225\023\362\240\343\277^h\2038\037C\321\277\211;B\001\353\354\374?\272\226\331Y\021G\340?\361\264g\317\232U\n\300\202P\234w\302\243\004\300\250 \363\316\002(\344?\340,\355\311\214.\266\277\370?7Z\021\273\250?:\234F\333\342=\005\300\363_\312\204\211\206\370?aA2\310\2043\332\277\345\337y\241\t\242\004@3]\222G\330n\372?\2375\305/\374\336\360\277\317\337EF)2\364\277\276\353G%\374Y\003@^^\317\014k9\372? \363\220\364[\204\360?\260\365\211\354\016\032\366\277\232\350\210m\306\214\274\277\177\006\341\322\323\004\323\277\3657K.\032\370\005@\344_\212\016\231\265\373\277#3\r\374hK\t@\236?\277\234$)\004\300\363\222%\322,\223\311\277\225\265S%\320\025\361\277\3063\013\205\216\300\316?\000l\207^\250\025\264?v\317;\222\036\237\343?\"Q\270.Yx\004@\2225\202\010\251\031\352?\255FR\375\242\272\t@\344\357\035\330\340\221\317\277buo\tL\376\371\277#\035;.A$\371?\220\267\016\354\336r\377?<P\\\007\271\247\366\277\353\r\342{\364\241\004\300\224fM\243\326\034t\277\233\n\223m\267\310\312\277b\234\266\020Z\267\351?\037\353\344\201@\352\230?\353\376\374\263\266\207\357\277-\310\244\356c\n\337?\321\226\325\202M\213\376\277\260Z\372\374c2\234?T\205\357\256\037\306\371\277\264\352J@\260\273\346?\352\016\262\277\240\320\336?\322\027H=\005\250\360\277\334\354\027\033z\304\341?\272\324\014\314\277\275\365?\236\036\276q\023\325\000\300\2307\320\373\213\210\336\277\217\013-\3006\230\365?\343,f\220\324{\006\300\345\236c\022\314g\375\277@\237\254\245\0241\001@\334.\326K\265\376\345?y\2220\373\331\242\350?p1\'\235_X\341?E\345\006\326\340\217\006\300\343\005\331\264@`\006\300\212!\367\301v?\256\277\326\362\031\356C\274\240\277\354\306\377\216r?\367\2779\301i?\2464\000@z\006h\006%\226\370?\352\347U\337\224\240\365?Mu\234\001\n\217\365\277\246f\377\r{,\351?\241\231ZE?$\007\300\253C\242\005\356\'\001\300lq\236\256@\\\305?pA\010\340\234+\010\300\225\204#\"\221\321\257?\3450\030\022\206\226\313\277\312\207T\006fV\377\277\nY\357/o\006\376\277.U\342\033+\215\364?|\263\330\254\tK\351\277MJ\3009\223\351\374?\301\312\221\312\320\360e?\031\223\215X\303Z\364?RVY\232\204J\267?4\206\214\357\223q\357?\024:\010\023\230\373\363?\"\367$\332\374Q\307?Gf<\244\222\217\370?\302I+F\036\027\350?\320\262X\023\002\344\236\277+]\362\003v*\326?\337{\301\204M7\025@2\364f\215g8\356\277\272\026b\345x\022\002@Z\317\330\034\032\224\242\277\360z|\010\320\337\234\277\212(|%n\220\376?\235\205Z\375#\337\354\277U\"B\266\027\243\304\277\016\254\306\3618U\354?\261\030\371l\017\226\000@\262\244\247\035\002+\352?\342\276\231J\336\300\247?%o#\022\346\033\342?.\017H\377\354\265\321\277A\2740%[\215r?\237\313u\001\372_\341?\257\002\350v\353\333\006\300.S\247y\342\362\377?Bh3\243\350\221\300?\311\177)\tYC\241\277\302\252l\226<\374\000@a\024\3635\177H\363?g\210\222\351\276;\001\300tf\330 \307\310\324\277\311\220\352d\301\260\361\277\353\211\004\365o\026\000@Y\216\332\212\022\222\005\300\031\024\356\210\253\236\357\277\002\234:u=\361\352\277\027J\004\224\236\353\350\277\216\r\300\246N\264\364?G\3369\017\345>\364\277\277\3320\274\327`\002@\370\363\0206\317k\233?\004\n$2\341\270\261\277k\355\221jW\214\330\277\034\273\323\265\266O\350?\007Cl\235{#\360\277.\333\213\250\355\366\366?\340\217\222\032\363\207\357?W\334\260\032@9\361\277\236q\326\264}w\010@S=1\367\234\375\376?\364\253\014v\311<\332\277i\241\027\014\267\332\350?UU\t&^N\374?\327o\236\364\226\260\341\277w\260\004q-\210\367?B\326Z\226\004W\363?a$\246v\261\244\372\277(\010\300\001.;\340?\276~N\235|\336\340\277\232V\333\272\3464\354?\213\225\375\203\000\r\371\277\310?O\241\021\246\001\300\271\261V~\336\257\247\277K\t\337N\300\243\363\277 Bo\341\271\272\365\277\2057\244\010A{\363?F\002\t\204\212\323\370\277\016)9G\252\360\t\300\211h\231t\177o\332?\302s^\201\202;\021\300\261m\006,B0\343?\251|\277\231\037\307\370?\036f\323\342\206\205\r\300\023\372\341~\\B\364?3j\005I\220\\\330\277\220<q\235\013{\004\300n\330\331je\021\342\277\265\3352\035G\363\324\277\024\377o\230\372\305\031@\335\017\2045\372\002\000\300P6\363\231!\344\005\300\235\243\217\006\014|\004\300-(\264\030\236F\365?|\351\270k\002\260\343\277\255cQoKw\006@K\256\355P\367\033\342?\332\010\215\013(\232\373?\325\347\372\300\364Y\020@[\022\302\246\300{\343\277\310\321\377\226\371\234\010\300\255W0p\221%\330\277\013\377\345\251x;\305\277Q\343\374]\013s\352?\354\311_X\265\272\005\300\244\225\373\026\306-\374?T\227,\244\372\334\017@*\245\312\007\020`\332\277E~\356\352\020\256\320?\344\364&UB\241\364\277\355;h\007!\236\017@\344>g\200\225\022\306?\251\034\2409\203.\004@\366\374d\rqS\002@\324\374\334Ts\361\322\277T\257\335\323\027\223\355\277\032\315UM\331o\315\277QH\006\203\332\261\345\277\022\252\005\337X\315\345\277\245U\335+g\343\354\277U-1\001t\317\006@Gy\234\005\306d\001@\216\356\202\212\306\217\332\277\201\210\330\351\220\371\325?\017\267\205\355\250\241\361?6\021\265\343Pz\262?\351\032\000\262\013\037\004\300\322.l\350a\370\323\277\243JLh\322\350\317\277\333K\340|\303/\372\277\332x\236\304>\347\366\277X\013$\265\220\035\343\277]g\010\216:y\003\300;\225\207\236\311y\325\277%\276m\331\237U\022@VH\374\347\010=\303\277p\330\346\214\361\034\010@+\363\333\251\213\337\362\277\265\005\223y\353t\000@2!g\374\352\333\320?\201\203\026@w\022\372?\246\232\262\314\202l\365\277\310\303b\237\262|\321?\362~\003o\346_\336\277\266\376\236);\000\345\277<\372iO\007\017\t\300\267K\2155\020\270\002\300V\247`@\311H\010\300G\247\026\010\203\311\373?\265c\313\2324\020\000@\333\244#\361\235?\006@\270\340\027\035\336\366\375?B\304\252 L\273\r@\202a4\373M\311\315?\270\3203\247\233z\362?\352.V\257\340\216\325\277-fJ\022\030\246\357\277\333\352\320\307Vn\361\277\257\311\361$\030\276\003\300\327a\225\037\312\217\335?\213\352jp@\223\374?"
      }
    }
  }
}
node {
  name: "normalize_element/component_5"
  op: "Const"
  device: "/device:CPU:0"
  attr {
    key: "_output_shapes"
    value {
      list {
        shape {
          dim {
            size: 749
          }
        }
      }
    }
  }
  attr {
    key: "dtype"
    value {
      type: DT_DOUBLE
    }
  }
  attr {
    key: "value"
    value {
      tensor {
        dtype: DT_DOUBLE
        tensor_shape {
          dim {
            size: 749
          }
        }
