node {
  name: "global_step/Initializer/zeros"
  op: "Const"
  attr {
    key: "_class"
    value {
      list {
        s: "loc:@global_step"
      }
    }
  }
  attr {
    key: "_output_shapes"
    value {
      list {
        shape {
        }
      }
    }
  }
  attr {
    key: "dtype"
    value {
      type: DT_INT64
    }
  }
  attr {
    key: "value"
    value {
      tensor {
        dtype: DT_INT64
        tensor_shape {
        }
        int64_val: 0
      }
    }
  }
}
node {
  name: "global_step"
  op: "VarHandleOp"
  attr {
    key: "_class"
    value {
      list {
        s: "loc:@global_step"
      }
    }
  }
  attr {
    key: "_output_shapes"
    value {
      list {
        shape {
        }
      }
    }
  }
  attr {
    key: "allowed_devices"
    value {
      list {
      }
    }
  }
  attr {
    key: "container"
    value {
      s: ""
    }
  }
  attr {
    key: "dtype"
    value {
      type: DT_INT64
    }
  }
  attr {
    key: "shape"
    value {
      shape {
      }
    }
  }
  attr {
    key: "shared_name"
    value {
      s: "global_step"
    }
  }
}
node {
  name: "global_step/IsInitialized/VarIsInitializedOp"
  op: "VarIsInitializedOp"
  input: "global_step"
  attr {
    key: "_output_shapes"
    value {
      list {
        shape {
        }
      }
    }
  }
}
node {
  name: "global_step/Assign"
  op: "AssignVariableOp"
  input: "global_step"
  input: "global_step/Initializer/zeros"
  attr {
    key: "dtype"
    value {
      type: DT_INT64
    }
  }
}
node {
  name: "global_step/Read/ReadVariableOp"
  op: "ReadVariableOp"
  input: "global_step"
  attr {
    key: "_output_shapes"
    value {
      list {
        shape {
        }
      }
    }
  }
  attr {
    key: "dtype"
    value {
      type: DT_INT64
    }
  }
}
node {
  name: "global_step/VarIsInitializedOp"
  op: "VarIsInitializedOp"
  input: "global_step"
  attr {
    key: "_output_shapes"
    value {
      list {
        shape {
        }
      }
    }
  }
}
node {
  name: "global_step/cond"
  op: "If"
  input: "global_step/VarIsInitializedOp"
  input: "global_step"
  input: "global_step/Initializer/zeros"
  attr {
    key: "Tcond"
    value {
      type: DT_BOOL
    }
  }
  attr {
    key: "Tin"
    value {
      list {
        type: DT_RESOURCE
        type: DT_INT64
      }
    }
  }
  attr {
    key: "Tout"
    value {
      list {
        type: DT_INT64
      }
    }
  }
  attr {
    key: "_lower_using_switch_merge"
    value {
      b: true
    }
  }
  attr {
    key: "_output_shapes"
    value {
      list {
        shape {
        }
      }
    }
  }
  attr {
    key: "_read_only_resource_inputs"
    value {
      list {
        i: 1
      }
    }
  }
  attr {
    key: "else_branch"
    value {
      func {
        name: "global_step_cond_false_24173"
      }
    }
  }
  attr {
    key: "output_shapes"
    value {
      list {
        shape {
        }
      }
    }
  }
  attr {
    key: "then_branch"
    value {
      func {
        name: "global_step_cond_true_24172"
      }
    }
  }
}
node {
  name: "global_step/cond/Identity"
  op: "Identity"
  input: "global_step/cond"
  attr {
    key: "T"
    value {
      type: DT_INT64
    }
  }
  attr {
    key: "_output_shapes"
    value {
      list {
        shape {
        }
      }
    }
  }
}
node {
  name: "global_step/add/y"
  op: "Const"
  attr {
    key: "_output_shapes"
    value {
      list {
        shape {
        }
      }
    }
  }
  attr {
    key: "dtype"
    value {
      type: DT_INT64
    }
  }
  attr {
    key: "value"
    value {
      tensor {
        dtype: DT_INT64
        tensor_shape {
        }
        int64_val: 0
      }
    }
  }
}
node {
  name: "global_step/add"
  op: "AddV2"
  input: "global_step/cond/Identity"
  input: "global_step/add/y"
  attr {
    key: "T"
    value {
      type: DT_INT64
    }
  }
  attr {
    key: "_output_shapes"
    value {
      list {
        shape {
        }
      }
    }
  }
}
node {
  name: "normalize_element/component_0"
  op: "Const"
  device: "/device:CPU:0"
  attr {
    key: "_output_shapes"
    value {
      list {
        shape {
          dim {
            size: 749
          }
        }
      }
    }
  }
  attr {
    key: "dtype"
    value {
      type: DT_DOUBLE
    }
  }
  attr {
    key: "value"
    value {
      tensor {
        dtype: DT_DOUBLE
        tensor_shape {
          dim {
            size: 749
          }
        }
        tensor_content: "\203Z\244\253O\222\326?!\361\003Or\353\361\277\036\352\352\264\0239\301\277\214\006\257]\334\254\323\277Z\273\006\030\005\244\365?\326L7\023\021_\356\277\302\367n9\362?\323?\344\025\314EU\316\363?\027\206r<j\361\363?\301i\nu\3135\372?\262\"\022\237\005 \363\277~\272\343\366\020\177\361\277n\233>i%\263\363\277\207o\342\232\262\306\373?z\222\232:I\273\362\277\263>\327\313\3150\326?\\\017\230\030\351\201\313\277sa\202/\305\264\364\277\223y\037\322K\224\302?\345{\031\t\223\370\300?\312Y\3255\364\214\321?\264\371)\026\303\001\355\277\325\234\023\215HQ\365\277\310\3109*\313\237\320\277\315\320\304\240\323^\355\277\241\333\216+\256X\360\277\227!F\256\217\t\366\277\336\214\310\305\320[\350\277\221r\205\224&\027\362\277\253w\350\334[\034\322\277\340>B\376`o\301\277\322\225\372\263\001z\363\277\004\213\243\260\2552\342\277\303m\235T\034\"\356\277\331bqH\231;\361\277\314\327\002qU#\311\277\210\323\'\354\344+\343\277\333}\001\017\036\000\323\277\203\355\023<a\261\352\277\355\357\027\214\375\245\365?\377\316 \017\352\226\361\277,\202\334\325\371j\314?\312\236[\251\327\375\321\277\260\t\303\003[\'\367\277\025VB\003\221\307\314?K\210l\251\223\216\332?\337\0362\243\255l\361\277\372\203S\321v\347\340?\212\333 \362$6\363\277$x\227\212\200P\357\2774T\312Iz\311\362\277\231^\377KE \366\277zk\351D\347\003\373?\007u\210T\367\324\313?\204\00786\252\037\306?U\027\202\377\255\353\365?<\301u\257Z\260\371?\004\334o\325\024.\324?y\003\032t\206\217\311?*S&\244\n\t\354\277\257%\177\267\276\311\364?\275C\316y\273>\355\277~\345\220\003\031\331\363\277#<\322\366D\211\332?\021\216&\000\340\246\320\277\272\303\302\004g\350\355\277L\354]5\000\335\267\277\312R\234y?\377\311?\221Y1>B\274\360\277\024\355\354\033\021\257\366?\243\004\021\221/\375\361\277\206!\216\031j\026\327\277\253\3460\323\006\345\360\277\321\372\036\200g\303\325\277\262\243~F,\237\363?St\204\351\261\252\371\277\243`\266G\347\037\320\277s\020\313q!s\362\277OG\302\350\344Y\260\277\373\210\264\203f\004\364?\346\277\315c\366\207\366\277P\001\326\261-\220\205?R\237\204\247\263\362\360\277\313\232!&\352\346\317?p\342\\\234\304k\357\277\201\266\343\221\370\367f\277)w\267B\023\327\336?\032\241\365\330U\354\364?\310\263\200\004\006/\363\277\016b\034\250\364\004\364\277\321er\341[?\332?\260X\325Q\357\270\363\277\333\340c\332\272?\366?\007\022C\031\345X\370?\242z\321D\210\373\370?\233\3707^55\356\277\330\\!\212\305F\364?]\207\247\245\001\234\337\277\326\214\266Dr\300\335\277\312+m\007\\\250\277?\267\036\036\255{\005\370?\\p\351P1m\322?\242^\237NE\220\307\277\365ry.U\017\331?\3550\313g\227\310\362\277E\tPKUt\345\277h\010X0\223\220\363\277\026\224t4,\347\317?w\022w\306\026\210\367?7\025}\231\252\347\326?-)bi\203M\316?\010\320\013\216\346\255\335?P\352\034\327^\341\363\277n\321\005SR\353\355\277\032\370.\240\226\005\363\277\014\253\t\326.\215\355\277\373\341j\225\\q\364?\367\007\300\203\360\264\341\277\230\245\343\364\251\213\305?\216+4~SN\357\277G\300DL{S\366?\036W\343\213\036w\265\277\220v&\313\305\376\323\277t}\007\253\006\241\311\277\336\216fi\301Z\335?\276qm\025(\360\361\277w\321\221\260\345\311\356\277\256\tC\324_Z\362\277Oo\356:Vm\370?\207\341\371\001\302\264\370\2772\037\021\263\205\327\371?\336=\004\004\362\206\237?\031+\271\262C\277\321?b\260\212\2546\352\303?-d\037Pm\252\364?\354\304\344[\254l\356\277\312i\352\260\364\372\352\277\257IN6\364\252\320?\306\203\025\265\236\242\352\277\306\271\253\003!\013\364?wT\356J\351\311\351\277\003\230\377\267{\311\364\277\224r\367\370\321\234\316?\315\303_D\372,\362\277\212\010!\356\355\177\317?e\020\333\260\243\230\363\277\2405\342\334\266R\364\277\347]\306\201\364\366\360?\024)\246\234\230\340\360\277_\207\336R\304\345\322?\223o\340\256\035\256\363\277\202\313h\231\260\261\360\2776\023\370\332:\351\275?\265v\245\026\005>\360\277\221u\357\244Pd\312?X\030\346u\355G\265?\227\327\246$\030\361\362?\344\275\037\325\317\325\236\277j\357J\306R\247\264?n\231>?J2\316\277\323?\360\004\251T0?\272\364f\232\205(\353\277\2258,~\203E\365\277\362\177\343u\322\372\361\277+H\\\251\2157\364\277\251\271\261hM\000\304\277\362\356\224B:R\364\277\371\364s\021\177\263\317?\250HM\244\323}\352\277`Q\346\325\266\001\264\277\261\324\3311^3\326?~@`\262\332o\321?\206\311\352\306^$\321?\013\250\\\271e\350\306\277\341\2279\313\2166\314\277m\006\372\202\336\376\363\277\202)\352\335\r\207\304\277\272x\260`\304(\355\277[\034\265\026]\261\366?X\317\353\326\001V\363\277)\300\004o\333\257\367?D,\247\376\344\237\241?\253\321\307\233\005\371\340?\265\025)\317\376\311\315?\3576>at\307\367?kN\026\230\351e\363\277\030\r\016\t\340v\357\277\017@\320\003\331Y\304?\234`\3525\200\276\334?+\274X4\006\245\364?N\203\317U\210\303\311?\232\252\'\207\235\356\344?\367!\215c\321\210\321?\304\333\221.-t\331?\245\300T\273Bc\365\277\311\320nQ\235\314\257?t\2031\340\234\020\315\277L\305\2762M\311\365?\203\304\002P\021\035\370?\031?\225\177\034\353\363?\255M\2541\203\356\245\277\354\333\322{\037\364\350\277:\343T\347~\205\325?R\202HC\365\277\332?\206r\022#p^\316?\377\347\244^ue\360\277#\214=q\000\224\317?b\346\345\221\000\301\242\277\003\355\316\263\2627\332?}Y\247O\321\025\361?\363\261\347e\361\347\320?\344t\231\030\013k\341?\331\330\303n\361_\355\277\022\331sv\321\353\362\277\207uMQI\240\347\277f\210\005\237D\317\305\277\224\233\333\212e\255\363?\246\342Fo\327!\315?^6\241\310\006\267\306\277\035\033?\222]X\365\277h\021\207,\306\245\364?#\362o\217`\334\331?\254\341<\037\372\034\366?\330:\252\002H\274\276\277\232\320\352\252-\035\370?kg\010\014\373\266\333?\247\347\244\315\365\353\364?\022\300L\355\211gz?*\020#\356\363\354\360\2778\202\267\274\277\t\371?\242m\300\243K\264\305?\211\260\311\364\355y\327?\321\303\366\212s\010\363\277\352<c\t\224\350\265?\033\377m\007\367\213\363\277\263\266\3374U#\320?\264J\207\"L\337\357\2778\\\210T/\223\366?\255\36181\025|\372?\371\351\324\020\251\"\316?\366c\230\177\255\267\351\277|\352\314\304P*\323?r{,\370\244\231\310\277\"\221\265\236Yk\350\277\rY\272Q\254\363\314\277R\342K.\362\304\332\277Y\251\376\301\376\267\362\277`LJa\221\303\304\277\346s\213\2505T\364\277$\004\343Tc\330\313?\354J\245X\227\337\366?|\267\320&E\265\364?\031\212\\\367\264C\321?\216\023\237\313\333\252\331?H;\t\241\\\231\364\277\273M\205\276\342\016\305\2774P\222\n\350X\321\2774e\267\346#\n\372?\262\010\214\253\2033\353\277\345Z\005y\215F\305\277y\250\322\372|R\363\277\2201\375\014\t\247\331?\021<\350\362\345\220\335?W\241?g\037\033\266?\207\360_\303\3138\345\277#\236\371\300\032\330\266?8\353\3409\240p\306?\346\370^>\256\233\271?\rO\256\224\372-\326?\017\260\212\234\250K\324?\227\363?\010 9\262?\\RCc\027\246\301\277,\010\230\376\217\350\340\2772b\325\264\353D\364?\314\275w\3333\226\365?\363&\313\017\340\346\344?\223\247\262\020\027\322\357\277\244W?|/\242\273?@a\303\277\020\354\362\277G$\300JO\247\307\277\237H%\024\300\014\307?N\320\321<e\371\364?\263\023z\273:\350\362\277V\013\365 \002\267\360\277\017R\010TR\035\330?9Xs\027\021\302\306\277\300U~^\313\013\303?\001\305\326\206F\035\360\277\317q \221\004c\341\277\013\353\273w\274_\304\277.\371\362\035\233\377\307?\371\227o\335GW\365?\266\211\022\246R|\303\277\004\357\035\n\271\265\360\277\033\365\343\373aH\323?7\227B\244\277\014\364\277\310\313\356T\007?\320?v\033\371\260X\t\271\277iX\241\337\243T\364?5\216,&b{\362\277\363\257\023Ffj\327?7\313\220\320\211\357\315?\207\264/\374*\242\320?3\022b\325E\336\332?\240*\000c\255\310\337\277\3017\0262\362\327\263\277\200:u\256\205\374\357\277w5\215\003\370\211\261\277\207\333\240<\200\317\360\277\342`\230\005\263R\366\277C+\277X\270\033\364?\260\362\000\300N\276\365?\371\232\362U\203T\370?\203\333\272B\347\352\372?V\341\321\006\004]\366?\361\255\3245\334\273\323\277/\340\303xv\351\357\277>Ko*RG\212?\222\370\363\373h\252\363\277\273\247\321}\'l\315\277\'\377\316)\371c\270\277\016\267\306\316\255\354\365?\000\306\245\364PG\340?m\000\025f\033\243\363\277eliq\2605\364?&\227}\014<S\320?\020\310\n\367E\030\331?\322\251\241\353\343&\310?\020vr\252\252\315\324\277*\302\254[\036\005\320\277\316h\256\255\340\311\342?,[\356\310\360\256\364?G\240+\267n\277\363\277\204\031\204SX\306\363\277\355\366\375\207!\262\362\277,\324\324\271Q\264\314\277\300\343\225\304\347J\270?\3657G\367\220\226\336?\325P\216\014\303\232\330?\250\340A)Q\225\252\277\227\377\'\301yS\357\277\271u;\305\016\035\363\277\235\243\375\267Vn\362\277<;7\317[j\367\277B\3522\356\342\352\313?\331\230\254k\327\275\304?\330n\372\027l*\314?.M-ih\260\344?\240Hs?Y\326\367?K(C6\361W\341\277o\3158\032\333H\302?y!\205C\2567\302\277\343\271,\374\263\026\362?hIfU8\364\363?\2254\274[C\276\312?\024\305\212\207\006\323\361\277\235\327\014\325\227\366\353\277\235\355B\275\372\271\240\277\342\206\317\367\261\215\235\277#\2744\230\300\300\331?\360\230&!\276\231\374\2777\220\205\226=\245\363?G\367\303\031\277\345\360\277\2507\237/\001\222\366?@Jy\317\252r\322\277r\236NW\262\\\321?\272$\226\374E6\327?_$\3254Y\025\326\277\0070\323\246S\200\305\277\007\200*\302\343\360\315?\003\r\205R\310*\342?\203\314\242\221\362\276\340\277\316\024\027m\200\000\355\277\020\366\036D\251=\370?X\331\221\t\023\020\310?\352^\310hB\260\311?W\272\262\354P}\275\277OX\367\307:\350\362\277\341\2245\237\257\253\345\277\274u\302\227\r=\312\277\323\257pH\266_\365\277\337p\0223\273\217\306\277\003\3265\213\275\370\343?,\000\037q\017f\314?\013\251=\372J6\276?WS\205R\260\275\260?\2271;$\3375\355\277\0070\364l4n\362\277\346o\323\024ru\361\277\000\'\322\202Q\375\365?\341s\242\\\253\004\353?\005$\217\227\221?\344\277\322\326\023\336U\"\327\277\333T\271\254\024\267\364\277\213{\022O\204\361\302\277\2027\000\274\275\304\370?\034\365\271VW\203\244\277\024\331\021\217u6\365?\324\002\231\305\3671\325?\237\3106B\034/\340?\211\273\212\360\232\206\311?\255\033\355^\2556\361\277\342Vr\355\223\241\305?\343u\"\303\265=\363?\272\3157ugI\324\277Y\237\235v\023Z\260?h\243\332B3\026\343?\202\243+62d\365?\354\364\230\257\3553\257?\272\221\244\231\304\227\336?j\240t\213\270U\314?\334Gw\277\356\210\341?\336\\\261\346H&\361\277\330G\264\231\001^\336\277\340\244\017\023:\255\364?\010y\327\377=j\305\277^\033\234\000\014\317\365?\005\031&\205\213n\316?\035.i\336[\221\257\277xy\220\037\016\252\321\277\334\022\254\233B_\362?1\210v\2024-\332?\331\220\242\337\221\376\362?\306\336\270t!\377\223\277\376\tU%5\205\362?\237P\033\312\224\342\356\277\273\235\260\372\021k\373?\330\230P\306\264\\\367?\026\033G=\242\216\260\277\256L\344d.\224\363?\357\"%\020\317D\346\277\034\034\255\340\325l\353\277\\\267\257l\024\023\367?\327<\000\242\224\231\323?\326\235T\261\031\355\307?5\244Z\251\362\222\316?\307e\236\254<\365\360\277+2\251\245e*\315??\037\240\207\302)\324?\021t\344O&\274\366?\363<)M\"W\363\277\262\013\220\232\0147\355\277g\315\313\017\301\341\362?\274LMQV\355\367?\212Ro\3138\316\361\277\032\210\375\365\024d\324\277JM\252\347\204\351\367?\r}\\\311\206\356\335?:\t\006\310\360\303\315\277\034\346\345a\333\005\362\277C\264\274\273\250\361\303\277\222y\252\240\016\257\325?b;\010\007\215\244\320?\014\313z\223)\350\364\277\247}\276GF9\320?\230i:\362\261\360\363?\"\217\300-\000_\321?\300\037\202M!\025\312\277Dg\330v\022\200\336?\211FF\265\003\312\362?k f\362\354X\314?\033\342I\234\317\232\374?>\003\n:\230\037\352\277ne\253\365\320\276\363?\024\331(\336t\225\335?\237\222\266\242\000\227\315?\322w\333\267\335\210\365?\0224\242O/\034\342?V\004~\353\372j\366?;\346\343\206\360\217\364\277\236\311Z\214\363;\347\277oT\377\210\311x\321\277ZJ\267u\240\377\361\277a\327\211\264\322\336\331?1 \367F-\364\361\277\276\326\367\311\341\370\366\277\266.F\252\021v\320?[\2239u\206*\317?p\006\277}\362\022\374?\244\226,\245\242\337\362\277D\213`!n.\327\277s(k\322\221N\327?\'\025\274\031WU\360\277\260W\002\031\250@\321?\3255p\032zP\355\277~w3\346i\357\362\277\005\030\030\217\346\222\302\277ri\274F\330\275\325?\306\342\257Ta/\304\277\001\201\232\305\332;\330?\251\201A\206\226o\335?T\257\255\022\3033\364\277\004&3\245QA\354\277J\246\177V\204~\321?m\327\3640&k\363\277\3117o\276\211M\347\277\247LIiT\311\316\277n\002g\354nW\314\277\301\004\222\371#O\362?R\341\013U\200\303\371?\263\327\243~2\r\316\277-N-\373\n\200\334?\253\241M\332\021k\365?/\342~\373\342}\314?\225\302\206\230}j\366?K\236M\375\324H\322\277q-L\024\245\274\355\277Q\320o\247R\001\340?\'\324\307\002l\324\367?\231\251\024\207x,\307?=\332\200\020\003\221\370?.\'\330\205\024K\362\277M\241R\334A\241\363\277S*\031\030Ad\301\277\003\342\264\210\361\341\363?\200)\365!\222\307\347\277\r\335#\014c\217\255\277\014\362a\2722\262\225?j\025Dg@\016\364?&\372\202\005p\276\364\277Vl\267\013s\256\314\2772\366\267*\005\n\321?\331\376\243D^\021\364\277\347\204u+\005\245\363\277F\261wm\303\246\374?\314\266\263\314\037^\354\277n-q\235N\177\333?\373\323l[,y\327?\336\237\023I\225R\365?\277}L\221\271\'\362\277\342]9\371\316C\337\277\310N\200\366\325\207\320?\362\201\360\211\021\324\267\277\034b\324\350\024\370\320\277\007\275 \366\354}\227?\344\247\237#\371(\343?od\\\333\r\216\364?\212\252\021\306\000?\337?\372T\276g\227\240\363\277\237318\342t\320?\315\301\341\364E-\311\277Va\204\017\221N\363\277\032^\021\200\212\031\356\277L\313\205\375a\274\362?\362\007c\241-\212\353\277ey|\032\336\037\362?\n\203\310\254\266b\323?\036\017\301E\007A\320?.{\200\237ep\361\277m\'t\002\355E\370?\244\202\340\036\311\024\330?bD3\003\320!\331?\n\315\253\202e\277\301\277,\353\027\371c\302\314\277\31524\367\372M\367?\3342\217\367a\t\304\277\341u\200\020\330Y\303?X\006oSb8\330?\215\3029K\327\253\322?\323\364\210nS@\322\277\277\370\256\005\r\314\333?\272\t{\002\027\237\371?\003e\254y\312e\367?\312\304\365bcA\330\277\330\244\352{\250\374\361\277\215\035\314\342;\033\327\277\271\344\244\265i{\317?\257\272 *n>\366?\2328\275Xq:\361\277\322\3537\266\326\325\330?\311Y\227\004Y\300\323?\317\006\3757\000*\357\277dO6\317XO\356\277J\362\236\374\267\017\356\277\304\037H\211\203\265\354\277R\017M\235n\214\251\277\200\372\321g\240S\346?\225\2178\353?\245\321\277\257\000W\363\322\317\367?\037\363\200 \220\250\343?\257\354\017PR\335\363\277X\213B\034\226\203\363\277)\002\332y%\301\361?\331f\260\205\006\030\320?\0013\305\364\324\202\362\277\247\033\2018[\322\330?\272\016\201eu=\326?\253\230:\233\024\204\363\277\230$^*\241c\342?\272\215\311\245n\237\363\277\016l\273T\335\377\217\277*\231s\320\350\031\322?\0276\335\304}\347\333?\0146x\315=I\341\277\021.\304<g,\277?P\021\325hw\027\361\277P\362\341\307\255,\302?\336z\346\240\364\304\367?\266\354\243\276\025\346\305\277\213\255)S\377e\363\277\301+7w{k\341\277\362u\242\025- \312\277\224\003\215\226\203\202\340\277\305\257\231\001\034\316\360\277\214L\016}\177~\356\277G\363\317\351\257\366\261\277?\246B\244\232a\361?\261g\027\240\365\351\261?\234\232\016\342T.\362?\312\033\252\363\321(\350\277\000Ph\001\265\207\306?S\215\025\336:\256\346\277\237O\366\307\233\037\324?<@\323\206]E\220\277\332nt7\n\251\362\277D S\276\303y\361?\037\234\007\353\230\243\341\277\n 3\241/N\253\2770\216U\311{\225\351\277\036\216\201HhS\360\277:pK\336.g\266\277\263\272\'\2208\334\366?S1\177\217\236\331\355?4\003i\032\003\021\363?z\333\244p2\300\366?3A\245\2443\021\363\277\"\001\203>2\022\363\277_Dc\377 \013\302?z\307_*\354\252\327?\305u\2227\001N\226\277\377\034R\201\355\305\314?\200`k\371\375\317\365?h\224et\335e\334?fka\244\2137\266?,\010E\340\315I\260?\236\330\212\305\210=\225?i\220[-\246\372\343\277\332\233z\217#6\305?7\353H\277\233\352\363?\305\235\361\353S\362\365?;\367m3\303,\246\277\3444+\376C\222\206\277\032\364IUX%\367\277\262 gZ\313\037\352\277L\214\305Eb\272\362\277\376\356\023\363%G\363?]_\033\235gq\277?{\036\273\363w\271\362\277\245a\374;QP\373?\362\326_\206\007{\261\277\275\343\243Y\225\337\363\277\313TqJs\350\363?u\245L\337\270\365\205?\345\323:z\235\327\355\2770\233\370Oy\000\372?O\357\344l\304h\331?z\317\210\240\241\302\206\277jiNU0\361\277?\035U\277 \221c\302?\037\373P\347\254\036\363\277H\237\017Ja$\331?\\\014\377vBv\306?<2R(\021\373\322?\246\033\377\036>\277\320?\360s \346\376P\367?\214\313\361K9.\343?\325H\372\243\027\346\335?Kdf$\276\226\365\277\033\000bt\t\215\311\277\034a\230\025\366\334\320?Y\202\001\235\031n\363\277\270\"?P\356G\327?}3y\277\027\232\365\277v\005\304\274\256\261\363\277\361\017\022\241\3433\312?%4&f\004\201\243?l[X\005T!\302\277Aw\351\363b\330\333\277>\365#\303Gj\352?\224\222\227(m&\331?\223\036\332\366\340\031\322?\337\217\255\177\325\263\363?\370uvH\362\201\355\277\2416\361\236\244\260\363\277\232\"m\213\352\325\361\277|\204)J\360\373\363\277d\275~\304\324\224\204?J\373\332\374\321!u\277<\371\276\201\300\243\326?\275\003\r\372\313\315\307?L\307\3213\203\275\366?\222\245\341D\202\271\366?r\006\345h\334\237\333?\221\343\223\\\031>\340\277\251\375\220\353\251\226\241?\263\026s\237b\311\323\277\r\000\350\330\301\330\301\277\271)\007\312\235\270\316?\337\304\324\313BT\364?\352\271\243\217\270\221\250\277-\310LIS\373\374?\203EA\rhu\363\277\002\312\204\375%\321\201?\242S\321\276\277\313\313?\3223\256tz\236\365?\351\021k\206@\237\231?6{de\242\r\205\277\346\327k\246\355\357\273?\262\014\203G\372\320\237?\274#\240\352\330\236\366?v\312\347(\326\372\365?Kx\235\217V\374\266?)\274\313\323\256\226\343\277\372\230\001\000CL\206\277\202\250\273<0\315\337?\207\343\256y!\213\364\277\326h\373\023\221\333\357\277\276\2214\236\272\347\340?\231\2509\003jz\337?\000\377\025(\301r\323\277\215\254\n\272\276\215\324?:H\376\361p\303\323\277\025\0312\'\210\316\362\277C\202\335(\335G\303\277C\334j\276\325\310\362?\273\231\264\037\364\214\246?b\306\264f\233\253\365?\030\207\242\210<\t\330\2779\240.s\343\305\364?\002y\203%j\016\305?T\332\021\036\352Z\304?\2264\027\233\004y\361\277\232?\r\201X\007\367?h\223\213\030\217O\303?\366\344\202\350\341R\320?cO\203\331\321G\357?j\363T(;>\356\277w|g\350\373\342\371?\022\027_\"\253D\362\277vO\332\257n\273\363?\214\2078jEE\362\277\177\033j8Q\225\362?\232d\243\207:\343\363?\202q\252\302\227\341\366?\355\277\362\274O\003\322\277\2477\010\307\320\250\312\277\267\264\214p\037\034\320?Z\262\031\362%\322\362\2775\250B\007\325\371\335\277"
      }
    }
  }
}
node {
  name: "normalize_element/component_1"
  op: "Const"
  device: "/device:CPU:0"
  attr {
    key: "_output_shapes"
    value {
      list {
        shape {
          dim {
            size: 749
          }
        }
      }
    }
  }
  attr {
    key: "dtype"
    value {
      type: DT_DOUBLE
    }
  }
  attr {
    key: "value"
    value {
      tensor {
        dtype: DT_DOUBLE
        tensor_shape {
          dim {
            size: 749
          }
        }
        tensor_content: "v\370j\334\005\236\362?\3515}\026\362=\340?\n!\021}\203t\341\277B\352\363 \000\373\350\277\337\277\\T\357\225\312?\377\\\033x\246k\343?rISA)\276\342\277\366@\273!;u\341?\315V\216d-\234\340?|5\220\030\017\277\330?\177\326\331\244\2143\332?\303/\335\356\311\025\341?\225\016\\\327\310\006\321?(\375\312\370g\212\323?k\316*:\007W\345?\211\271:K\265\245\354\277\370\224\010\234#B\347?\1774\000#\266\020\337?\303\213\262\370jx\357?\227\240U\002<\306\353\277\357\021K\357\252\355\357\277\361\333\201B\\&\322?\263\034\346j\364\341\343?7\303Zr=\200\353\277\025w=,\373Q\325?\237\3421\204\0375\304?<\201\021\372*\322\342?\350\342\\\327\"\316\352\277-\346s\374U\250\341?$\330\027\211\321\331\344\277n\321b\332\177\004\347\277b\377\276\261\340\202\337?\256\320=\001\371\204\350\277\221e\341\357\027S\304?\034U\033\345\314\305\337?\254\273\221\3751\265\343\277Nk\213\363\231\277\323\277\234\301\301\261\252\343\350\277g\365Bq\340*\350?7\363\222\027j\213\307?\363=\331-\305\020\344?(\337B\000\037\257\356\277\274\356r\246\373?\346\277u\263\242\217\n\272\333?c\356i\306\232?\353\27756\010\303i\242\360?\\$\353\0212\372\334?\r?\010\3556u\304\277p\020\3148\355+\342?\332\266\005\027\250\035\345?\226\265\347Jbk\352?\255A\347V\310\'\271\277\227\357\241\013\353\256\327?\236K?\221\006\202\361\2776\021\352\010\257\251\357\277\225\274\235\302\021\345\340?YMHO\303\223\320?.\251\372\213\226\236\362?\352\003\243\001\342\245\361\2775cQ\016\362\263\327?\242\213\\\016 \336\336?\317\304\322\231\237\334\313?\265\376\255\265\312u\343?\327QgLs\212\362?\022\013U\327\006\264\337\277R\021\334ys\271\336?\267\t\"\352\t\270\340\277\352\001\306Z!\213\356\277\266*\0370\275\301\345?H\030\r\341\264\r\310?\346\t\272=\n\320\342?\032\320\316\372\035N\354\277\212\261\3071\216!\343?\273\222\250\374Dq\353\277p\201u\323Xj\340?^\266\315\225\247\306\323?\273\230B\377\200|\343\277Yh\237Z\3208\341?F\352-\355\324\213\342\277\300\316\365E\354\356\340?pi\204\022;3\340?\212\350\037\340\211\313\343\277\313\032\374\026*\352\346?\236\3674q%\022\356\277\2764 \272\257H\343?\031\322\367\312\006\375\341\277\272j\024\226+\336\360?\375g\342\214ey\300?\005\"\355]x\"\340?\020_\314\225@P\343?\021|\220.9\'\353\277\265\030{\345\240\312\335?8\337\242p\034F\242?M\243H\316eE\343?\337\253\207\2259\272\330?\334\253\030\254\247\000\274?\033\345]\003\315]\346?\325\000\020.\316\343\346\277!\232NHP\376\346\277(N-\005\365\026\323\277\231\007\317\315\324\356\331?\006\001\365\243ix\360\277\243W\333f\\\363\324\277\242%\202\020\254\273\362?\277\313p\3403\315\343?\231\210\221\231\'\346\334\277+K>\024\341\275\335?\002Z\321m\316Q\355\277\233\365W\234\270i\226?_\003\217?\257U\361?c?\0304\3059\360\277\322\206i\322n\345\362?Q\r\0277\305\267\343?\310\330\010\306>\307\302?[\364\032\242B\307\340?\275;i\375C\304\330?\234JZ?\332\306\343?l\251\246\254<\357\357\277\343\035\037\352r6\355\277\236\017\314\301\"\013\334?\312\204\274M\017I\312?&\230yF\316\006\345\277\215x4w&%\321\277\243\304\027s\240n\340\277\262;\353\177\324\003\363?\261\345\337zIr\331?W\371\004\264\245\311\244\277)\232\203\245Y\230\340? \373\210d\363:\317?Rm\016\351\312\354\306?\234\254\200\030\301=\331?n\021)\252\200\222\335\277\257i\372\340\201\331\360?\204\326\3067~i\350\277\313*\323y\331\337\343?h\245%F>i\301?\277i\3274\024\325\247\277lD\371\363\027%\357\277\320<\265\370\364\242\344?\357/A;l-\231?\337{.\350\036\337\343?0\261yokN\343?MQp\2027\221\360\277\203\211\001\316\3572\342?\245\267\377\263\323\354\353\277\014\272<\260\367t\335?T\256\'I\374\256\340?5\027\\X\260g\320\277yT)(\265U\352?[\370\344(\361\r\357\277A>\005\323\017J\310?7\010=V7?\343?\007\316\222\226\025\351\354\277n\356\264\305V\204\342?\352\211\004\025\000]\355\277B\342Z\352\026[\361\277[\270\322\251f\312\344?(\253w\377\334w\345\277\200$\363\'=\324\361\277\035\253N\324I\211\347\277^\327\032BO\356\344\277k9Pr7\010\346?1\354Q\223v\020\310?\371\337\241*\371E\345?\001\324\316\251\345\001\313?\206\354\350wB\315\344\277\031\347E\031)X\304\277\332\215\266[\331\211\357\2779\230\003q3V\214?\n\252\311#\010\237\347\277\353\325\341\317\034r\361?\032\337QWK\321\355\277\337\026\230(\305\234\354\277\354BK\216\233\256\346\277\342%\030\317x\223\350\277H9a\231\276y\345?C\307\231\256\034\371\337\277r\304\331\316\337\203\337\277\345:q\233s\222\311?\352$\312\243\357$\325?\375Q\036\002\267\301\335?\240\2135n@^\343\277l?G\361r\033\364?\353\230\261&\331\017\345\277\223\261\005\000\217\361\305?\273\257E\023\002\220\336?\r\214*\215P\322\301?\302\362a^]i\361\277D\244\351[\020<\362?\363\026a\246t\366\275?\266.\350A?\021\352\277\034qB4\024\211\346?0?\370\017\247=\355\277j\217\014T\276\220\345\277\336<\351\334\222\321\315?\203\206\000\277[A\337\277\324bM\340\327E\351\277\324\034nXb@\311?\247\317\230\355\365]\314?\211\212\037{\323\010\350?\335\030Q\374))\340\277\334b\032\304\340\030\350\277\013V\315\311 W\362?\344\260\031*\301\r\345\277\322\335\3036\315i\360\277[b!\3557\377\307?\226\250\252 \r!\327\277\257\350\271\221\224\243\351\277\032\202\347c\330\361\337\2776(u\367]\232\344?\271.H\322\247M\356\277\233\013\213\366\225\216\362?\002\036\213\300\374\t\320?\344\335A\315\355\224\342?\210\353\272\033\361^\350\277=\365 \312\001\210\337\277\265\005\214\007`?\340?\024>\247k8(\271\277\333\3515{\305\251\350\277@;\256\221kE\343?\027\037/x\225\243\345?\276\372\007\'\355\r\324\277\266\245\260\205!\026\315?\003\307\024\000\356j\341\277\333X\250\224\3549\304?\335\334\261\350\265N\362?t\371\324\346\271\355\343?F\007A\360m\250\331\277\315\377yU\2163\343?\240\344\367\354\334\270\332?#]q\270Y\006\361?\347[^\257\363t\346\277\374*\037}v\232\343?E9\230!\030\251\370?\233*\341x\242!\341?\034\366\004\267L\017\312\277\355,\275H\'A\337?\360\002\321\371DE\240?;\'.}z\352\326?\327C\225+[p\356\277[#\374#\345s\342?\271[\356\372\004\233\353\277\343\333\3541\371\212\350\277\221\250\327\023$\316\350\277K\030)r\245\'\342\277\253/c\334\215\313\352\277\237\371\003\001\320\177\326?\331\302S8\223\331\344\277Q\023\0307D\264\341?\315\202\n\306\227u\361?\010>\344*DL\302?\367\367=B+j\273?T0\251q\200\227\355\277$\030W\240\3662\352\277*\364\323\252\270\306\332?%\360\260^\206\035\337\277\332\361\203\340\226\306\351\277\306\203\353\333\000\021\303?\007\016o56\331\351\277 Y4kY\306\345\277\250\326\024:u\212\342?*\237\010<\034M\362?\266]\317+\357\214\362?\030\3255\223h\375\301\277\260\353d/\024\177\320?(w\307\212\031N\360?8Bxk\022\212\353\277\025\253\375\220\004\225\330\277v\002\\\321)\'\352\277\254\206N&\235\221\362?\"\235\347\330\215q\345\277e\031\215\006\346\301\344\2772~.\037\354\241\324\277n6\213\303y\201\254?\273&v\031qy\336?\002\263]\251\217R\357?\230\035\025\314\020\000\345\277\302Ql\334E7\355\277\346I\300\371S\022\344?b$\004{\263y\343\277\320\003\311C%\235\360\277\243\022\200s\210\350\274?\211&\226\324\344\203\337?\351\203\204\250\334\366\341?\2701\215\271\226\263\361?XJV:\227\241\306\277\264,m\034\370B\361\277)\306\001\340\016H\345?\207608k]\340\277,]\036\342w\\\350\277\255Y\20142\\\361?\337u>|*\304\301?\371\315\026\3475\017\326\277\315\315S!\2468\325?T\335\223\254\324\323\347\277};\262\035\265\364\342?T\235\223z\350\'\357\277C\247$\037D\214\366\277\256!-k\034\354\344?,\333G\233\216\211\342?\347\366d\036\235\"\346\2779X\352\033p\025\360\277y\003\272\327 \022\353\277OC\300\231\266\272\362?\251\227\253.\374\030\323\277\014\305\256.E\327\343\277D\356\337\3407\311\342?\261_0\215\304C\345\277\027\360\222?&\231\345?\003\236z\004\262g\340?\214\251\020\032\023\033\305?\023@\241\255\354>\305?\'S\276S\351\325\307?*I%\230\331z\325?\033\356~`s\345\310?m>=\030\234j\352\277X?BX#\n\343\277\327\230\237|W\037\354\277e\325\272\217L\020\322?\214\227m\3521\'\341\277\256\370\377\224\001\317\341\277\250\306K\021x\030\306?\273}\207A\302\265\327\277G:2\231\r\371\340?u\323\212\'\301\264\344?\355\366 R\332\257\356\2771}\321\326={\363?\005\225\026v\230U\361\277\301\260C\315\n\223\353\277\247\300fw\243\255\313\277\375\036\365,]\306\367?[\315\201\220\276\343\313?L\276\366\276\031\371\350?}\024\256\r\3216\322?6pX,\323\204\341?\032\201h\335\221\313\337?\362\255\001\275J\004\341\277\333\235\372\335\341\265\362?%)\305\020\034\277\362?r\257\276.a\264\344\277\202D\\Y`\333\343?B\002\334Ldd\334?\037\313\300pA\330\347?\200\355yo\353O\327?\355<\353\330\230<\357\277S\363\266\265-?\365\277%B\302\030,\275\356\277)z\346\324gd\320\277,o\311\326L\272\304?\034\217qok\305\326\277\250\316.\014\346)\360\277\035\177\036\236C\\\331\277\337\314\343\306\336Z\341?\223%{#e\216\336?4\t\0138n~\355\277o1\000?\005\026\345?\271,\232L\323\216\345?\273\360A\352~2\362\277\025\336\233\0008\320\341\277\352OK\0067\037\363?\370\315z\221\300\t\321?\3638\177\224/\003\342?9~\010\002lB\337?f\024Ls\026\302\337?\034\315 \353\255*\351\277\313\373b\"x\321\352\277=Lj\223\330\315\351\277\346\232\016\320N\245\262?\217\261\260iC#\347\277.@\230uS\036\361\277\345\312\260R\342M\362?\350Q7t .\327\277\277\364!\373\227\205\314?\030\266\375\367\343\215\315?gu&3\rT\360\277\346\031\n\037\2525\354\277B\325Ze\327\315\333\277j\260\305j\017\"\342?\3629\265E\001\350\321\277\212s\310\204\220}\342\277\000\203\203G\254\363\302?\0013s\362\260\177\324\277\017L.&b`\355?\032+o\233\314\256\357\277_)\363\215\265k\361\277\300%\205#\257\264\340\277\353\240\236|\353*\327?D\026\2140\322\242\343?\"\377\335)1~\333?+\322X?O\000\311?-\242Ef\337\363\260?\336\3260\353\n|\332\277\357\022\372>\213@\320\277\036\214\001\334\0162\345?\377\357\261R\335(\346\277\354?$AJ\200\314?\200\236`{l\016\346\277\365\'\375^\210\210\271?\342\244[\244\242\235\362?3IC\334 \037\361?!\315\002\005\r\373\351\277~OY\204c\317\340?_\346\3318\304\007\354?\355}:\300\355\227\344?.\320\347\361\256\303\355\277A\266\000\276$J\357\277e\033\324^?\226\315\277B\n\n~\244\315\306?9\302>\005a\362\305\277\351\204\211_]\312\362?\331\300N\000_\206\351\277\027Z\001En\006\337\277\016e\340k\203R\343\277*0\340\204\275D\337\277i\236\026\005\034:\310?\022f\366z\305\206\263?9.\267\314Y\222\307?\207yYd\006\232\362?\302u\005\376\272 \347\277fe\264\033\355m\345\277U\251\336\275\374\332\347?e\237\230;\023m\362?A\356\271\001\204R\350?\355\257\037<\007\013\344\277a\335\210-\251\213\352?t\307\325\254\177\207\341?\226Jz1\250\243\321?\342\342\220\346\177\274\316?J\343\204\002[\360\332\277-G\322\336\231*\344?X~\263(t\010\346\277\2540\342\202\343\002\342\277\007\256;mR\035\305?\222\255\022\331\r\271\362?\231K\211\314\022\366\356?\022\003\231\202\306\343\361\277]&\261\r\005\323\344?\001\026\276\277S\037\364\2772\346(\023\243\234\353\277\345\2604\016)1\314?\233v?\270\0221\330?\031V\352\273J*\332?E\003\253A6\021\342?\271E~m\311_\320?<*S\326\316\365\342?S\261\236o3S\355\277\n\217N\371\321\000\313?\013\327V\376\371C\362?R(\271\352\324=\350\277_l\344+I\"\347?\201\307\031\0208\302\346\277\376)5\316\010\024\350\277W\361\2225[0\361?\360\361\311ZU\217\340?_\351\370\030\242d\360\277\262\333y\216=l\340?\001\264\354#.*\356\277Y\001\334\002vx\336\277\316\021;\332\231}\332\277,fe\304\210&\343?J|Q\250\265W\357\277\263\207}\336\037\334\353?;;T\013s\200\326?\005k\333\344\264\302\321?W\'\207\214\322a\364?g\201\t\207Y\363\351\277<(\324Vk\372\330?\223\263\224\007\360\205\362?\nF\375h\225\304\351?Y\377\301G\001\222\342?s\370\277\032\316B\350\277j\275\030N\333\355\361\277o\333[8{+\343?A\306\n\265\215\032\357\277\206\221\240!\254\306\342?\210f\361\023\257\360\331?3O\242K\315\333\356\277\002r \313\354\340\351\277\353\344[\367\333\310\333?\001>\311\301F\267\341?\251\223`\313\247\020\355\277\322\311\'\365\355\271\357\277W\2167C\265\317\336?=&\306\331{\203\361?7\332O\362\267P\330?\223F3\330\236\304\344?\006&\345\334\n0\325\277\001paI\274\177\342\277\034\355\355`\013*\343\277\362\221\344\236\310r\362?\330\235Jeo\216\363?`N\223  =\324?\212\372p\001\2104\355\277L\005\"\231\231\035\355\277M\355|\242\311\243\337?4\310\030D4\013\360\277\325N\254\2151\r\347\277F\345:\243\334\022\331\277=\273_2HS\320?\336\274\253\365\231\345\323?\312n\362\222\344Y\347\277s\260\2066\236\341\345\277\246\345+\231@\350\305?40\341\320\300\325\273\277\354w\212\314\243\340\322?-\277\332+\366a\351\277\373<\356\302\227\272\303?\321x\363\030l_\345\277\342\372\342\376\007\311\306?\305\r\250\214\222{\360\277\244/\216\004\"\255\310?/\236\344\026R\001\323?\272\323~\352\205>\340?\354\317R\023\236o\345\277\215\206D\351\345\266\343?\242\340\033$u\354\351\277\213ny\205\266\034\352\277\237\302\343\304m\006\363\277 }\034\2672c\343?\010\007\327\340\237\314\254?d\370g^\247i\341\277I\262\373\220\336\205\362?5y\304j\260\034\333?\353\016~\347\3716\341?\264\235\367\002\'\267\321?\203 \254z\350f\347?q\356\243\023\204\337\342\277\030K\205\035~X\342\277\302\003\333\010\013\251\342?\344\313\201\307\035\306\345?\315\262e\3572n\336\277\347\260(\311\257\360\356\277\363\204\321fja\347\277\251\314\214\346\3460\355\277\367T\307\352\270.\333\277F\\:\200\026\246\362?\302m8\021 \321\336?\376\323D\370\271_\362?\266\237\016\317\022p\337?\254\031 \'L\234\354\277\020u\351\320;,\333\277\265\244\217\034JI\337?dN\356F\335\352\271?\201\010\374!\331\325\344?\254w\262\032\332z\344\277C\013\272\020>\254\347?\345E\006\300\000\"\347\277\001\314Y}\211l\357\277g\326\302\"u\244\344?\264\\)\317D\337\305?\260*\344\2071\344\350\277\276\250S@yZ\362?5\"1\270\216\337\334\277\337\271\256\034~\341\327\277\205\334\345\346\207\223\303?\341OdH\270\322\335\277\244{\237e8A\360\277\23743\026U\306\344\277z\265\034\3467\241\361?f[c\237\305w\346\277V$\313^\0060\341\277\355\022\017 \023E\344?z\360:\303\313\004\311?>\031\231<\336\252\350\277\321\223;\256\027\214\344?\211\251j$\004S\332\277\262\203\324\340D1\356\277\346\301\\N*x\313? s\305\212\236\220\325?7\252<\235\014\212\361?\334|A\363/k\352\277\221\342,\354\244\223\233?\030\245\342t\n\316\312?\033\226\030\016}\323\303?D\035\022I\202S\341\277\211)\222\343\321`\357\277\315&\373\335\226\244\334?\352\247\301\010\364\023\350\277\034\037\211vo\005\317?9\250\027\031\377\221\362?\224\3225@\006\\\321?\306@\273x\343s\343?He\337\255\373\212\335?\035\035\202?\320\206\357\277\342\341\001\200\307h\343?j\017\223}`e\362?c;\320\352\203\217\361?\212\376$\2715\215\334?\341\026\363\300yq\363?\267\021\361~\3744\337?0#e:\375\305\340\277\312\317c\251\032/\341\277\344\324<;Y\262\362?fup\351e\327\331\277\tF\242\001 \342\360\277\204o.\341\366\030\345?MZJI<l\357\277\n\331\037\235k\027\314?!\306\302\177\204a\343\277\017\037\215\354\220)\343?\026\237\365\317\307\216\326\2772\004\r*\255\276\346\277E\204\374\376!\021\327\277\246\217\317{yj\324?\356\320M\312y\320\324?x\220\t\006\251\345\342\277\022\350a2\316\233\364?\2707\377X\006\201\361\277\215\255\352\302\262y\345?o\234,O0L\346?\254\366\276hKO\354\277\344\233<\200,\246\321\277\343\264\207\"O\344\350\277\220\226\265N\205\031\361\277:\326\252/\250U\333?\350F((\305\213\352?@\247\267=f-\347\277\220\'\246\321\310\372\344\277`\001\303\353\331\314\267?1g\326\226\235:\341?\0170sN_(\343\277\345\373\361\352aa\302?\032\260\t\304\357\345\346?\332\354\346\r+v\343?\206{\206\357\320\223\310?\321X\267\355\311\211\337?n\245\267\303+\237\343?\346O\257\024\034\033\356\277G\027\243\251\213N\362?\3208:)\344\267\351\277/1c\244]:\355\277\363\323?\200\257\344\343?\255\323\342\3749n\363?]\370\000\334\315\304\361\277#\371\305\303\354i\362\277\375\007\025\226\361K\344\277\000 \342\236\210Y\352\277\225L\320\370\256\366\360\277\242\346_\357\2266\253?\241J\317\254\317X\334?}\t\232\247\270\330\360\277\321\224\377\026\367R\345\277\364\376\345\2605L\252?Ezs\377\221|\345?\200+\224\271\227\316\341?+\342\010\247\n\313\346?\004(1\376\367|\360\277\215\312\351\225\310\255\304?:n\223r.\322\344?\374u\313(s\364\346\277s,pC\251\266\342?\324\341\354\311$\252\344?\2718\247\"&U\313\277\2777\354S[\331\347\277\260\242\277\326&\245\340?^3\\A-U\352?\362g\226\252B\200\341\2779\370\312\3637%\354\277\345\241\322:Cm\350\277\250Cv\316f`\346?\244\206)\270\365\313\362?\2502&Q$\370\356\2770%\002\260\017B\360\277QzD\256\262c\356\277K\024\"\032\025\312\327?z\267B\306Y\251\327\277\0270D0\244\312\355?=\364\377\035\177\265\336?\202}\333\373T\375\331\277f?\367\224\375M\355\277G\227\016\271\250\205\344?\217l\016\2444V\361?\311\001\n})\214\332?76\214\322\303\014\344?I1B\001\033\334\361?\235?\033\305\3222\345\277_VkA\254\271\342\277Bg\020Z\214\365\343?Cv\324N\367Q\305\277\026\0060W\241x\362?\205\264\323PK\372\362?\002\230\342[\205\037\350?\363\206\257\332/\230\337?\302\301\023n\214x\344?{\2635\226\326\325\343?p/\243F\212-\322?\332Y\301\371\\\240\232?\271C\"#\345`\336\277\236\301\332R\220\260\362?\270\337\\}\177j\356\277G^.h\363\223\324?\322\240s\"\342\322\303?{\256\250&\004\215\362?\310\324\014\246\302\244\331\277}\367o\314GH\266\277\022\342;<r\265\343\277\333J\260\017\235\265\342\277\035s\216\017hV\353\277\177\002.\321\301\250\326?\204U[\221(\265\341\2777[\317Vlu\330?{\227\344\366\314B\343?\254\333\'\245da\345\277\341M\243\323\264%\356\277N\354\t\232p\377\307?53\004\'~\255\363\277,\013\235$*;\325\277\335a\322Z\346\340\360\277\'\230\231\0149W\327\277b\242M\347\352\210\340?\272]\262\375\3276\302?\242\315\242\032fQ\356\277k\303\253\3056t\350\277\331\310P\325\007\224\352\277\301\236\336\375\3435\362?cA\220h\313=\324?>\345\035\312b\217\245?M\211\335\344Z\377\346\277\000E\330\327\303V\341\277UNj\221#\202\350\277\264\312d\222\234p\362?\255#T\217F\314\351\277=\343\362\225\336l\324\277%\036\036\300\357\305\346\277\201\231\361L\232x\322?\316\240s3\311\366\360\277Lw\363NV?\242?\272\324)<*\275\353\277\361x+\214\267\362\322?\350>\370\307\2447\360\277y\027D:`\244\352\277\315\\\264uh\342\341?E\312\355\0344w\313?=\247\214\177\204@\352\277lF\010\377-3\322\277\373\217\341\253M\277\350?\377\212.AD\017\266?\020\366\t\005\316\022\312?1\355\252\004\240\265\342?\275P\273\351\303\324\345?\210\237\327\322`G\346?\340s\304\305\207v\330?>\202\273\310S\352\354?\003\242\336\376\261o\334?]4%v\326\304\353\277=\024IB+\246\352\277\234\223\006\260>8\361?\361\270\202\321JF\346?fR\301Fl\353\361?"
      }
    }
  }
}
node {
  name: "normalize_element/component_2"
  op: "Const"
  device: "/device:CPU:0"
  attr {
    key: "_output_shapes"
    value {
      list {
        shape {
          dim {
            size: 749
          }
        }
      }
    }
  }
  attr {
    key: "dtype"
    value {
      type: DT_DOUBLE
    }
  }
  attr {
    key: "value"
    value {
      tensor {
        dtype: DT_DOUBLE
        tensor_shape {
          dim {
            size: 749
          }
        }
        tensor_content: "\214/d{(\276\334\2773\347\003\216\305\325\327?\260\367\3135\005/\330?t\225Ul\026\276\327\277D\230;!\032*\341?_w\024\265\245\017\270\277}\035\201.\213`\343?%9\360\200hm\325?\001*^:\204\362\330?/Y\265)#\215\270\277k\300q\321^d\232\277\337\253\000\274\204\204\305?\200\001\304/\031p\340?\261\321\352\266\246\240\344?\350\257\202\0360i\331?\320\363\301Lm\246\342?\004\016\t\252\252W\342\277`_\232\325\202J\312?\276OWXc4\333\2775\001\002EM\375\316\277\226\323\021x\341\224\303?jlew\334\327\240\277U\371\037\225k\"\321?#\257\347\001\2122\330\277\374\354\332tIm\327\277h\010\367\013\316\020\317\277\351\024O\337\233\264\325?\234\376\271\355\310=\337\277\376B\211\247\210\325\330?\207\247$\213\204\342\327\277w\212O\275\365\035\300\277U}\203\372\310p\315?\006x\341v\265k\345\277\256L\217*\224B\270?=1\322\334\\N\314?p\276\231gu*\313\277\355|.\335l\376\327\277u\303\367\331\360\253\326\277Q6\235\016,\325\331?uu\342M=\366\303\277j\374\374\227|\222\341?|\016\352dY$\340?e\023\272\010y\240\323\277\253Y\253\036\301\222\261\277C^,\006\330\361\342?\251\007j\275D~\343\277\217\340Fi\205\334\260\277f \013\336\264\023\351?\022 0])\350\331?O\254\217\216m\246\325?\241h\026W\221P\317?&\005M\275o<\305\277\224/\267\207\006\225\254?\213\275\355\231\237*\312?S\'&$\254%\347?\236,\215%\333x\276?\036\347\340*\303k\311\277\227\333\205\247\220\212\336\277\262\214\264\222\247V\343?\001\327{\322\310\260\267\277GX}N\353g\333?\274\231\234-\332=}?l\034\245\200\202\200\314?\225\374*\251\277\240\335\2771\024zuL\317\300\277\315\016\260\355VF\265\277\307\371\235\340\260\027\351\277L\351y\231\365`\335?\\y|J\274^\340?M\315\257\351\364Ay?q\323wc=E\244?~\231\030:\276\223\341\277\210\372\035\373u\336\341?\340\350\312\002\360\240\331\277p\233P\204\324\356\331?tWyQ\276^\324\277\350\275s\217=\224\312?\250\306c\304\017\215\332?Y{\247\240@}\341\277\357\025,\255E\246\325?\241\177\220\3456h\302?\211\265\356\371\026)\351\277\226\005\344\321\213T\323?\350t8j7J\323?HC\362%z2\342?\304\375\371\177w\010\353\277X\020\260\"[&\321\277\2410uad&\316?\224\301</\005\263\321?\322\273t_\325\302\332?\330\375\336\351l\225\343? N\347}\312n\321?\216\017\256\254)\r\246\277\232-\2240\005\372\310?o\351G\255!\354\346?\336\023\'\206\222\035\270?\237q\027\211\350\262\277?\332`c6\244\364\335?G\036\017\365t\234\336\277\0235+z\307\367\352\277\"I\357\022Q\354\306?\225\317\213\310\2026\316?Zt\374e\335C\351\277\t1\330\224\302\230\340\277\034\2624{P\021\337?\021\247[\213v\362\326\277\314T\217\337\255\311\321?\032\374p,\364G\343?\273\333\262\346\007\351\311?uV\317\261\321\216\327\277\030\242\372c\265W\220?\020\326\\\300\225\324\334\277\304\276\361+H-\333?=\240V\275\350y\225?\336\004\233\274\016\376\311?\372\234Nd\002\355\274\277O\274w\310\243\362\302?C\233^7\217\337\332\277\300\352\350\272\212N\320?\343\266\363K\370\037\247\277n)\361\233-\253\341?D>\\\365V\336\267\277R$^`v\251\353\277\337@\211\337jJ\307\27730\275\252\301\025\334\277\021\310\231N\303\337\326?\222\317\304\207]\200\266?\223\013\n\215 \357\304?\337\347\300\001}\321\304?$\000\2119\300e\302\277\'\240X\301T\336\333?\364\345\273\203\261M\353\277#\230\rJ9\000\324\277\321{\333\302f\n\320?T.:\3276\300\330?\210\211.\200\217\343\260?\364\314\357\323\305y\251?\235V\204:\375P\343?\225\273]\3677\361\263?\257w12\332\300\250\277\240e8\002\031;\232\277\325\202\3476X1\336?\205\333\341\245Q\243\345?\027\220O\201\021\233\343?\271\223g\375\260\001\342?\234A\037H\303\304\326?\353,\013.K\255\331?\225K+\374\330\222\321?jv\320p\035\254\325?C\307W\314\236\033\301?2\350,R/D\340?\371\345\256j@\363\341?\266\3205T\374E\313\277\377\032\247\253.\201\333?\221%\230\244\036\327\255\277Z\311\035R\177\212\341?\236\322j\272\307$\314?\374F\310\356f\267\350\277C%\315\204\204\376\341?\0171*\245r8\321\277\304j\370\202\357\232\347\277j.R45\261\321?\017\232\271\007X\372\326?\340\252zS\340t\315\277\220\377$|\374z\244\277\220\013\353\351h\334\315\277\341\'\263\212\345\031\336\277w\"\216\\\260_\342?P\230\"\177\325\314\265?\3607\340\022\341\005\341\277W[&#&\r\341\277,D\207\2031X\314?w\211\342}\370\341\353?\007\t\225+nZ\316\277\366@jnsz\306\2774\235D&PM\334?\213\301\237\212U\211\351\277T\'$t\366\213\347\277\374\007\r\212<;\312?-\243\027\004\217\000\343?U\343)\264\334\226\335?\307\000~\336\222\225\342\277\351:Sj\\T\340\277\005g\316\036\364\276\344?\273_\243\370;:\303\277g\002G \247\213\312?\267\247\227R\217\244\242\277\025\256(\333J\213\354?\220\362\320\326\034\"\333\277\323\247\361\000\230+\303\277\275\362i\310K=\342?\313C\364\260E\274\326\2774I \331;s\212?@\206r\347?*\326\277{\201\3575L\307\333?\030ol:d\272\350\277\003\275\270\342\261s\303\277\313\231\307b\276\351\304\277\303~y\325t}\304\277\362\013g/\270s\301?\3712\0278\r\270\353\277\3279\366\031\333y\343\277\337\355\200\277\024<\333\277\007\267C\2723\324\323?V&\2364o\322\342?\262>\211oC\205\330\2771\332\324;\241\312\363?\232\033C\027l\301\346\277\226X\010\326^\231\345?\3573\307G\256E\341?X\276\340\244\271Q\316?\274O\335\036\256H\331\277\223\341_\216\371\251\261?\2073\2105;\273\333?\037f\026sr\246\341\277\374\272\340\344\245\357\344\277\007\006\r\357\247\276\330?\216p\'E\256\377\352\277)>\2248\233\001\325\277\372y\355\004\276\310\330?\235\n\254|]#\311?\t\327+\306\354u\343?\230\354\004\207\222\313\303\277\373\025\037\204\320R\353\277\346\356\016j\317\372\262\277\264r\221<\256c\331\277,E\304\352\352`\317?y\001\256`\370\324\354\277\316\352p\354\377\246\302?\243\253\301G\031Z\316?\265\330q&zn\340\277\347\010\223\315\340\201\355?\303\270\0376VD\333?\3176\220g\312r\340?\221\352h\230\371\232\314?Ld1\244\323s\263?\036\363qG-\344\266\277sj.\303\261\263\273?`\023\363\266\245\253\306?\214RZ\335\323\351\350?\333Tr\370\3202\334?\343\201\335%\372t\346?\267;\221\211\250\246\303\277,\324\240a\236\034\340\277\243\373=z\020\242\331\277[\2729\002\310\324\345\277\001\025S7\0225\327\277<\327\312\223\274\335\321\277\216\377\334\244\253\250\323?GP\366\232\257\360\340\277\3420\306\360\210\013\246\2776xw\351\350\360\275\277\354\250\013\027\244\272\353?\360\274\304,h\342\342?\241\221\\\026\272\354\315?:\303\245\355\2429\334\277O{W\254\033\342\327\277\251\022\346\017\302G\260?\366\213\023\217\375\010\341\277y\273\336\022\0175\303\277)\354\220\n\213C\333?\271|H\273&.\331\277\307D\036z\267\033\334\277\345\277\337\026\3678\354\277c\360\246\247\332\247\275\277\004X\031\266U\002\332\277\025g\003\236\3234t?\223x(Z\0108\352\277\3629\213\017\370Q\345?\215\332:\314M&\333\277\270\341\001\004M4\346\277\032>\270\323_\336\350\277\303k\240\345\2348\315\2773O\013\325\313\247\325?\357\322F\314\\4\331?\017tN\227&W\333\277tC\273\266p\243\333\277\0035\250<Q5\315\277$d\254a\337\313\323?\233=\236\310\350\t\326\277\303\360\3050n\275\335?\325\344\254\230\266\325\260?\005\343\253!\3221\333?R*\200\347\226\335\307?\326b\024\032\323,\340\277\306\312\305$\022\250\324\277\251\301\027\330\3153\346?#\016*<\370/\341?\376su\327,X\332\277\302_i\356\247}\311\277\217\313\302\331s\211\341\277\034;\363\035\346\016\322?\365\007!|a\236\351\277\220\347p\017\206F\274\277\032r\236\362\374\242\323?\335v\214F\234\"\276?\2078\356\226Py\304?\370#;Q%\312\330?\312\337w\207*2\320?bQ</\'\275\333?\345\376O\010\336-\347?s\313p\303V\323\303? MP\313\373\326\327??4h\206\347\322\333\277\316\ts\037OL\321\277\254\033\211\275\352k\327\277)w<\031\t\000\344?\031i\013\325\025/\335\277\365>!_\326\031\341?\342\001\205\177\211\276\270?t\225\037\'X\225\316?\375\376N\312\246 \307\277Ol\221\001\272\031\264\277\203p\2434!\324\261\277\370}\364{\376\324\266\277q\346!\271\302R\333\277\266CU\035{\352\331\277Tp\274\277\253\360\270\277\311P\255\372\317\367\340?\242&tg\352b\351\277P\255\213\214.4\307\277\236\341Mb\017\320\272\277\341+\301\0257\366\305?9\242 !A\367\315?\215\333M\376(,\320?\273\343\257Ma\247\314?A\253\236=\304\377\334\277$\341\014-\017\030\300\277d\202\237\304\223\211\332\277\345j\367U\035\026\327\277fLMG\200s\343?\333t\206\177\306\327\316?|a:@\340\266\320?&\312\233\372Oz\337?\342\327p\341_\257\333?\000\252\0033k8\226\277\017\2232\217r\351\347\277n:\254\247\200\215\353\277T\262\240%b|\335\277\263\324\217s\231T\351\277k\261q\350M\003\341?\202\214h\315W\030\321?\345B\266\246)7l\277\311\211\250\020\273\311\323?\322\0000P\256\240\341?p\215\247k\037E\304?\212\306\337\263\216\335\335?\367\2479<\277A\352?\2771)Y\223\334\201?\241\353q\0101\261\320\277;\316Fz\237f\342?\004\277\245\367\220\252\330\277\352\322Yf\245)\326?S3D\204-\306\327?\227\270wPuQ\312?)\030\376\000\211n\330?\315m\3177\337e\263\277\016\334U\016\326\312\305?*\276\204P(3\354\277.\366(\2246\214\327\277\346\312V?\235\365\276?dW\230k\260y\323?W!\214\326\262\371\313?\326t\3071\313\270\331?m\326U\205t%\330\277\217\256\354,\017\301\341?\207P\000\030\313\327\331?\216s\267\215)K\361\277\037U$#S\010\323\277A;x\301\225\254\303?\r\277\014\033IP\332\277\302\030\346\006~D\317\277\354\246O&\034=\252?c\260\317\245>o\270\277\205\275Pl\260\225\346?\210(\372\373\340m\341?\310\262\355pb\020\353\277:\313\301\265\313C\315?\200\373\023\334\237 \322\277\\\336L\3365\323\324\277\263\2032\264\031D\307?ZL\306\270\242\177\351\277\344\3716\326l\241\332\277\244\201\021$\317\222\230?\321i\246\376\352\347\342?\226Dw=\347\352\345\277\231\033\366q\316\033\264\277c|\033\177V\341\333?c\242[4R2\316?\203\030\272\\\316\312\305\277]\346\343M\306\213\270\277/U\013\330D\206\332\277\306\207S\302\325\206\341\277\325\033\234\013E8\325?\307\237\024\013A\200\343\277\276\347k\3676\334\275\277-?\013\031\201,\347\277\354\351\221\305\004\330\270\277n\200\246j\034\216\335\277c\035%p\264;\342\277\2563FT\277\374\331?\r\302\237\275\304o\316?\237\226\343`\261\204\333\277\246\364\224\312\371D\323?)\336\316\361`\316\313\277\366sA\273\305R\302?\025\252fE}\261\321?\020\275c\317\227\245\304\277\352\365n\335\332\255\355\277S\026\0036y~\335\277yB\233\250M\"\326?,=_d\217.\331?U\311!\303e\341\344\277Y\246\253\347\214\203\321\277\200\260\356\365\203\023\301\277=\262!\201\322L\256\277\273\207f\207$\237\264\277\235\256?\303\323J\337\2771\250\217\365]\272\350\277\020\311\276\3613 \330\277\240u\264\215>3\333?\315\034\321\032\333z\336\277\366\342\312QB9\306?i\327[R\254:\344\277\222\204(\2524\020\304?A\353\245\320\276\314\271\277M) \272\220\212\320?\250\210\tM:\017\300\2777\031\016\370\343m\334\277\273\240\324bOw\320?\326\026\"S\010l\337\277*\307\312\342/\331\347\277\030\252\260\241D\027\307\277\315\355\024\364W\336\335\277\"\2214\225\013\347\337\277\177j\304\333]\252\310?\033\000\320K\310!\333?\3261!\317\261S\350?\267y\245W6\375\346?\030\375\351\276\371G\254\277\211A\'\240\335\340\346\277M=g\321\375\350\305\277-p\376\242\215\'\326?\274\271{N&\202\254\277\300/p\215\371O\321?\t\372=\344\007\320\327\277\200\302\327\277\327\360\325\277]\350]\227\033b\333\277\335\017\353)G\331\323\277\220\032\223g\345\263\334?\267u\327\357\241\303\322\277P\212`\025\300]\343?\360\301\340\036u\334\341\2774i\206<\365\336\324?j$\023\221\304x\313?\262\365\240)\323>\327?@\270\212\332\253\360\314?:\222W\0243\005\352\277\3327\300V\211\307\327?za+\204\264\301\313?\306\273\232O\334\375\261?\341h\"\245V%\332?:,\2610\256\221\244\277\303\027\353\277Ye\301?r\317x\206Z\347\337\277\034\340\351f4<\331?xh\t\327\375%\330?\226Ij\233\251\323\332\277\276\202Z\314\265%\325?\372V--\245q\337?\360\266\342\331^\242\341\277\233J\r!\327m\322\277\331\004\225\373Kb\332?B`\277\030O\177\304?\374$\201\233[\233\331?\210\334\207\240\016g\235?\002\207\366\266\226\024\314?Q\337_mJ*\337?ZI@f6\275\344?\255\216\300S\377\260\321?k\210l5\005\'\342\277)\235C\265\253\013\302?\352\007=\344v\242\336?\234\\Rd\254z\335\277\254c-\261\020\266\261\277\315\335\334_\005\371\317?:\212\204\334\356\006\357\277)\001n\016\363\353\336?\255\305\352C\362J\323\277c\027\313\2407q\334\277\213\260\213\263\263\027\324?\301\344\244\362\021\222\335?\360\021\331P\274\230\315\277\323\215<\031\236d\217?H\247\371\241\377\001\323?\253Q\245\312+\325\260\277\003Z\025\307\010m\304?Q\316\303oD\305\345\277`=ogv\342\316?=\376\357kxP\265?)\3758F\332\021\320\277\203G\235\"\001?\327?m\305\234\251?<\266\277+\031FN\255\004\353\277\325\345\026M\034\034\271\277\256W\216K\301\364\335\277\212S\2403s\323\270?+\216\232~\312\301\326?o\212\001*\321\'\301\277~\332\035\026Ju\315?\336\320\230\257\204\201\267\277\224U\275y|\'\300?IU\351\333\313\221\315?\235z\007\371\307R\303\277\014\327\3065\341\233\320?\352\263:)F\202\326\277\277\307\234}7J\315?\034!\264\204\264]\340?\247N\003!\231\027\302?u\376\233\200\302\246\341\277\315\201\256\303nG\330\277\344\235\374\376\304\232\332\277b\360\233q_\220\332?F\201\362\363Cp\316?\332\206\033\254\342\271\347?WH\002\327\2201\337?(!\016Ly\254\341?y\356\333.0\010\344?\216\372}\206\213\226\322?\032P\010\364\323\324\340?}\014\233]\026\242\320\277\t\004\241\003\345\365\306?\267\336N+qY\345\277\246Gx\\_\271\313\277\332m\203_\336^\342\277\345D/\242\376\323\331\277\024\242\013duk\331??U\2516\306C\331\277\357\262/g\216x\323?D\341\016\330)\243\300?\332\225\243\177^4\330\277\025z\212\341\247N\326?\250\314\231\324\361:\263?\017\022\210\302\255\354\320?\rO\021\356\275\030\340\277\241\203\261\t\352\003\317?\253\371\261up\203\307?\350)\242\305\361U\306?_9\321\004]\327\341?\023\025H\351\004?\264\277\2454D\017\330R\304?h\212o,C\303\333\277\254\010&\244\256\253\351\277\364\272\006c\023F\323\2771\227\013\330[\334\262\277\315\252zIG\032\351\277\244}\376\t\240\024\342?+bT\034\255\277\273?\'\266\245\376\316?\337\277\032@\\\010s\004\330\277Xkhe\030E\350?B)\330\311\306e\341?\334\256\367g~\203|?\2457\200\331\3513\277\2775\264\263I-\232\327?\313\010t\204\356T\355\2770F\232v\311\033\326?3\343k\362=+\302\277g\036L\231\354U\264??\315\260\t{B\337\277\r\372\007\207\236<\325?b\362eXLQ\241\277\272\236\312q+0\302\277 ,\231\217\013\002\272?\025\037\277\246\316:\344\277]|l\023\344\350\300?\332z)IX\007\222\277\353E\224\330\255\222\340\277\363\372\273v\227\343\267\277\2777\340\261%*\327\2771\2214\317j\336\335?\001^r[\231\334\334?\354\210g\326r\303\304?\016/\260ms\025\301?\244\203\323\366q\330\333?o\361h\357\026\354\321\277\304\275\336\200\351+\337\277\313\027\231M\2376\322?\026\257\010\262J;\340\277\3648\362x\357f\323?~n\217\361-\237\346\277\037\333\207\377W\253\325?\3047\241\351\245\362\331\277\221\005\362\364\361\"\322\277Z\344\374\007\346\355\341?dvD\010\320\253\340?\343l\344O`\030\320?\361\377\376E \316\222\277\334\211\253\005Kj\313\277\300\273\270\306\373\375\320?\250R4\374\006\007\322\2774\335D\352j\253\334\277\353\t\262\305`\206\320\277\365\010\255)\260\362\264\277P\021;j\350\344\223?\373<\316Go\023\350\2770|\350\214=\315\327\277\032\\\013IV{\341?\022%y\231\261\306\314?\013Agy\251j\321?@\363\300\241\037\254\303\277\203T+\314\274\000\316\277\242p\357\203\246\330\343?\253\303?\343\246\261\324?\241\351\354.\225A\334?2\237Y\220\"L\311?\027\316\233\205\373\347\335\277q?`\215\362:\346\277\243\265\267\235\302\337\257?Q\2700\200\010\026\305?*\234K\315 \363\205?]J\205\221\310#\260\277x\017\202\\\307)\331\2777\331u\230(\220\317?A\360u>\341\364\273\277\272\204\307|\014\026\320?\347\235\227@u\034\324?\205\227\344\344f\260\301\277rI\n\264\311T\337\277Hy\221\243H\021\346\277g\345\212\377nf\274?Rik\"\243w\322?\274\251%U\nr\337\277\325\026c\271K\017\342?\223m\263\330\362\263\342?~\276\331\271\211S\302\277\'\361l`^\263\342\277\034\311\252\360\360r\267?\274\207\375d\353\250\261?g\341\215[\2004\341?\350\305{*1u\321?\335\312\001)i\010\343\277\272P\330\311\007<\316?,\\\2457\350\326\263\277\371\332\300\247CS\335?\364f\272\304\177V\341?\014\272\273\371\265\t\341?K\204W\2160\327\273?\203?\337\225\"\030\317?((v\027\032\350\337\277@kn\357\212\277\332?\264n\257\010\322\203\320?\242\320\310\307%\'\345\277\257\370T\271\202\036\346\277\224\236\r\333\262\216\346?\225%\226\361\020\251\321\277\275\261\351-\013\274\351\277\277\327\177c\'\353c\277cv\306\371\nj\303\277@\334\303\254\221\340\302?\032\"\245\004\001\202\342\277N\207R\360{\003\332?\373\266\311x\275E\357?\014\013\252\212\341c\313?\271c\202\006\332n\231?\231\375\005\232\237\312\322?\230K\236\333\270\314\327\277\243c\217q\330g\307?\367\n\000#\002\377\267?\244\366\267\310\375\344X\277\342\351m\352\007n\333?\026\345k\006m1\322\277{\2213\030\255\326\333?Hj\230Y2=\322?\027\201r\250\321#\337\277\205|* A\205\341\277\272\233u^\253\342\317\277\216\t&\371q=\343?\242\352\321\232\330\332\343?Az\336\253\332$\334\277\366m\320le9\342\277\210%\2267\262\320\306?\022wR_\342\t\300\277\347\233\230Drj\336?\263H\032\354\366\000\311?\357py\'c\261\335?(\300\234\003t\'\341\277Q\262\220\360\323\202\342\277\002D\367\341$\305\333\277/A\231\222+W\241\277\2219\313\376\243\304\311?C\245b\233\3455\250\277tx\177\251\372\312\332\277\377w&\222g&\322\277\031j\365\377\215\235\341\277\0342v\000P\304\336\2771Q\375\344\235\376\351\277\350\314\344\233Y\242\335?\240\252\3070\230\260\242?\333\364X\204\001\206\353\277SRK?\235\331\251?\377S\342F\204\\\337?\247R\265\313(\366\337\277\306*j\376\366\004\250?<\212k\002\375\232\305\277\202O\334\207\343f\343?\276\310+\230 \254\323\277\030\032W\316\221\362\341?\244\236~E\3335\341\277|\366\305R\202\351\272?\320\241>U\\\337\271?\234\360`\005L\331\245?\303\217\327\3701\314\336\277\001\273\261\014C\276\345\277\236\033\324;\376>\330\277g\005:\317\340J\301?\230\210\225\361\017\332\242?\357\207\210\016%\233\325?\243\260]\254\312{\331?D*Z\2706F\313\277L\223\331\010\"\n\333\277\200\375\216\005+\030\330\277\307\244\325\275\035\243\321?yW\262\307\"\361\325\277\370RCUS\321\312?\225\251\003$b?\301?\261\234gt@\233\304\277\237\244! \235\257\323\277si*\235r\037\322?\260\303=\0307\317\341?+\344\245DIQ\310\277-\277\223\274\334u\322?\226\000\014*\211b\301\277\254?\252u\373`\327?\025\364\031\360\256P\362?M\334\313.L\020\332\277\202\226\033\356\254\016\311\277\366\023\206[\010!\352?#\370\261\242e\364\331?9#4\"\325\243\314?\025c|\273\204\326\330?3\006\237\265\207\316\327?\252)\215\202\333#\307\277_\316\227\372\3537\342?\361\274K\255\315\360\300\277\250-\203\2055\355\271\277>C\224|\260\246\340\277\366UIS\253v\270?y\366\237\313\374\241\257\277"
      }
    }
  }
}
node {
  name: "normalize_element/component_3"
  op: "Const"
  device: "/device:CPU:0"
  attr {
    key: "_output_shapes"
    value {
      list {
        shape {
          dim {
            size: 749
          }
        }
      }
    }
  }
  attr {
    key: "dtype"
    value {
      type: DT_DOUBLE
    }
  }
  attr {
    key: "value"
    value {
      tensor {
        dtype: DT_DOUBLE
        tensor_shape {
          dim {
            size: 749
          }
        }
        tensor_content: "\255{\024~\372\025\311\277|J\224\233R\260\275\277\373\t:UY\002\331\277\256\376=P\354\245\333?\343Z?\334\362X\302\277/0\266\006\356\004\324\277\310P\207\254\r\273\300?:5\273\343:B\341?;=\215\323\021f\333?\360\360\240\272\265B\305\277h[\177\310Y\334\225\277\035.\373lp\027\336\277\374%\217\264\202\035\323\277\360\010\314\022\313\361w\277}\216`\273\312C\305?\247\360{!e\377\300\277\264\027\347\260\355=\345\277\254\301\356\262t5\335\277\307i[\3379\000\300\277\271\275\272\254 2\350\277\034\010\022\007\007\022\325\277 \221\275\026\n\311\324\277X\0342\3623\213\315?\361\351\311i\177\303\323? \272]m\273\321\232?\020\376M\306X7\260?1\2006\010\013\203\245?\340\304\016#\375!\341?0\207\276\201\311\354\267\277\r\254\346\327\365\014\331?\270F\205\247\007\322\341?S]_Z\341o\334\277\226\2074k\' \325?<\256htU-\324\277\2740\246\304\250\021\340\277;\331\277\221\261\005\333?\305\017P\257G\331\303?\315\240\223r\360N\333?OtW\271B\211\323?#\032O\247\374\245\304\277\261\177\265\034j\033\327?\303\316\262i\300\030\314\277\262\247\367v\355\004\333?\365\274\2740\021p\347?\357\023\345\016t\273\301\277\253\177\031\017{D\252\277\210\222\365,\207 \260\277\010W\334\202\271\200\310?\242\027\005\366_\t\337?R\247\351\235\003\343\333?\361\361Oh\001\013\311?\361\205B\3369z\265?\234\343\364\364\360\266\305\277\tT\316\310\027\226\330\2778u\r\004\311\222\261?\340Mi\261\n\241\334?/\312:X\324X\267\277\345\252gV\020k\322\277\302\374m\334;F\314\277\216\224\021\276\310\233\325\277\275\302\224\202\275\345\344?~j\366\307\227F\323\277\223\252\'\014\300\026\327?\010\204/8M6\322\277\376\221_\033y\021\304\277\332\003\250\302\013\207\340\277\244D\306O$V\255?\313r\207\206[\317\313\277\363\327\221h\272\247\321?\030:\312Vv\256\302\277~\003\303y\207\003\330\277Qw\307\246p\017\322?\337\305\216\305\201\323\326?\237\'=\237\365\302\332?):`HF\027\340?H\320%0\004\324\300?\224y\264\323f6\323\277\370\002\233h&W\331?\035UE\360I1\320?\2100}\022\005\220\340?\371\177\231\3048\275\272\277\267bQ\350\033\370\210\277\024\377\252\354\227,\333?k^6`\024\301\263\277\177]\037\311a\320\322?\014z}Z\330\216\302\277 \235D\300\271\312\310\277D4v\202\376d\323?\354\203;\261:\020\336\277\362\306\331\235\374\025\312?\013\260\301\177}%\261\277\027\230\323\345\372.\337\277\232+\272&.\004\322\277Y\n\216\275+ \340?\327\005G\314t\247\265\277\330\022\233]X*\321\277\333X9!2\236\341?\0210\242\221$\275\335\2776\304\204\034\241P\343?\252\207\354\352\022\366\264\277\020\031\005\361\343\317\322?{\001@9\243\216\314\277.\311Z\3700\'\300?\031+O\302\321\240\315\277\202g\237i\226\314\302?\'T\371\306l\357\333?\2269\351\034l\203\334\277F\020\030\320\245\315\266\277\025\315\017\265S\215\304\277\230\206d\376\007\266\322\277m\226oQV\353\326\277\301\265t\350\026e\317\277\n\357U\222\363\342\306?\222\252j~Ik\316\277\'\361IRr\213\336\277B<\037\267\220\353\310\277\n\013\331\277\305R\341?\215\022L\027\036\337\341?\364aT\237\314\265\331\277\333\245\317\357\243\326\340\277\271~K\tv\331\312\277\010\000P\035\243\336\332?\007\305\375\205\243R\254\277\242(\200\334d\264\273\277\211\265\374_\266%\313\277\033A\346\252\365\250\341\2771\306\320j\316\275\326\277\350Y\005g\357d\330\277\341\266\310\271\344\002\322\277\267\021\\\352\220\002\277?\373P%*y\305\325?\037\327\373\322\362\225\304\277\327j\rq\245i\311\277\250\251\275\331\371N\313\277j\221=t\'\206\310?F\316\207\323\221l\320\277v\321\034\325\331\312\324\277\230\331\3254@\017\311\277\211#\300R\336l\302\277\025AU\022*&\312\277?P,\025\016g\325\277\\\024c6\032A\316?v\216y\371\322\234\313?Uw\250\035\337\001\326?\020\232\227\255\272~\272\277p\002gB\366{\334\277R\027?\337A\017\341?~M\225\325\2628\310\277\366!\014\216Jb\226?\373\325\237\001f\204\326\277\005A\201\363\021g\321\277\000\024\3641\200\333\320?\272l#,\375\227\327\277\265\272.\220_r\301\277\377\306d\226\031\270\340\277\366k\327\270\234\375\311\277\372A>\267\"=\343?\366jM\235\232\024c?=\203\235[3 \310\277(b_\300^\003\332?\260^\033\220/\307\227\277a\\w\337n\332\275\277\240\261\355\023\231\315\266\277\321\314\314\"\244\352\331?\264\253 \207\020\'\250?\007\250\340\356\234\241\307?\354v\227\002\220\227\312?\240CfY\0258\312\277\005 \337\237p|\325\277\355\017\031\362U.\323?P\303x \007\246\325\277[\\bVU+\321\277\254\236\276\276i\233\305?vA.0\356\234\340?w\001q\313\375\000\343?\314;\206g\322!\300?\263\350\020\274\037o\273?\367:d\361\233\003\334?\342{|\223\3522\264\277\367\205/\021g:\321\277\250\344\255zYB\340?o\256\034\002/\005\320?H\343 \274\326\256\310\277*+\323uN^\322?\236\266\320a|o\311\2779An*\215\233\311\277\246\214sI4\330\321\277\026[*<\300\317\276?\271\005\266)?\\\307\277\306\242#\363\333\t\301\277!\241d\330\366\236\261\277\036\220\357\332\260\220\246?\350c\024bK \326\277\321\256\377Mj\274\234\277\006z\005\023o\314\314\277\224\356!M\336?\300?\013\255\227\277\316\233\343?\3005>\220\363\310\311\277\366\342+\320~\350\231?\217\ru\264\'\271\326?]\322?\336\310n\255\277P\t\222:\2529\341?\365\340\265\277\237\223\307\277\324\265\"t\341\360\275\277\322\234\032K\005p\306\277G\217\310\027\005[\247?s\251\2061?\224\345?\251\252\230\364~\204\264?\331M\r\221$H\322?\364\235\365%S\222\325?\001H\223\3233X\320\277=\010F\365\211@\306\277\365>=)\253>\331\277\376A\321\230\253\222\340?\025\007\317\203\327_\346?\227b)\265\3668\315?U\300\355\366\202q\347?\036u\357\366\221,\270\277\335\251\230\345\267N\323?\3733\021;\220j\301?\207\237\252=!\367\341?tN1\240k\035\315?N\311\277\334H\223\266\277\307R\014\354\017\n\251?(V&\003\302\325\306\277\252\266n\237\211\271\302\277G\232\305p\227z\300\277\267i\262\005_g\277\277I\3725\360\036X\234?\310\240\370\032W\322\311?w}+s\256\330\333\277;\344\202i\251\315\327?}\t\267\033\016\374\337?\213\262Z\3367]\300?H#Z\246E\335\334\277\025Nr\232\002}\322?o\263]T\217^\334\277\200\204\344\030\367\026\304\277S\020\'\035\337\314\311\277\265\214\034A\251\201\271?\035u\247 \004\212\240\277b\357\252P\360-\205?\312\345\376e\232\262\327?h\253\020\026O1\342?\036\233\354=\330\035\332?\000\310\323 \n\341\322?\365m\276p\255\205\266\277\230\260\030\245\004\345\253?E\375\354\024*\002\311\277!\243\217\241\343D\322\277\213\364C\035K\334\304\277\265\206>\025\035\232\304\277\327\201\t\2271\232\311?\3009y\233\241\356\307\277\"\342\3078\343<\323\277\253\313Y\230\322m\327?\304\375\026G\267\005\332?\260e\223a) \274\277\205\241\003\240\335\305\327?\233\"\363l\275\206\331?/\203`\332R@\341?\225\004\206%`8\316\277\245\005 \2679|\320\277x\372\211\0047\340\310\277\201\261\rd\260\370\343\277E\305nh\245!\262\277\302\231n+\277\255\335\277\330~T\035\227\301\262\277%\240\307}\372\325\270\277t\240EOM\221\314\277T\316\325\305\005+\204\277ZH\364\317\034\344\261?\026+\202C\"\276\300?\331\2356\375\231\240\251\277\326\024\222;U\020\344?\373\332\016l\265\017\304\277Spk\275\333\233\340?}\341\314%\377R\327\277VU2\215\225~\315?\326\315\260\373|l\330?\2550\034o\324.\321\277?\013\337\301YO\322\277d\231vo\210\332\311\277\253\361\251*\037\035\334\277\313\033\303\326[\224\327\277!d[\001-\304\333?\336\014\270\225\353\373\275\277HN+\270\235l\324?\317\033\376)\230/\331?CB\267\247\021\373\335?p<\017\362\340\340\332\277]\212C\351\312\335\314\277\344#z[\215\302\275?J\244*w\320\014\320\277\216u\237RX\300\221?\014\004\033\344\274\361\326\277\210Au\265\3552\324\277\242\243\226\207\210N\341\277\361d\347\317Y\373\333?4\022\250\257\311Z\341?\353\225Rz\327I\277?4\324\321 \331(\326\277\261\304\016\320\376t\334\2770gz\246S$\304\277\351\3042\315\032\013\320?\306\353.\221\032;\331?\241\3475\257{\360\322?\\\004\207\rMz\326?\325\020\032\223!\232\311?~@\017\210\255\025\314\277<\340\263\206\001\370\323?rX\222\0135\256\311\277T\306NQo\231\315\277\366\215\351\000\223Z\275\277B\277;e\250\007\252\277\332\237\361\"\230\373\325?\257\241\363\2002\343\337?\370\222\013\317\265\033\321\277\333\235\"\271\335\237\324\277H\0249\020\371\216\245?\234\230\354\344\316\235\330?\034Z\360\333\210\377\305\277&\024\222\351A\233\300?,8\270\257\270\357\334\277i\331TH\t\274\333?\311jm\3131\233\321\277`{RH\262F\304\277\025o7\007\222\370\346\277L\205\017\350\240G\321?}\036\234)\376\343\340?\0143\307\266\332\373\302?\033\340\303\024+\245\177\277\020\313\256\026 \251\306?\232\262\327\221\321\225\320\277\333Z\005\270\340R\341?\\\\\r\005\220z\335?,S\205\222ft\260?\236\231o6q\033\335\277\340\016-4\002\325\302\277\220\263{\214\266\367\252?R\307\273\247\237\373\320?\375\260\332\346\272\006\316?Bx\035z\365\200\321?>zL\221\314\017\251?)\023\2350\005R\314\277x\026\366\266d\005\316\277.\341$K\321\260\320\277\tq\231vx$\243?{\361\256\311s\305\240\277\370\244\031\017R\371\310?R\241 \216\366\373\302\277\221\027\021\370\322l\332?~JoI2\'\346?\034b\277\377\323F\342?\264\254\235\346\0373\324\277\205A\332\302\025\255\320?i\033\033tD\365\325\277\305\001@\004\006\t\340\277\210\207\363\215\336+\240\277N\370\322(\344\347\314\277@\234\351\347\347\006\304\277\010\213\016=s\307\342?|\210[A^\021\334\277X\036\342\202A%\337?vN%\255\241\244\340?\360\312\366|\377\244\264\277\253U\270M*\323\300\277\324\201{\313\326\367\301\277\034\336\303)\336l\266\277\004A3\300\210^\330\277zx\244\032\370\304\307\277\177K/N\300\260\315?\2716A\363Y8\330\277\326\000\307!;e\314\277\210\207\t\0228\212\262\277\r.\240j\371\335\223?\226\251Q\276\255\265\271?\274\275I#\003\354\334\277\223\342\355\372Mw\316?\024\257F\'\346\331\334?\370*t4[\007\300\277\377\010\267\034p{\301?E\321K\260n,\262\277\031\016\270\256\205\366\327\277\336*>\202r[\317\277\302\362\0018\256\312\265?\004,&\242\013u\336\277\353\342M\032k\324\317\277\014\252\036=b\333\330\277J\222\206\016q\036\310\277-FR\375t\326\263?\270n\306/\357\217\330?\004x\255\321a\266\344?\310\334)\'ou\312?\310j\342\314/K\321?\037\370>\336/\025\322\277`\263\262\362N\215\241?\004|\340\0058\242\312\277\236\350\367\375\215\001\320\277\211\316o\235x\177\320\277\243\335\331|qn\310\277\006.\307\021l\224\334\277PQ\271\307\277\371\323\277\243\322\2365\330T\333?\000\362=\224\034)\342?j\260\200\255h\307\344\277\243\354\014\323\0107\264?\312\342\212\223M\335\312\277\373\177z\007\224R\270\277\262\234j\222\200\316\320\277\211aX\272\362\352\326\277\262\345Yd\261\346\246?d\311z$\020#\336?[\375\202\n\245\\\323?\340\244\237\224\034\377\304\277e\035\347\002Q%\342?\324\361? G|\270\277\340\301\016`f<\305\277\252\035q\n\237\020\251?h\227\347\250\212&\332?\264bj\016\322\322\332?\203\275F\361*\"\326\277\026-\261w\026\323\325?\354\236\235\322>o\271?L\354K\022O}\344?\013\007/\020*!\331\277~C\023\005\213\366\303\277\034\311\233-M\004\300\277\213\346t\320\372\371\327?\343u\320\215\342\036\344?+jS\031\022\215\340?\264\002_\2204\026\331?\227N\256\370\352\337\314\277\374\213\014~+n\330\277a]G\256\320\202\334\277&\266\216\033.\177\331\277\260\316@q\325\374\313?\340=\260\265q\"w?n\315\222Hb\245\267?\003G\002\341\320\343\310\277#\304T\\\236a\323?5\025\032\376\317$\310\277(\310\346\033\247D\344?\262\332r\020mI\246\277i\330\345\036\0356\245?\366\343\210\364\2574\340?\240\024\344\322\026\224\305\277\270\330S\331\356\366\322\277\035\266\306^\030e\324?\367u|ip\200\320?T\341\243s\321\024\330?\177E\371~\344_\323?)\205\326\320\367R\326\277\2319\275`/\307\301\277=uP\354u\n\324\277\271\356\307\345M\355\341?\377\360\210\"Q\362\320\277\351\366\232\310L\272\302?k\276{#\023\203\245?b\t\353\301\323\232\341?\204J\264v\253=\327\277\356f\032&\007\\\337\277o\230\214\270\347\032\344\277^p\306V\3701\325?\354\317\316e\016\343\320\277\244\312\013\3550u\327\277#\311\346\2113|\341?\032\242Y#\264\364\311\277\2075\373-a\327\303?\0278\315j\241\342\307?\024\002\022\220\013\356\341?\257\260\3548\026\210\330?\336_Ei\312\227\310?\205\353\232\010~j\333\277KLFk\270R\311?\370\373/\233@U\344?\270M\013\361b\370\321\277G\373!,\320\273\303\277\321=b\336\263\025\220?;\375\336\022\236\356\336\277\324K5|\270\010\333?\351\307{\272\213\217\335\277\230p\225\235H\335\310\277qF\350\024\232e\324\277O\335\326~v\307\331\277\351\027&\340\0015\316\277\026\325%:\215Z\262\277w-\314\030\301p\276\277!\365]:*\304\327?\333<\346$\360w\320\2776\235k\352\304t\277?<U\347\"\0042\332\277u\265\236\031\232\316\251?f\215\220P\266\214\332\277\3020\267\215Q\202\332\277k\353&\223F\226\264\277\325R\340r\2139\332\277\367\225;r\022\221\311?\025sy\332V}\331?\307Pv\230\221\376\322\277\371eP\232\311a\333?\302\332\234\242_\203\303\277:}<03;\267\277\362\036U\030\246\022\276\2773\005\221?\256B\303\277\213\301\201\202\3368\330?R\303{\205\273\306\324\277\242.cI\337\002\276\277\302/=[<L\306\277v\207F@\260\331\320\277\342\336k\314\016i\300\277H\356\342;x\273\321\277n9\202Y\232\220\335\277\361U7kR\217\331?>\324(%\311\252\341?\325|]w\265\337\340?c\271\021\363\331#\335\277\302p\327N9=\205\277\030\3050\026\271\361\340?\200\277K{L\316\331?\035\022\330Qq\235\332?0\304\036,\340\226\322\277\245\250u\023~N\222\277\030\350}\3351a\336\2773O\022Bn\017\326?\021\327]L\241\210\322?\027:\324\354[V\240\277\264\006G-\311\036\256?I\037\376W*\325\341?\362\250I7,\251\320?\335\306,(\024\266\326?\264\227\254\247\360\\\323\277\010,\327e\0108\301?\211*J\355\200~\340?\025:\377\370\311\026\355\277X\205\213\346\244\"\260\277Z@\353\334\345\"\343?\352\333\270\344\3712\274\277\260g\335?\364\010\336\277\"\216\325Vr\324\323\277\035@|\223\327?\324?E\014\202\027q\335\333\277\335AnE\271\240\323\277N\344\262\277D\020\342?&\361\273e\211\016\340?\023\rp\235`O\344?7pd\313n9\325\277f\271\332I\264\027\324\277+\316\t\325\3364\322?Rs5\352\343\346\263\277\206\317[\224\220\"\323\277e\217H\375\362o\313\277\311eJVZo\255?\252\022\256>\314{\331?$\351\355S\235v\312\277\373ZK\301\036O\270?H/\250[\2320\310\277\241K\027\tl\323\334\277\314\302\335As\026\323\277\355T1\026\205\205\327?\014XZS\\\032\320?\267\222=\354I\023\250\277\007J\301\317\353\370\321\277\317\010\366\371?\302q\277\342R\210h2\332\334?A\225\350\223r\270\244?\010\274\226\272\300\234\301\277\305\260\325!\177\311\306\277\321#6H\233\\\231\277?\325\270\255!\377\326\277\301j\031\177\311H\260\277\027\343\020\332\271\333\272\277x\026)U\201y\320\277\"N`wM\374\324\277\247\275\345x\374\232\344?2\200G\2237\344\346\277\001+h)\267\325\210\277r\233J\346\231*\323?\244LT\335F\021\307\277\027\227\354*F\214\203?\215\300\365\362\024\235\324\277?R\343\232\243-\321?\230>}\r\333\003\333?\267\303<\233\346`\326\277\245\036\3568$\352\340?4\324\017\337\016\245\311\277\356\243\346\215R\225\325\277\255q\013df\340\333\277h\354\304\006h\250\315\277\204S\337t\316:\334\277z\237\337)`\263\300?\306\230\000Q\025\217\302\277\32376\212vK\311\277\343WC\232_\036\326?\\\010\204f\323\261\313\277\317\256P-p,\322?>=\033\261\203\030\342\277\266\2514 \272U\263\277^\236\216\245P\241\332?\370\373.\350\000\362\275?\345#k$o%\321?\005\017L0\265\021\327?\206<k\202\355b\311?\3512\001h\367\213\256\277W=]e\t\307\335\277\036\324@)4u\232?\336(\222O/\363\266?\004\r\207/NU\316\277\360\214\244\035uK\346?\254\332U\336\344\373\274?\344_\232\346X\306\343\277\237\322$\256\037\216\303?\264\312>\217\336\304\260\2773\322\336\3556\013\335\277\373WUuv\300\323\277>\215Rt&\334\340?9\317\230F\323!\341?\003Q\314wc\323\272?x1\037\243\037\025\325\277\244\'\266\203r_\315\277\032\343\367y\371\357\342?\344r\262\344o\367\313\277+\221\224$\300W\304\2777\336\003\343\216Y\342?b\205\231/\277\276\305\277\236\225a\316\016I\335\277K2\366\240\344\311\334?\241\2460n\252\354\333\2775\317\336X\204\220\321\277\360|?\3277#\266?pM;\251\'\212\326\277\352?K\231\355\317\336?\337}%\235\340^\316\277;\330\273em\274\313\277*\036F\316\256\245\317\277X\310\203)`\212\300?\306\000\244\325\306\223\325?\352\220\327\313=\232\327\277\036\264\003\331\367\246\274\277\032\217]\335\307\243\264\277\372/\317H\215\324\340\277p\264\013N26\317?\027\264\266\236-\230\277\277\343[XBg6\323\277\221\202\213D\267\336\337?\352]+7\023}\257\277D\315E\312\350\370\312\277\351s\242Z\033\240\270?\262b\267rb\025\343?\372s\332\023X\030\326?]6/\357%=\317?\310oV24\312\336?l\r\300\235\325R\323?\362P\371k\3465\326?Q\264\214\007S]\242?\260\025M\274\216\351\264?N\302\310\315\271\003\205\277\031&%i\031\345\316?+\300LY$\263\344\277\305\334`\274\010#\337\277{\002,\343\215\341\322\277\370k\257\237,W\333\277\363/\031\367\302\000\320?,\3408\031\"e\321\277\003K\032\234:\202\264\277\265\235\231\026\253v\241\277\233:K\035\207\232\321\277[\005 \034,\212\323\2778L1C\200\220\346\277\356\337\311\317\313\234\330\277P\317iX\266\371\305?o\3411\300\347\273\305\277\217\356rik\032\332?\302\313\272S\350j\315\277/\220G\370^\210\322\277;\304*\021]\337\317?\314\366\242\273\301;\330?V\333\241_\274[\340?\006\244\313\212\340\272\312?\223\237\242 t\261\310\277\271\321\227\327\331\271\306\277s\361{\006\311\377\326?\244\374\276\317h\267\340\277\377u=\377\300\004\304?\361\002\000\352\274K\264?\314L\301\344\225\201\324\277\372E\003\303J\003\353\277P\323\300\016\021\306\325?\367Kx\307\315\346\323\277\346\317\2566\247\202\322\277\037\313\314UHw\311\277\020@,\301R\031\260\277>!\232\002\031\222\317\277e@x|\2107\310?\274\306\177\323\202\241\354\277o5>Ua\357\333?\373@\217\030\212\347\260?\315\303`}\320L\314\277\343\353\305O\343J\341?c\211^p\353\207\260?>Y\240\344\302\303\300\277\ny\3431\220\217\301?\031\211\021\3711T\221?\266M\270\0321!\332\277j[\360ci\375\313\277Jg\014\224\211i\322\277<\230\263$_\241\333?\246i\001\007\177[\306\277\335\305\357\205\204\216\355\277\340\022\247q\360\305\332?I\345\032>\346\310\266\277\334y\334\",\241\345\277\264{\310\0210\216\343?\026}uIv_\266?.L\356TS\336\310\277\265\33526\270\004\224?06\242\263\3103\330\277}\324\261c\361\314\333\277\3141\331\351iXd\277\344\331\\m\036\256\345?\346\255\306o\003\235\312\277k\364nUCX\330?\320P\023\334\314\016\356?)A\210\007\2128\325?\345\244\271\244~h\331?\314{\034u\246r\336\277i\232>\013\033\326\313\277\030~\273\315\017\006\336?\233S\261\270\017\322\311?\321k\337#K/\306\277\342\246\275\360\264\032\345\277\025\235\373\353 \233\317\277\035\014\373\254NV\313\277\263\360\037bX!\317\277\341\341\306\217\032\240\345?\034\315=M_\242\314\277\016SG\222\225|\177?F\3065\330r\275\315\277pO\023\244\267\321\333?\277J \320,\357\335?\001\305\221n\026T\300?7Q\362\377\2569\322?/\211\213\301dQ\275\277\225&`\247\221\031\302\277Ma \023$\243\302\277=j\004\240\'C\240?\250\346\360Q\340\010\330\277\271T8\351c\211\342?\344aT\370\0168\353?"
      }
    }
  }
}
node {
  name: "normalize_element/component_4"
  op: "Const"
  device: "/device:CPU:0"
  attr {
    key: "_output_shapes"
    value {
      list {
        shape {
          dim {
            size: 749
          }
        }
      }
    }
  }
  attr {
    key: "dtype"
    value {
      type: DT_DOUBLE
    }
  }
  attr {
    key: "value"
    value {
      tensor {
        dtype: DT_DOUBLE
        tensor_shape {
          dim {
            size: 749
          }
        }
        tensor_content: "\004b.u\001\372\332\277\214\276\216\353\375\347\227\277N\226\220\345\225k\345\277%\246\211\276\013\204\300\277A\312\337\205+\352\317?\237\\\007\rb}v\277\373\300\211\027\326-\323\277\007r\201\357\313\333\314?)\270N\031\314\301\320?\241\230\235i\267\030\315?o\227n\024\2603\306?\005R\020_\312;\255\277\035\363dLl\021\332?V\016\345|\216P\324?\306\022\373\024\272+\257?\256\213i\233*\"\311\277`\221\004v\270\236\266?\202\204x\305\n\264\261?#\244\021\200\304\230\345\2779Q5\352\250\316\330?\353\005\250-\324\354\266\277\020&4l\016\303\303?K\032\"\017\245\001\262\277\210e7\reU\223\277\205\335\251Yd6\266?FAZc^\252\313?\275z3\204\206\003k\277)8\020)\275\t\306?$\357\355\356\224D\274\277u\276m\353\021\356\251\277\352\255\253\037ML\305\277\373\324\024\250H\334\210?\006o\2071\364\007\222\277\231\245LE\317\351\313?\261\233\372\252\235*\233?]^u%\177C\232\277\365=\262)\240:\301?\021\031*b\273\'\275\2773\315uyn\241\304\277\226\246\215\327\252\353\307?\361\330@\336\376j\255\277\216\242Q@\316\313\306\277MH\237Z\212C\303\277\351b\177\302E\373\334?\354w\302\001\355\227\302\277D\324\256\360\024\214\335\277\360\373B3\377E\263?\032N\326\251\335\202\345\277\026\341#\001\004W\262\277w_y5\3427\272\277\343\'\323\332AN\340?\231kL@\326\022\321\277\275\224\034\013\370\204\302?@R;\255\356u\275\277\0222\201z\216\264\327\277w,\263\256\254\375\315?\346\341]P\236\006\301?\032\"+@\233\271\330\277\034rrVL\355\314\277\003}H\350\224\267\263?\203b\2427\177%\322?:\274\263\346\216f\302?*&\261\3739\213\313?\022\306\n\t\240\036\331\277\021\002T\231\304\201\206\277E\024\216\331\350w\223?L\000\214\313\033q\306?\3029&n,R\313\277\277\007\207\354\370\211\312?\372\206\324\206}\372\242\277\331\332\375\3525/\216\277d]\247*\312\314\262?\335\251DIr?a?r\037\240o\306(\272\277\277x\013M}K\322?\2413vC\025\211\324\277\375\312C\365~\240\253?\267\017\221\002\\\331\330?\236@\231\023e\230\240\277\302^\263q\222[\316?\004K\036\257\333\202\300\2776C~|\177O\324?\275\245%\261l\266\305\277\357\17781\242\362\323\277\302\264\2535\000y\234?k\307\177\260q?\326?@v\tx\366\350\341\277\371Y6\250oE\332?S8:\363\332\273\226\277\017!\242\031\001\223\320?Z\356\243$5/\321\2777\236\005\373{K\262?S7\013H6\351\324?Fx<\027\227B\300?\367\036\207\235\031\365\244?\353o\361\nb\257\312?^YU\254\017<\237\277Y\302\342\373\261\203\325\277\322z\310\025]5\325\277\314N\\\217\273\343\324?T\010v~i\321\313?P\263\221\377H\214\324\277\300\247\335\264\340E\226\277\316R\016\254\354\236\321\277\rE9\370s\343\326?\242x\240\267\270f\227?[\303\017\024\026p\270?E\312\204\231$\014\307\277\251ok\2766d\341?#\177Kk\331J\332\277[\221\243\272\344\201\245\277\r\250\366:\014\265\340\277\313Z\331\256\021\225\325?\330\343\311\370X\235\313?\027\265\265\026r\340\255\277W!z\304\270L\324\277\0134\313\364\035Z\261\277\322z4\324[\271\327\277\354\215\006\271\235F\254?\035;wA&o\276?\232\341\010\240U\367\316?\023LJ\377\305\226\311\277>c\353\203\377\301\226?\256\205B\325o\003\231?\324\240\364\371\243\277\335\277\272\033\023\361\313l\234?\205\223\261\276\347\270\311?\311\005\035k\315\016\247?\207P\271\023\302\247\246?\330\036V.ax\321\277b\"\345\255\207Q\301\277\023l\206\266\023\326\333?\356vA\263\236,\343\277\362\276c\010\035!\276\277\014\007\250\004x&\305?Vb\224\031H\314\316??\"\313\017\236O\322?\026\025\315\232^N\307\277\263\355z[\267\255\254\277)\034\300\226\204\032\330?\202\335\020f\201jl\277\307,7V\031\311\313?\242\007\216\276\347\305\343\277\205\236\213\371\246\247\262?Ig\204\3052\346\324\277.\034\341\350\230u\276?_;\222\027\334\373\312?\261\215\322\003D\273\313?N\033O\307\342\313\224\277\252l\35745\206\242\277i9\031\211\027\022\334?\254\335\237\213.\373\307?\302\031!\016|0\335?\2411\317hp\007\305\277\027\323\302\"/5\277??\361\332\221\200\354\300\277\311sp\256\201N\241\277?\331\323z\225\031\316?<X\355_\022\212\303\277Y\341&Lc\252\276\277!!\021\345}\250\312?fWc\234US\271\277\226f\367\273 \035\332?\267U\260 I4\301?\244\257\217!y\224\335?C\226+8\257d\307\277\254\200\370?\354\262\323\277z\232n&\356\204\302\277\027\301Q\316=\021\325?\336S\244\025f#\263\277\033\362\216\240*f\330\2771L\317\240\217\021\301\277]\332\'\355\001\266\325\277\034\362*\377\000V\304\277\334\360\205\304\\\027\316\277\025\313\317i\332\256\220\277\242s\371M\233v\274?%\222\366_de\261\277_n\255\220\241.\313?\027\240\026\205V/\341?\213\217\264l_%\321?\224*\002\227d\227\222?\031\010rs\206\'\340\277\315\373\001\325E0\317\277\002?\255\221\356\330\321?\344\212\374\327\243\200\250\277\025\305\013\357\335\201\300?\330\222\222\035\204\270\315\277\346\375#\250@\322\333\277\355\373D\331\256w\330?{\251\332\361\364\263\305\277\260\346\3563\026e\337\2771\277\207\350\277,\314?\315\332Hy\267\"\306?\266J\3349\306E\337?Z\341\023d\203\330s?\345\2507\361/\244\315\277\001\224\200\301S\315\255?\211.f\307\310I\311?\035P\364\007NC\231?\230\275\212<JH\315?bc\243\332n\334\223\277\310>\203h\n\371\334\277\244\302O\242\277\212\331\277\217\271\020a\261:\312\277tLi\360\013\373\325?\204\3146\243\'\262\350\277\254\021\215\372Q\202\307?\316\246\370)\242g\333\277oM$+t\204\306?M\322\304\212\247\027\307\277\375\177o[;}\334\277\252\2378a/\332\301?t.\014\230\250$\256\277L\373\n\020\244\271\263\2779\237\025\205A\272\266\277\341+\020\322X;\312?`\010c\304\367\215\324?\005bI\362\023\212\223?\220cc\213\352\264\302?\342~\302\013\246L\277?b\326P\275-z\346\277Rvw\230\352\003\315?\031\262\235\330N\277\317?\225i\226n\250\264\323?r\021\354E\360\214\333\277A\254[D\203\010\324\277\245\232C\016l\270\333?\013\322xD)\035\233?\210\2407\231\252\257\316?rT\032r<&\326\277\344l\376\005WP\335\277\250}\372\020\355J\305?H\000\324\220\0004\322?F1\236\253>\332\221\277\271/\204\355!z\323\277\275\206r\364\342\256\241?\260)0\372\233r\343?r\275^v\247\032\300\277/\202\227_ft\321\277\200N\322\333\272K\255\277\032\276{\013\253\200\324\277\345\005\327\301\227\226\306\277H`\243\210{F\265?\332\240I%\240\367\274\277k&\236K\362o\241?S\270f\007\2779\243\277\230\253\367\355\332\304\300?\303p\365L`\252\204?J\333YY\371U\325\277\206\226\276\326\303\277\306?g\231YXw\266\324?\205\206OV\310\337\327\277\3446\246\375X\301\300\277\370\373*\276\272\014\272\277\312\315\232\331\272\256\311\277Lr\220j\256\277\270\277j\226Sz\255G\326?\333\366/\273\326\002\301\277f\317\332\350=\200\307\277\227\250\023I\302T\251\277b%\032\230s\211\334\277G\205\002\"1@\331\277\325p*\267\336\035\336?b\203b\nk\372\274?\010\255\256\237(\261\342\2779H\244\004\007>\266?O\326\004\2016\352\326?\303\371J\002y\206\303\277e<_No\n\332\277/d\"\224+3\310?\224\235\321\2228\244\315?\014\300=\252<\307\313?\240\037\005\327h\346\264?/\362\373b\250\340\321?]\275\343\333\302\241\332\277\267F--z\314\300?\013\215\231\245\341$\335?*:B\325t\223\336?\252\006\204I\231M\262\277X\317\356\223\027\242\265\277\014\200\303\365\240\241\323?\260\305\276\334\307B\251?\312\342p\227\373>\236\277G{\036Y\3746\324\277\274\006^\360\000\203\324\277|l\323rb\212\303\277\036\226\225 v\010\265?\206\255I\032\"\024\272\277`\272\301\235\023\353\310\277\325\205\313\365\312\214\323\277\300B\306\205\205\323\274\277Q\027\336\272\030c\224\277\335in>\252\374\253\277\222\354\323\200\3166\322\277\353\214r\363\235\227\254\277\222\346mQp\021\277\277e\014L\333>#\320\277\360\rt\3427D\266?\rsK^\224id\277&[\261\306\321\274\330\277\252.\202{Y\265\301\277\217\270\217e\360\367\306\277\250\262\\\340\227\320\330\277\346\211\332{\262\326\303?O1X\341\005\231\300\277\275\252\355\026\337\021\250?\363\325\306\310\320\365\275\277\3054\025\313\260\265\302?\355\326\375\350\232r\300?\214~3\034\307\000\335?\375\362Z\347\017\304\302?\r\250\230\236K\004\313?lP7\275\220\002\265?3\273\025X\361>\316?U>\301\n:\250\202\277\344\365\277\376n\000\322?{\202\020\313#t\263\277\375w\002\271\213\241\330?\002X_\021\374S\320?/\023\210\251K\215\264\277\203\037\2647\367\360\300?\202\036\273\016\377\017\321\277\370\001@\247\226h\224\277~.\256\220s\270\300?\334\321\206\374\324G\302\277\013\330\311\224\220\\\326\277Hi\210@y\255\304?tY\246d\320\200\200?2B\033\"\275\303\317\277\301I\006\356\006\t\346?\310S1\231\2238`\277\311\226\377\204Z;\333?p\317\360\0246c\334?-\204\022\323\006\221\202?\363\366\037\037\036=\336\277\345\001\\pZx\306?\034\001\336\340+\265\346\277M\227\311@>C\343\277?\250\267\323\265s\320?\203\346z\370\217\037\261?\027\001\250\327\315\251\320?\246\235?\376{\001\300?La$d\257\257\327?\210R\302S\210\230\262\277:z\354\203[\355\315\277z\350\211\031\313\264\276\277\344\271\021\025\014\354\345\277\001\3171l\210+\304?:\222\264\022\036\327\313?_%\222b\017\336\313\277\233\311\3029\360\201\314\277\342\311\356\277\210\355\321?9\177\340\302\216$\322?\225[\246\317\351$\266\277\324\227\327*\272\207\221?g*\376\000@O\273\277WJc\264L\306\247\277\026\270\326\001\205\350\320?Ei\301Y\243\326\340\277\365\n\331\317\027\242\205?Xc\344M\320\021\307?\r\216\212\272\322P\256?\353\273)L\201\240\312?c\233\244\223\204\205\315\277\327\300(\252e\215\306\277\225$\354\353v=\332\2770\014\010\361\323\345\243\27706\240\224\267\001\201\277\255\275:\013\374Z\271\277\331b\343j\201\364\335\277\322\263\222Mi\326\312?\262\206\366G\ti\304?#\036\034\016pB\270?\277\272N\022oS\304\277\325\363\017\212\271c\331\277u(\227\2344>\275?\221q}\242pz\252\277\263\207o\316v,\311?\233\242\213D\001\233\266\277\253\021\177\\\305\345\264?\314\327\364\264\374\016R\277\223\363\371\255\331\005\332\277r\226\n%\257\027\247?\375s}\371\320\272n\277\273\032\346\255@\336Z?\230\252}[\0176\241?K\0177&\324\231\262?\240L8\3137\363\267?*\220\264\337(B\261?\211=a\013\350u\316?e\007\254L\305\301\210\277\215\353\272\025kE\335\27727\300\302\242\360\340?\251EfE\264s\304?\322(K\250\0045\305?\r]\020\262\004A\276?\220\222uN\372\n\323?\350\200\304\323\326\243\326\277us\037\260gk\325\277\264\363q\203\2756\275\277\032\266\275\031\235\376\223?o\341\363zl\030\337\277\204\223\037H\325\023\274?@rgP_\321\320\277\335\306\344\206\227m\324?0\303\255\251\356\002\322\277\225\t\001\314Rw\234?m\372\312q<\004\330?#\255\237\003\313\340\335\277UT*\366\362(\256?e\030\035Q<\203\320\277\377\273\256\250(\233\243?\326~|\274\237\236\267?[\nN\002\017*\301?\031e\272H?\210\324\277\233Q\332\226\212\277\270?\211e\361n\023\343\320\277\t\301\321\254\010#\317?\217\320\275\363\341\314\274\277\353#\037\231\017\273\306\277\317\372N2\376*\335\277\274e\335x\307?\253?S\271\326~\252\254\274?\177,\005Y=\237\313?\233\366\\$\017\355\240\277\376\0240\310\335\'\346?$\203Q\264\301u\304?S5\317VK\021\301\277RlJ\205\024\360\303?\270a\037s\225\307\245\277\3364E\023\034\366\272\277\210\261\207\343\234L\322?\260\017,h\322*\340\277\320\370\302s0h\313\277\002\003\222\356-\217\303\277\321\202\213\225\"\373q\277\371\344m\307;\312\304\277\254Ak\032+\361\326\277w\233&\034}\242\261?\353Y(5\353\274\306\277\305\333\260\036\370\245\247?8% \206\006n\313?\006\262\305\275u\302\262?E+W\371&\333\242\277L\365.;\257~\311\277\321\267\336\204Q,\325?\220|\335M>\341\331\277tm\350\314\234D\261\277;\354\253E\217\216\256\277#\336\3428\351\206\267\277\325\232\275\234o\304\344\277\304\221\3137a\035\321\277\246\362\346WP\364\257?\231\337B\325\243\314\316\277_d\t32\376\321?\270\2722\305\362Z\277\277\366\370c\350\022\316\270?Z\214u\240\362\036\322\277C\372y\352\035\274\260?\246\202;\333\253\257\252\277\023\347\212)\365v\267\277)9\227\212>k\241?\255-I\2332p\327?1&Pz+\235\327\277>\"\n\266\023\224\272?\225\000\233\304>\336\324?\027j\251BK\270\331\277Z1Gr\204\262\303?2)C\345\026?\320?\\9\rgG\337\232?\330\314\235K\362\213\307\277\361S\000\244Z\305\252?\304\303\341\001\302\261\300?u\347\336\212b\354\251?&/K\306}\215\337?\032=\330\017\207\217\300\277/h!\371\345\346\321\277\037r\205RX8\303?2\260N-\316\\\256\277G\330\017Fom\203\277\236Lr\307\026\245\305?\035\346i\275\014\315\303\277\241\201\202\254\"\334\340\277b\254\032\204\243\247\227?\351f\315\027\367\237\301\277j^u\023V\262\322?\255\221d\265\375\256\317\277\251d\002\321*\260\247\277\224L\210\252\020Q\334\277\307\326\354WK\036\337?\261\376xA\277\261\324?\206IFb\341F\223\277\331\256+Ay\266\320?\211\252\311\356\213\'\261?\206\362\311\341\223\'\252\277\t\037\373x\220\245\213\277\031\234\211\037\301\367\267\277\261w\024e\232c\324?\324W\203h\223\335\344?V\353z\215hr\276\277\214\010Do2\214\330\277\351\246B\216\013\027\307?\375,\262\353r\376\324?\000\241\3724u\\\231\277oq.89n\252\277w\335\347\344\204*\313?6\2419\255\006T\316\277\363Sx`\036\014\310?b\365\336\311\262o\314\277\275\013@\243\332\377\327?:\276\230\321n\024\240?Da\3151\316\366\246\277]7R!|\020\302\277[,wl\370\253\270?\226@\3220\354\340\242\277!\337\232J\335C\336\277\027\260\000\362\355\222\331\277`\303IH\327F\275\277\356\034s\316\315l\261\277\221\317Sy]\305\267\277\214\227s\330\315_\332\277w/\272\215\026\265\310?\241D)\374\3523\216\277+\n\215T\3122\322?\203\211\354j \305\306?r`\223cm\300\315\277\201\266X\377\214s\321\277\025\223e=\276\343\307?\276A\177\221\354\312\277?\r\337\314\376r\204\252?8\231\205\204b7\275\277\220\333\224U\355}\264?6=\\\220p\333\305\277\333\r$\036L\341\354?\0165w\013\272Y\324\277\263d\021\013\323J\322?@\261t\242aA\335\277Po\273\\)\315\221?Mp\254!\367r\260\277\023\210\005v\261\232\242\277\213\010K\'\004\253\257?\210L\263\254\222\354\303?\267\222\276\324X\'\311?\217\010Wq\325\346\226?\237O\277\\\007g\321?U\333\017^\215\236\261?\233:\345\024\312\206\304\277\003\031\367\032\2752\273?\324\217g\300\326;\331?We%\335|\273\275\277\311\202\342\375`\265\332\277\326\237{S(\271\273?\327\276\336I\272_\310\277\241a6\3723T\317?]\205C\361<\255\272?\345\236\272ED\265\302\277\030=*\334\311W\322?\263\267}3bi\321\277k\230\256\305\326\273\245\277 \037\367\2575\357\332\277\200`\254\302\304Y\250?=S6\014\352\220\313?ls\260\213\021N\270\277;\301\252\'\025\273\266\277;\255\215\251\253\255\327??\335+\364\037\204\323\277\\\204\021\022\333\251\242?\212$\245\363\304\354\313?K\253v\272\200\031\331\277\216Fz\222\257\017\322\277\213\341\245\315)\003\332?\034\004\210k\004>\313?\037\272\205L\030-\313?\007\221\205B\030\311\270\277\365o\260f\005\261\320\277\022O\320\276e+\336\277Y$\353\332\242\253\177\277\261\022\367\253MF\271?E\260\025\260n\361\322\277F\004b\216\307\033\332?\300\323|\227\224L\277?\215;\360)=\275\243?\360\"\270\302\267=\265\277X@\255\235M\022\266\277\314n\313\342\372b\337\277tP\216\r\231l\322\277[N[F\016\364\265?Z\365\233uV\315\337\277\323,\376\017\374}\263?2\270\357\014\225\002\255?\032\230d\314cS\324\277\315\030\177\206\266X\323\277\256\263\354\3322n\271?\213\246j/B\022\272\2777\017\331\313e\"\304?\200\021\267\210Z\213\311?\303\033\245\237\331A\321?1k\247\332VW\264\277\223?\217*\330\326\272?\360E\006\350!1\274?\020\000n\255V6\201?7\017:4\004\027\311?4\200\236?5x\301?\356\030 7uu\275?\3123G\253\365\376\314?\316\222\024D\320\t\353?\352\037\312\341\215\347\273\277}o\2141\217\277\265?\223!\222-D\245\251\277\327B2Yd#\321?_XV\201\200\026\322?\nl1l\300\243\311\2778\"\265\251O\240\277?\225\004p\313\222\226\312?\2077\005C\357\323\303?\355Q\2510\307\205\226\277/DC@]\202\301?NxB\330\267\247\304?hD\222\030Pqr\277\306\233\331t\354\257\312\277\275Ntj\326b\313?\005=\342\003mg\326\277\332\256\364\301\317\003\274?\365y\365\226t\266\300?\233l\312\271\200\000\254?\\\320\241Gl\216\306?{&\240X<-\332?L\321\021\247\360^\324\277\004]\321N\255o\264?\3731U\n3\243\247\277`{\221\246\301\307\306?\252f\335\355\005a\333\277\253\350\034\006\347\335\276\277?\266o-\332\036\267\277\376\260q%\307J\300\277\263\340E\003~\020\316?\221\352<\025\375L\257\277_\326S\255\310\246\333?\262!\217n]\314\251\277\207\331\327\301\314\003\306?\343\221\227\336\247\256\240\277cBVPp\004\263?\\(c5k\247\251\277*\004lF\230O\235?\030\246\025\374\r\344\302?w\342P\261\241\211\303\277\002\320\314=\220\315\337?\231`\022E^\307\271?\2642\013\026\263\321\267\277=\273\023`6\275\214?e\334+\224E\002\275?\004\030BD\357)\267\277(C\225e\376\200\321?\271\025\363\257\241v\267?\2239\262\347\321m\327\277\220\2105\017x\300\320?\t]1aA`\277\277A\343\305\005*\227\334?M\035\006\233Q\345\311\277K\255W\005\266B\325\277\237\302\355\354o\210\275?\275g(\231\263\337\327\277\316\320o\004\024{\300\277\357\216c\356q\222\314?\264j\231HB[\317\277c\363C\375a\024\335\277*;/\237\337\220\270?\016R\032\357\230\260\340\277\352\224R\303\312\253\321?hV\035\354\343\340\302?\233\275\372\211e\035\343\2774H\247\242\256\370\234?HI d\013\312\261\277\300\374\367\273\226#\331\277.\336#\332\034\205\260\277\026(\177wt\222\301\277UZ\177L\252f\353?\021\312\'\245\227\251\334\277\247u\201\342<\344\335\277!#\337K\037\335\334\277\367\277\014\251\026\210\266?K\027lx\222>\252?B47\t\357)\326?\231\256G\010\231\211\257?rj^\255\366{\325?`\243Y\027/\214\361?\202w\373`/\362\277\277\367dc\250\007\310\335\277&\347\253\306\237i\264?\225O\357\355Z$\220?\303D\177\r\321\353\311?\331\364n\'\272\222\333\277+2z\300J\375\316?\274\232\243.N\212\361?oXz\264)\325\303\277\370\220\r\312\352*\306?\207\013$.\351\341\305\2773x\345\303\367O\340?\335\303E\366i2\307?g\372(\315f\255\340?\223\265\311^\n\227\322?K\202\200\025\250]\260?\217\365\224\"u#\222?\201%x\326\352>\267?vW\243Z\367\325\246\277h|\031\234\347\020\316\277\357\247\333\020\020t\300\277e\316\215\330\351Q\355?fD`x\006\332\312?\002|p\215Iv\226\277\010\227\354\010\357\361\323?\004\024\264!+\315z\2778>\327u-\030\302?\025\264\325$\253\263\332\277\310@\216\210\253\217\300\277u\333\374B\340j\204?E\257d\244=\367\302\277\214\226NQ\272\267\320\277\2566R7N\241\324\277\372\343\313c\243\332\331\277\341\363/ \222\212\275\277F\256\225\254\313[\336?\033f\356\363\244A\257\277\254\200b\220\357\250\326?\374\272\274\300\204\374\210\277\264U\276\370S\244\336?\000w}\376q\272\265\277\225\0219+\241\316\307?\370}v\342\177\367\310\277\276\307\\\310\300\205\325?\360\217\216\223\366\301\275\277X^B\335\346\320\231?:\316\210\357mX\336\277M\013\373H\336\237\350\277H\203\005\227)\342\327\277h3\260\367\031\002\327?_\340uG\372\207\327?\277\271\005\340\276\220\322?\242\364\237\344\236n\301?\322\005\371\003\227/\341?\225w\254\340Y\026\270\277\000+i\027:\237\320?\352Y\331]X\347\270\277\315^\344t\364\312\226\277w\323\334F>\323\275\277uu\203\240Y\321\324\277\350\300\277\340\350\007\301\277\311\302\0079\263\350x?"
      }
    }
  }
}
node {
  name: "normalize_element/component_5"
  op: "Const"
  device: "/device:CPU:0"
  attr {
    key: "_output_shapes"
    value {
      list {
        shape {
          dim {
            size: 749
          }
        }
      }
    }
  }
  attr {
    key: "dtype"
    value {
      type: DT_DOUBLE
    }
  }
  attr {
    key: "value"
    value {
      tensor {
        dtype: DT_DOUBLE
        tensor_shape {
          dim {
            size: 749
          }
        }
