node {
  name: "global_step/Initializer/zeros"
  op: "Const"
  attr {
    key: "_class"
    value {
      list {
        s: "loc:@global_step"
      }
    }
  }
  attr {
    key: "_output_shapes"
    value {
      list {
        shape {
        }
      }
    }
  }
  attr {
    key: "dtype"
    value {
      type: DT_INT64
    }
  }
  attr {
    key: "value"
    value {
      tensor {
        dtype: DT_INT64
        tensor_shape {
        }
        int64_val: 0
      }
    }
  }
}
node {
  name: "global_step"
  op: "VarHandleOp"
  attr {
    key: "_class"
    value {
      list {
        s: "loc:@global_step"
      }
    }
  }
  attr {
    key: "_output_shapes"
    value {
      list {
        shape {
        }
      }
    }
  }
  attr {
    key: "allowed_devices"
    value {
      list {
      }
    }
  }
  attr {
    key: "container"
    value {
      s: ""
    }
  }
  attr {
    key: "dtype"
    value {
      type: DT_INT64
    }
  }
  attr {
    key: "shape"
    value {
      shape {
      }
    }
  }
  attr {
    key: "shared_name"
    value {
      s: "global_step"
    }
  }
}
node {
  name: "global_step/IsInitialized/VarIsInitializedOp"
  op: "VarIsInitializedOp"
  input: "global_step"
  attr {
    key: "_output_shapes"
    value {
      list {
        shape {
        }
      }
    }
  }
}
node {
  name: "global_step/Assign"
  op: "AssignVariableOp"
  input: "global_step"
  input: "global_step/Initializer/zeros"
  attr {
    key: "dtype"
    value {
      type: DT_INT64
    }
  }
}
node {
  name: "global_step/Read/ReadVariableOp"
  op: "ReadVariableOp"
  input: "global_step"
  attr {
    key: "_output_shapes"
    value {
      list {
        shape {
        }
      }
    }
  }
  attr {
    key: "dtype"
    value {
      type: DT_INT64
    }
  }
}
node {
  name: "global_step/VarIsInitializedOp"
  op: "VarIsInitializedOp"
  input: "global_step"
  attr {
    key: "_output_shapes"
    value {
      list {
        shape {
        }
      }
    }
  }
}
node {
  name: "global_step/cond"
  op: "If"
  input: "global_step/VarIsInitializedOp"
  input: "global_step"
  input: "global_step/Initializer/zeros"
  attr {
    key: "Tcond"
    value {
      type: DT_BOOL
    }
  }
  attr {
    key: "Tin"
    value {
      list {
        type: DT_RESOURCE
        type: DT_INT64
      }
    }
  }
  attr {
    key: "Tout"
    value {
      list {
        type: DT_INT64
      }
    }
  }
  attr {
    key: "_lower_using_switch_merge"
    value {
      b: true
    }
  }
  attr {
    key: "_output_shapes"
    value {
      list {
        shape {
        }
      }
    }
  }
  attr {
    key: "_read_only_resource_inputs"
    value {
      list {
        i: 1
      }
    }
  }
  attr {
    key: "else_branch"
    value {
      func {
        name: "global_step_cond_false_25080"
      }
    }
  }
  attr {
    key: "output_shapes"
    value {
      list {
        shape {
        }
      }
    }
  }
  attr {
    key: "then_branch"
    value {
      func {
        name: "global_step_cond_true_25079"
      }
    }
  }
}
node {
  name: "global_step/cond/Identity"
  op: "Identity"
  input: "global_step/cond"
  attr {
    key: "T"
    value {
      type: DT_INT64
    }
  }
  attr {
    key: "_output_shapes"
    value {
      list {
        shape {
        }
      }
    }
  }
}
node {
  name: "global_step/add/y"
  op: "Const"
  attr {
    key: "_output_shapes"
    value {
      list {
        shape {
        }
      }
    }
  }
  attr {
    key: "dtype"
    value {
      type: DT_INT64
    }
  }
  attr {
    key: "value"
    value {
      tensor {
        dtype: DT_INT64
        tensor_shape {
        }
        int64_val: 0
      }
    }
  }
}
node {
  name: "global_step/add"
  op: "AddV2"
  input: "global_step/cond/Identity"
  input: "global_step/add/y"
  attr {
    key: "T"
    value {
      type: DT_INT64
    }
  }
  attr {
    key: "_output_shapes"
    value {
      list {
        shape {
        }
      }
    }
  }
}
node {
  name: "normalize_element/component_0"
  op: "Const"
  device: "/device:CPU:0"
  attr {
    key: "_output_shapes"
    value {
      list {
        shape {
          dim {
            size: 749
          }
        }
      }
    }
  }
  attr {
    key: "dtype"
    value {
      type: DT_DOUBLE
    }
  }
  attr {
    key: "value"
    value {
      tensor {
        dtype: DT_DOUBLE
        tensor_shape {
          dim {
            size: 749
          }
        }
        tensor_content: "\204Z\244\253O\222\326?*\361\003Or\353\361\277&\352\352\264\0239\301\277\203\006\257]\334\254\323\277W\273\006\030\005\244\365?\321L7\023\021_\356\277\312\367n9\362?\323?\345\025\314EU\316\363?\026\206r<j\361\363?\307i\nu\3135\372?\263\"\022\237\005 \363\277\200\272\343\366\020\177\361\277r\233>i%\263\363\277\220o\342\232\262\306\373?\203\222\232:I\273\362\277\302>\327\313\3150\326?+\017\230\030\351\201\313\277sa\202/\305\264\364\277\245y\037\322K\224\302?\001|\031\t\223\370\300?\342Y\3255\364\214\321?\272\371)\026\303\001\355\277\340\234\023\215HQ\365\277\002\3119*\313\237\320\277\321\320\304\240\323^\355\277\242\333\216+\256X\360\277\227!F\256\217\t\366\277\343\214\310\305\320[\350\277\215r\205\224&\027\362\277\222w\350\334[\034\322\277\373>B\376`o\301\277\320\225\372\263\001z\363\277\t\213\243\260\2552\342\277\311m\235T\034\"\356\277\340bqH\231;\361\277\027\330\002qU#\311\277\211\323\'\354\344+\343\277\313}\001\017\036\000\323\277\205\355\023<a\261\352\277\347\357\027\214\375\245\365?\002\317 \017\352\226\361\2776\202\334\325\371j\314?\270\236[\251\327\375\321\277\257\t\303\003[\'\367\277\022VB\003\221\307\314?~\210l\251\223\216\332?\337\0362\243\255l\361\277\372\203S\321v\347\340?\212\333 \362$6\363\2774x\227\212\200P\357\277=T\312Iz\311\362\277\236^\377KE \366\277\203k\351D\347\003\373?.u\210T\367\324\313?n\00786\252\037\306?]\027\202\377\255\353\365?:\301u\257Z\260\371?\367\333o\325\024.\324?y\003\032t\206\217\311?%S&\244\n\t\354\277\272%\177\267\276\311\364?\313C\316y\273>\355\277~\345\220\003\031\331\363\277(<\322\366D\211\332?.\216&\000\340\246\320\277\272\303\302\004g\350\355\277>\354]5\000\335\267\277\317R\234y?\377\311?\224Y1>B\274\360\277\026\355\354\033\021\257\366?\245\004\021\221/\375\361\277\223!\216\031j\026\327\277\260\3460\323\006\345\360\277\304\372\036\200g\303\325\277\277\243~F,\237\363?Vt\204\351\261\252\371\277\241`\266G\347\037\320\277p\020\313q!s\362\277\013G\302\350\344Y\260\277\004\211\264\203f\004\364?\361\277\315c\366\207\366\277y\002\326\261-\220\205?]\237\204\247\263\362\360\277\242\232!&\352\346\317?o\342\\\234\304k\357\277\357\264\343\221\370\367f\2779w\267B\023\327\336?\017\241\365\330U\354\364?\315\263\200\004\006/\363\277\031b\034\250\364\004\364\277\310er\341[?\332?\265X\325Q\357\270\363\277\345\340c\332\272?\366?\t\022C\031\345X\370?\250z\321D\210\373\370?\212\3707^55\356\277\334\\!\212\305F\364?i\207\247\245\001\234\337\277\356\214\266Dr\300\335\277\n,m\007\\\250\277?\266\036\036\255{\005\370?fp\351P1m\322?\220^\237NE\220\307\277\370ry.U\017\331?\3610\313g\227\310\362\277I\tPKUt\345\277p\010X0\223\220\363\277\365\223t4,\347\317?\206\022w\306\026\210\367?-\025}\231\252\347\326?=)bi\203M\316?\360\317\013\216\346\255\335?U\352\034\327^\341\363\277f\321\005SR\353\355\277\032\370.\240\226\005\363\277\020\253\t\326.\215\355\277\376\341j\225\\q\364?\021\010\300\203\360\264\341\277h\245\343\364\251\213\305?\206+4~SN\357\277H\300DL{S\366?\362V\343\213\036w\265\277\251v&\313\305\376\323\277\222}\007\253\006\241\311\277\326\216fi\301Z\335?\301qm\025(\360\361\277t\321\221\260\345\311\356\277\256\tC\324_Z\362\277Zo\356:Vm\370?\210\341\371\001\302\264\370\277L\037\021\263\205\327\371?\226>\004\004\362\206\237?$+\271\262C\277\321?W\260\212\2546\352\303?5d\037Pm\252\364?\360\304\344[\254l\356\277\306i\352\260\364\372\352\277\262IN6\364\252\320?\274\203\025\265\236\242\352\277\316\271\253\003!\013\364?kT\356J\351\311\351\277\r\230\377\267{\311\364\277\202r\367\370\321\234\316?\323\303_D\372,\362\277}\010!\356\355\177\317?i\020\333\260\243\230\363\277\2365\342\334\266R\364\277\350]\306\201\364\366\360?\031)\246\234\230\340\360\277s\207\336R\304\345\322?\222o\340\256\035\256\363\277\177\313h\231\260\261\360\277\004\023\370\332:\351\275?\260v\245\026\005>\360\277\211u\357\244Pd\312?\031\030\346u\355G\265?\227\327\246$\030\361\362?\270\275\037\325\317\325\236\277\'\357J\306R\247\264?}\231>?J2\316\277Kv\360\004\251T0?\254\364f\232\205(\353\277\2418,~\203E\365\277\001\200\343u\322\372\361\277)H\\\251\2157\364\277\365\271\261hM\000\304\277\002\357\224B:R\364\277\002\365s\021\177\263\317?\254HM\244\323}\352\277\017Q\346\325\266\001\264\277\263\324\3311^3\326?z@`\262\332o\321?\207\311\352\306^$\321?8\250\\\271e\350\306\277\376\2279\313\2166\314\277v\006\372\202\336\376\363\277z)\352\335\r\207\304\277\267x\260`\304(\355\277e\034\265\026]\261\366?_\317\353\326\001V\363\2777\300\004o\333\257\367?\244,\247\376\344\237\241?\251\321\307\233\005\371\340?\226\025)\317\376\311\315?\3546>at\307\367?jN\026\230\351e\363\277\"\r\016\t\340v\357\277\317?\320\003\331Y\304?\240`\3525\200\276\334?\"\274X4\006\245\364?0\203\317U\210\303\311?\253\252\'\207\235\356\344?\376!\215c\321\210\321?\266\333\221.-t\331?\256\300T\273Bc\365\277\243\320nQ\235\314\257?\215\2031\340\234\020\315\277V\305\2762M\311\365?\200\304\002P\021\035\370?\027?\225\177\034\353\363?jM\2541\203\356\245\277\371\333\322{\037\364\350\277K\343T\347~\205\325? \202HC\365\277\332?\231r\022#p^\316?\005\350\244^ue\360\277 \214=q\000\224\317?\317\345\345\221\000\301\242\277!\355\316\263\2627\332?\200Y\247O\321\025\361?\365\261\347e\361\347\320?\335t\231\030\013k\341?\343\330\303n\361_\355\277\032\331sv\321\353\362\277\177uMQI\240\347\277n\210\005\237D\317\305\277\244\233\333\212e\255\363?\315\342Fo\327!\315?{6\241\310\006\267\306\277)\033?\222]X\365\277h\021\207,\306\245\364?\002\362o\217`\334\331?\242\341<\037\372\034\366?\345:\252\002H\274\276\277\241\320\352\252-\035\370?pg\010\014\373\266\333?\265\347\244\315\365\353\364?\305\305L\355\211gz?*\020#\356\363\354\360\277>\202\267\274\277\t\371?\230m\300\243K\264\305?\232\260\311\364\355y\327?\320\303\366\212s\010\363\277\347=c\t\224\350\265?\034\377m\007\367\213\363\277\230\266\3374U#\320?\270J\207\"L\337\357\277=\\\210T/\223\366?\263\36181\025|\372?\361\351\324\020\251\"\316?\337c\230\177\255\267\351\277y\352\314\304P*\323?\213{,\370\244\231\310\277\021\221\265\236Yk\350\277\241X\272Q\254\363\314\277A\342K.\362\304\332\277c\251\376\301\376\267\362\277rLJa\221\303\304\277\351s\213\2505T\364\277f\004\343Tc\330\313?\361J\245X\227\337\366?w\267\320&E\265\364?\036\212\\\367\264C\321?\240\023\237\313\333\252\331?I;\t\241\\\231\364\277\212M\205\276\342\016\305\277)P\222\n\350X\321\2772e\267\346#\n\372?\311\010\214\253\2033\353\277\316Z\005y\215F\305\277\201\250\322\372|R\363\277\2161\375\014\t\247\331?\377;\350\362\345\220\335?\277\241?g\037\033\266?\201\360_\303\3138\345\277\242\236\371\300\032\330\266?\037\353\3409\240p\306?@\371^>\256\233\271?\004O\256\224\372-\326?\007\260\212\234\250K\324?\235\363?\010 9\262?jRCc\027\246\301\277(\010\230\376\217\350\340\277>b\325\264\353D\364?\324\275w\3333\226\365?\364&\313\017\340\346\344?\254\247\262\020\027\322\357\277tW?|/\242\273?;a\303\277\020\354\362\277\030$\300JO\247\307\277\235H%\024\300\014\307?Q\320\321<e\371\364?\264\023z\273:\350\362\277V\013\365 \002\267\360\277\nR\010TR\035\330?.Xs\027\021\302\306\277\204U~^\313\013\303?\002\305\326\206F\035\360\277\331q \221\004c\341\277\001\353\273w\274_\304\2777\371\362\035\233\377\307?\000\230o\335GW\365?\267\211\022\246R|\303\277\013\357\035\n\271\265\360\277\016\365\343\373aH\323?5\227B\244\277\014\364\277\322\313\356T\007?\320?S\033\371\260X\t\271\277jX\241\337\243T\364?>\216,&b{\362\277\001\260\023Ffj\327?=\313\220\320\211\357\315?^\264/\374*\242\320?8\022b\325E\336\332?\212*\000c\255\310\337\277\2247\0262\362\327\263\277r:u\256\205\374\357\27705\215\003\370\211\261\277\211\333\240<\200\317\360\277\341`\230\005\263R\366\277I+\277X\270\033\364?\251\362\000\300N\276\365?\374\232\362U\203T\370?\207\333\272B\347\352\372?R\341\321\006\004]\366?\354\255\3245\334\273\323\277:\340\303xv\351\357\277\005Jo*RG\212?\224\370\363\373h\252\363\277\300\247\321}\'l\315\277\006\377\316)\371c\270\277\020\267\306\316\255\354\365?\007\306\245\364PG\340?l\000\025f\033\243\363\277mliq\2605\364?\"\227}\014<S\320?\020\310\n\367E\030\331?/\252\241\353\343&\310?,vr\252\252\315\324\277%\302\254[\036\005\320\277\375h\256\255\340\311\342?/[\356\310\360\256\364?B\240+\267n\277\363\277\210\031\204SX\306\363\277\372\366\375\207!\262\362\277\351\323\324\271Q\264\314\277\016\344\225\304\347J\270?\3557G\367\220\226\336?\367P\216\014\303\232\330?R\340A)Q\225\252\277\231\377\'\301yS\357\277\267u;\305\016\035\363\277\230\243\375\267Vn\362\277C;7\317[j\367\277-\3522\356\342\352\313?\310\230\254k\327\275\304?\354n\372\027l*\314?\'M-ih\260\344?\245Hs?Y\326\367?D(C6\361W\341\277s\3158\032\333H\302?e!\205C\2567\302\277\351\271,\374\263\026\362?qIfU8\364\363?\2064\274[C\276\312?\031\305\212\207\006\323\361\277\212\327\014\325\227\366\353\277\261\355B\275\372\271\240\277\371\207\317\367\261\215\235\277/\2744\230\300\300\331?\364\230&!\276\231\374\277=\220\205\226=\245\363?I\367\303\031\277\345\360\277\2577\237/\001\222\366?.Jy\317\252r\322\277x\236NW\262\\\321?\255$\226\374E6\327?\204$\3254Y\025\326\277\0170\323\246S\200\305\277\031\200*\302\343\360\315?\376\014\205R\310*\342?\204\314\242\221\362\276\340\277\315\024\027m\200\000\355\277\027\366\036D\251=\370?F\331\221\t\023\020\310?\363^\310hB\260\311?A\272\262\354P}\275\277NX\367\307:\350\362\277\341\2245\237\257\253\345\277tu\302\227\r=\312\277\324\257pH\266_\365\277\331p\0223\273\217\306\277\016\3265\213\275\370\343??\000\037q\017f\314?\231\250=\372J6\276?\224S\205R\260\275\260?\2251;$\3375\355\277\t0\364l4n\362\277\350o\323\024ru\361\277\004\'\322\202Q\375\365?\331s\242\\\253\004\353?\022$\217\227\221?\344\277\343\326\023\336U\"\327\277\343T\271\254\024\267\364\277[{\022O\204\361\302\277\2007\000\274\275\304\370?\006\365\271VW\203\244\277\033\331\021\217u6\365?\321\002\231\305\3671\325?\252\3106B\034/\340?\232\273\212\360\232\206\311?\255\033\355^\2556\361\277\260Vr\355\223\241\305?\351u\"\303\265=\363?\353\3157ugI\324\2778\237\235v\023Z\260?i\243\332B3\026\343?{\243+62d\365?&\365\230\257\3553\257?\311\221\244\231\304\227\336?i\240t\213\270U\314?\350Gw\277\356\210\341?\341\\\261\346H&\361\277\327G\264\231\001^\336\277\332\244\017\023:\255\364?\001y\327\377=j\305\277b\033\234\000\014\317\365?C\031&\205\213n\316?+.i\336[\221\257\277yy\220\037\016\252\321\277\337\022\254\233B_\362?\'\210v\2024-\332?\336\220\242\337\221\376\362?\343\336\270t!\377\223\277\006\nU%5\205\362?\246P\033\312\224\342\356\277\306\235\260\372\021k\373?\330\230P\306\264\\\367?&\033G=\242\216\260\277\262L\344d.\224\363?\370\"%\020\317D\346\277/\034\255\340\325l\353\277V\267\257l\024\023\367?\326<\000\242\224\231\323?\321\235T\261\031\355\307?7\244Z\251\362\222\316?\315e\236\254<\365\360\277\0142\251\245e*\315?O\037\240\207\302)\324?\016t\344O&\274\366?\001=)M\"W\363\277\270\013\220\232\0147\355\277m\315\313\017\301\341\362?\300LMQV\355\367?\212Ro\3138\316\361\277\025\210\375\365\024d\324\277FM\252\347\204\351\367?\373|\\\311\206\356\335?\357\010\006\310\360\303\315\277\033\346\345a\333\005\362\277C\264\274\273\250\361\303\277\202y\252\240\016\257\325?{;\010\007\215\244\320?\r\313z\223)\350\364\277\262}\276GF9\320?\237i:\362\261\360\363?!\217\300-\000_\321?\326\037\202M!\025\312\277Sg\330v\022\200\336?\213FF\265\003\312\362?U f\362\354X\314?&\342I\234\317\232\374?A\003\n:\230\037\352\277ke\253\365\320\276\363?\030\331(\336t\225\335?\216\222\266\242\000\227\315?\322w\333\267\335\210\365?\t4\242O/\034\342?X\004~\353\372j\366?C\346\343\206\360\217\364\277\227\311Z\214\363;\347\277\242T\377\210\311x\321\277]J\267u\240\377\361\277|\327\211\264\322\336\331?7 \367F-\364\361\277\276\326\367\311\341\370\366\277\277.F\252\021v\320?[\2239u\206*\317?q\006\277}\362\022\374?\244\226,\245\242\337\362\277=\213`!n.\327\277\203(k\322\221N\327?\"\025\274\031WU\360\277\275W\002\031\250@\321?\3265p\032zP\355\277\200w3\346i\357\362\277\"\030\030\217\346\222\302\277~i\274F\330\275\325?\232\342\257Ta/\304\277\372\200\232\305\332;\330?\336\201A\206\226o\335?\\\257\255\022\3033\364\277+&3\245QA\354\277R\246\177V\204~\321?k\327\3640&k\363\277\3147o\276\211M\347\277\271LIiT\311\316\277f\002g\354nW\314\277\311\004\222\371#O\362?\\\341\013U\200\303\371?\272\327\243~2\r\316\277\027N-\373\n\200\334?\267\241M\332\021k\365?=\342~\373\342}\314?\234\302\206\230}j\366?B\236M\375\324H\322\277s-L\024\245\274\355\277T\320o\247R\001\340?(\324\307\002l\324\367?\211\251\024\207x,\307?6\332\200\020\003\221\370?7\'\330\205\024K\362\277P\241R\334A\241\363\277y*\031\030Ad\301\277\n\342\264\210\361\341\363?\225)\365!\222\307\347\277\246\335#\014c\217\255\277\234\362a\2722\262\225?j\025Dg@\016\364?*\372\202\005p\276\364\277Gl\267\013s\256\314\277/\366\267*\005\n\321?\336\376\243D^\021\364\277\344\204u+\005\245\363\277K\261wm\303\246\374?\302\266\263\314\037^\354\277`-q\235N\177\333?\016\324l[,y\327?\345\237\023I\225R\365?\304}L\221\271\'\362\277\357]9\371\316C\337\277\310N\200\366\325\207\320?\360\201\360\211\021\324\267\277/b\324\350\024\370\320\277\234\275 \366\354}\227?\360\247\237#\371(\343?sd\\\333\r\216\364?\223\252\021\306\000?\337?\001U\276g\227\240\363\277\230318\342t\320?*\302\341\364E-\311\277[a\204\017\221N\363\277\"^\021\200\212\031\356\277R\313\205\375a\274\362?\004\010c\241-\212\353\277my|\032\336\037\362?\013\203\310\254\266b\323?\031\017\301E\007A\320?6{\200\237ep\361\277l\'t\002\355E\370?\254\202\340\036\311\024\330?cD3\003\320!\331?\006\315\253\202e\277\301\277@\353\027\371c\302\314\277\31724\367\372M\367?\3312\217\367a\t\304\277\355u\200\020\330Y\303?A\006oSb8\330?\227\3029K\327\253\322?\315\364\210nS@\322\277\323\370\256\005\r\314\333?\275\t{\002\027\237\371?\ne\254y\312e\367?\274\304\365bcA\330\277\345\244\352{\250\374\361\277\247\035\314\342;\033\327\277\255\344\244\265i{\317?\261\272 *n>\366?\2448\275Xq:\361\277\315\3537\266\326\325\330?\310Y\227\004Y\300\323?\314\006\3757\000*\357\277\\O6\317XO\356\277J\362\236\374\267\017\356\277\352\037H\211\203\265\354\277\340\017M\235n\214\251\277\214\372\321g\240S\346?m\2178\353?\245\321\277\270\000W\363\322\317\367?(\363\200 \220\250\343?\265\354\017PR\335\363\277`\213B\034\226\203\363\277+\002\332y%\301\361?\340f\260\205\006\030\320?\0103\305\364\324\202\362\277\233\033\2018[\322\330?\300\016\201eu=\326?\252\230:\233\024\204\363\277\222$^*\241c\342?\274\215\311\245n\237\363\277!k\273T\335\377\217\277\035\231s\320\350\031\322?\"6\335\304}\347\333?\0206x\315=I\341\277\373-\304<g,\277?O\021\325hw\027\361\277S\362\341\307\255,\302?\341z\346\240\364\304\367?\316\354\243\276\025\346\305\277\215\255)S\377e\363\277\305+7w{k\341\277\353u\242\025- \312\277\210\003\215\226\203\202\340\277\313\257\231\001\034\316\360\277\220L\016}\177~\356\277\025\363\317\351\257\366\261\277=\246B\244\232a\361?ag\027\240\365\351\261?\236\232\016\342T.\362?\306\033\252\363\321(\350\277\017Ph\001\265\207\306?Z\215\025\336:\256\346\277\257O\366\307\233\037\324?\211B\323\206]E\220\277\330nt7\n\251\362\277S S\276\303y\361?\027\234\007\353\230\243\341\277\333\0373\241/N\253\2775\216U\311{\225\351\277\036\216\201HhS\360\277ipK\336.g\266\277\271\272\'\2208\334\366?i1\177\217\236\331\355?;\003i\032\003\021\363?\200\333\244p2\300\366?8A\245\2443\021\363\277&\001\203>2\022\363\277]Dc\377 \013\302?\206\307_*\354\252\327?\257t\2227\001N\226\277\371\034R\201\355\305\314?\211`k\371\375\317\365?m\224et\335e\334?\005ka\244\2137\266?\335\007E\340\315I\260?\317\331\212\305\210=\225?y\220[-\246\372\343\277\353\233z\217#6\305?;\353H\277\233\352\363?\303\235\361\353S\362\365?8\370m3\303,\246\277U2+\376C\222\206\277\036\364IUX%\367\277\242 gZ\313\037\352\277U\214\305Eb\272\362\277\375\356\023\363%G\363?Z_\033\235gq\277?\177\036\273\363w\271\362\277\273a\374;QP\373?\302\326_\206\007{\261\277\307\343\243Y\225\337\363\277\320TqJs\350\363?\013\244L\337\270\365\205?\372\323:z\235\327\355\2776\233\370Oy\000\372?\202\357\344l\304h\331?\223\320\210\240\241\302\206\277\324hNU0\361\277? U\277 \221c\302?\"\373P\347\254\036\363\277T\237\017Ja$\331?F\014\377vBv\306?42R(\021\373\322?\244\033\377\036>\277\320?\341s \346\376P\367?\232\313\361K9.\343?\344H\372\243\027\346\335?Odf$\276\226\365\2772\000bt\t\215\311\277%a\230\025\366\334\320?`\202\001\235\031n\363\277\302\"?P\356G\327?\2023y\277\027\232\365\277w\005\304\274\256\261\363\277\002\020\022\241\3433\312?\3003&f\004\201\243?r[X\005T!\302\277\021w\351\363b\330\333\2772\365#\303Gj\352?\233\222\227(m&\331?\253\036\332\366\340\031\322?\342\217\255\177\325\263\363?\360uvH\362\201\355\277\2536\361\236\244\260\363\277\235\"m\213\352\325\361\277\206\204)J\360\373\363\277\356\276~\304\324\224\204?\205\370\332\374\321!u\277@\371\276\201\300\243\326?\310\003\r\372\313\315\307?M\307\3213\203\275\366?\224\245\341D\202\271\366?q\006\345h\334\237\333?\213\343\223\\\031>\340\277F\376\220\353\251\226\241?\224\026s\237b\311\323\277\030\000\350\330\301\330\301\277\252)\007\312\235\270\316?\342\304\324\313BT\364?\360\271\243\217\270\221\250\277:\310LIS\373\374?\210EA\rhu\363\277h\312\204\375%\321\201?\207S\321\276\277\313\313?\3273\256tz\236\365?\010\021k\206@\237\231?\262{de\242\r\205\277\236\327k\246\355\357\273?\305\r\203G\372\320\237?\311#\240\352\330\236\366?z\312\347(\326\372\365?0x\235\217V\374\266?(\274\313\323\256\226\343\277k\227\001\000CL\206\277\177\250\273<0\315\337?z\343\256y!\213\364\277\343h\373\023\221\333\357\277\267\2214\236\272\347\340?\251\2509\003jz\337?\027\377\025(\301r\323\277\215\254\n\272\276\215\324?3H\376\361p\303\323\277\"\0312\'\210\316\362\277j\202\335(\335G\303\277J\334j\276\325\310\362?H\231\264\037\364\214\246?j\306\264f\233\253\365?d\207\242\210<\t\330\277=\240.s\343\305\364?\002y\203%j\016\305?b\332\021\036\352Z\304?\2214\027\233\004y\361\277\240?\r\201X\007\367?`\223\213\030\217O\303?\335\344\202\350\341R\320?|O\203\331\321G\357?l\363T(;>\356\277y|g\350\373\342\371?\021\027_\"\253D\362\277zO\332\257n\273\363?\223\2078jEE\362\277r\033j8Q\225\362?\243d\243\207:\343\363?\204q\252\302\227\341\366?\316\277\362\274O\003\322\277\0318\010\307\320\250\312\277\253\264\214p\037\034\320?g\262\031\362%\322\362\277\327\247B\007\325\371\335\277"
      }
    }
  }
}
node {
  name: "normalize_element/component_1"
  op: "Const"
  device: "/device:CPU:0"
  attr {
    key: "_output_shapes"
    value {
      list {
        shape {
          dim {
            size: 749
          }
        }
      }
    }
  }
  attr {
    key: "dtype"
    value {
      type: DT_DOUBLE
    }
  }
  attr {
    key: "value"
    value {
      tensor {
        dtype: DT_DOUBLE
        tensor_shape {
          dim {
            size: 749
          }
        }
        tensor_content: "?\370j\334\005\236\362?$6}\026\362=\340?\265 \021}\203t\341\277{\352\363 \000\373\350\277/\302\\T\357\225\312?\371\\\033x\246k\343?\344HSA)\276\342\277BA\273!;u\341?(W\216d-\234\340?15\220\030\017\277\330?_\326\331\244\2143\332?\344/\335\356\311\025\341?\244\017\\\327\310\006\321?3\376\312\370g\212\323?\347\316*:\007W\345?\004\271:K\265\245\354\277\205\224\010\234#B\347?\3004\000#\266\020\337?Z\213\262\370jx\357?\330\240U\002<\306\353\277\306\021K\357\252\355\357\277\272\333\201B\\&\322?\023\035\346j\364\341\343?\253\303Zr=\200\353\277Qv=,\373Q\325?\354\3411\204\0375\304?\216\201\021\372*\322\342?R\343\\\327\"\316\352\277c\346s\374U\250\341?J\330\027\211\321\331\344\277\227\321b\332\177\004\347\277\302\377\276\261\340\202\337?T\321=\001\371\204\350\277\327e\341\357\027S\304?\227U\033\345\314\305\337?\264\273\221\3751\265\343\277\373k\213\363\231\277\323\277\326\301\301\261\252\343\350\277\314\365Bq\340*\350?\316\362\222\027j\213\307?x>\331-\305\020\344?\300\336B\000\037\257\356\277\360\356r\246\373?\346\277\034\263\242\217\n\272\333?\310\355i\306\232?\353\277\3465\010\303i\242\360?\036$\353\0212\372\334?\001<\010\3556u\304\277\355\020\3148\355+\342?C\267\005\027\250\035\345?\327\265\347Jbk\352?|C\347V\310\'\271\277\256\357\241\013\353\256\327?\212K?\221\006\202\361\277\216\020\352\010\257\251\357\277\254\274\235\302\021\345\340?\026MHO\303\223\320?\360\250\372\213\226\236\362?\240\003\243\001\342\245\361\277\306bQ\016\362\263\327?e\214\\\016 \336\336?\316\304\322\231\237\334\313?\304\376\255\265\312u\343?\236QgLs\212\362?v\013U\327\006\264\337\2778\021\334ys\271\336?\211\n\"\352\t\270\340\277\224\001\306Z!\213\356\277\016+\0370\275\301\345?V\030\r\341\264\r\310?\350\t\272=\n\320\342?\251\320\316\372\035N\354\277\370\261\3071\216!\343?\023\223\250\374Dq\353\277\330\201u\323Xj\340?\350\265\315\225\247\306\323?\212\230B\377\200|\343\277\313h\237Z\3208\341?\321\352-\355\324\213\342\277\036\317\365E\354\356\340?ti\204\022;3\340?C\351\037\340\211\313\343\277\032\033\374\026*\352\346?>\3674q%\022\356\27765 \272\257H\343?\317\322\367\312\006\375\341\277\211j\024\226+\336\360?Yh\342\214ey\300?>\"\355]x\"\340?\212_\314\225@P\343?w{\220.9\'\353\277Z\031{\345\240\312\335?k\336\242p\034F\242?m\243H\316eE\343?G\255\207\2259\272\330?\273\253\030\254\247\000\274?4\345]\003\315]\346?>\000\020.\316\343\346\277|\232NHP\376\346\277\273O-\005\365\026\323\277\351\007\317\315\324\356\331?\343\000\365\243ix\360\2774Y\333f\\\363\324\277k%\202\020\254\273\362?M\314p\3403\315\343?\321\210\221\231\'\346\334\277\311K>\024\341\275\335?kY\321m\316Q\355\277\027\371W\234\270i\226?,\003\217?\257U\361?g?\0304\3059\360\277\224\206i\322n\345\362?\302\r\0277\305\267\343?\246\330\010\306>\307\302?\212\364\032\242B\307\340?|;i\375C\304\330?\272JZ?\332\306\343?\254\251\246\254<\357\357\277\254\035\037\352r6\355\277\235\017\314\301\"\013\334?\374\206\274M\017I\312?K\230yF\316\006\345\277@z4w&%\321\277\335\304\027s\240n\340\277u;\353\177\324\003\363?\206\346\337zIr\331?J\371\004\264\245\311\244\277K\232\203\245Y\230\340?\252\373\210d\363:\317?\020m\016\351\312\354\306?\026\255\200\030\301=\331?\341\022)\252\200\222\335\277~i\372\340\201\331\360?K\326\3067~i\350\277K+\323y\331\337\343?}\245%F>i\301?\266i\3274\024\325\247\277\346C\371\363\027%\357\277\362<\265\370\364\242\344?n-A;l-\231?\330{.\350\036\337\343?\242\261yokN\343?\370Pp\2027\221\360\277\t\212\001\316\3572\342?&\267\377\263\323\354\353\277\270\272<\260\367t\335?\255\256\'I\374\256\340?\213\026\\X\260g\320\277\260T)(\265U\352?5\370\344(\361\r\357\277\207@\005\323\017J\310?\265\010=V7?\343?4\316\222\226\025\351\354\277\302\356\264\305V\204\342?\371\211\004\025\000]\355\277\003\342Z\352\026[\361\277\222\270\322\251f\312\344?\340\253w\377\334w\345\277;$\363\'=\324\361\277n\253N\324I\211\347\277\004\330\032BO\356\344\277\2539Pr7\010\346?\235\355Q\223v\020\310?\300\337\241*\371E\345?C\324\316\251\345\001\313?\335\354\350wB\315\344\277b\351E\031)X\304\277T\215\266[\331\211\357\277\016\231\003q3V\214?\211\252\311#\010\237\347\277\243\325\341\317\034r\361?\335\336QWK\321\355\277\014\026\230(\305\234\354\277*CK\216\233\256\346\277\375%\030\317x\223\350\277\3049a\231\276y\345?t\310\231\256\034\371\337\277\356\305\331\316\337\203\337\277b;q\233s\222\311?,&\312\243\357$\325?\337R\036\002\267\301\335?L\2145n@^\343\277&?G\361r\033\364?H\230\261&\331\017\345\277-\261\005\000\217\361\305? \260E\023\002\220\336?\304\213*\215P\322\301?X\362a^]i\361\277\013\244\351[\020<\362?\336\025a\246t\366\275?9.\350A?\021\352\277\262pB4\024\211\346?$?\370\017\247=\355\277\274\217\014T\276\220\345\277\314>\351\334\222\321\315?7\210\000\277[A\337\277\336bM\340\327E\351\277\n\034nXb@\311?j\317\230\355\365]\314?\226\212\037{\323\010\350?\223\031Q\374))\340\277\210c\032\304\340\030\350\277\327U\315\311 W\362?\227\260\031*\301\r\345\277\215\335\3036\315i\360\277\332`!\3557\377\307?\013\246\252 \r!\327\277]\351\271\221\224\243\351\277\325\200\347c\330\361\337\277\241(u\367]\232\344?x.H\322\247M\356\277b\013\213\366\225\216\362?,\036\213\300\374\t\320?U\336A\315\355\224\342?\020\354\272\033\361^\350\277j\366 \312\001\210\337\277\022\006\214\007`?\340?$E\247k8(\271\277\014\3525{\305\251\350\277\254;\256\221kE\343?9\037/x\225\243\345?\216\371\007\'\355\r\324\277p\245\260\205!\026\315?\300\307\024\000\356j\341\277\206X\250\224\3549\304?\246\334\261\350\265N\362?\221\371\324\346\271\355\343?\325\010A\360m\250\331\277\005\000zU\2163\343?\351\344\367\354\334\270\332?\340\\q\270Y\006\361?\014[^\257\363t\346\277Z+\037}v\232\343?\2179\230!\030\251\370?\311*\341x\242!\341?N\366\004\267L\017\312\277\273,\275H\'A\337?\177\005\321\371DE\240?\325\'.}z\352\326?\"C\225+[p\356\277\325#\374#\345s\342?\t[\356\372\004\233\353\277\024\334\3541\371\212\350\277\023\251\327\023$\316\350\277z\030)r\245\'\342\277!0c\334\215\313\352\277\021\371\003\001\320\177\326?,\303S8\223\331\344\277\203\023\0307D\264\341?\224\202\n\306\227u\361?\n>\344*DL\302?\362\366=B+j\273?\203/\251q\200\227\355\277\241\027W\240\3662\352\277|\364\323\252\270\306\332?\025\361\260^\206\035\337\277)\362\203\340\226\306\351\277(\204\353\333\000\021\303?K\016o56\331\351\277@Y4kY\306\345\277\017\327\024:u\212\342?\362\236\010<\034M\362?\177]\317+\357\214\362?-\3305\223h\375\301\277\214\353d/\024\177\320?\362v\307\212\031N\360?;Bxk\022\212\353\277\247\254\375\220\004\225\330\277\324\001\\\321)\'\352\277w\206N&\235\221\362?\305\235\347\330\215q\345\277\004\032\215\006\346\301\344\277\261~.\037\354\241\324\277\242:\213\303y\201\254?x\'v\031qy\336?\215\262]\251\217R\357?\344\035\025\314\020\000\345\277\365Ql\334E7\355\277\014J\300\371S\022\344?\230$\004{\263y\343\277\224\003\311C%\235\360\277\273\022\200s\210\350\274?:\'\226\324\344\203\337?\026\204\204\250\334\366\341?v1\215\271\226\263\361?\312KV:\227\241\306\277\\,m\034\370B\361\277\255\306\001\340\016H\345?\367608k]\340\277D]\036\342w\\\350\277jY\20142\\\361?\022w>|*\304\301?\227\317\026\3475\017\326\277w\315S!\2468\325?\002\335\223\254\324\323\347\277\223;\262\035\265\364\342?/\235\223z\350\'\357\277\t\247$\037D\214\366\277\324!-k\034\354\344?\214\333G\233\216\211\342??\366d\036\235\"\346\277\"X\352\033p\025\360\277\r\003\272\327 \022\353\277\021C\300\231\266\272\362?F\230\253.\374\030\323\277e\305\256.E\327\343\277\300\356\337\3407\311\342?!`0\215\304C\345\277\244\360\222?&\231\345?\016\236z\004\262g\340?4\252\020\032\023\033\305?v?\241\255\354>\305?\347R\276S\351\325\307?\373H%\230\331z\325?+\356~`s\345\310?\251>=\030\234j\352\277\327?BX#\n\343\277\000\231\237|W\037\354\277\206\326\272\217L\020\322?L\230m\3521\'\341\277\300\370\377\224\001\317\341\277B\306K\021x\030\306?\220}\207A\302\265\327\277{:2\231\r\371\340?\272\323\212\'\301\264\344?\263\366 R\332\257\356\277\373|\321\326={\363?\025\225\026v\230U\361\277;\261C\315\n\223\353\277\001\302fw\243\255\313\2774\037\365,]\306\367?\001\316\201\220\276\343\313?\215\276\366\276\031\371\350?\224\025\256\r\3216\322?\237pX,\323\204\341?X\201h\335\221\313\337?\275\256\001\275J\004\341\277`\235\372\335\341\265\362?\347(\305\020\034\277\362?4\260\276.a\264\344\277\370D\\Y`\333\343?\364\002\334Ldd\334?\032\313\300pA\330\347?\010\356yo\353O\327?\\<\353\330\230<\357\277>\363\266\265-?\365\277\274A\302\030,\275\356\277\223x\346\324gd\320\277\002o\311\326L\272\304?\210\217qok\305\326\277c\316.\014\346)\360\277\230\177\036\236C\\\331\277(\315\343\306\336Z\341?3&{#e\216\336?\t\t\0138n~\355\277\3201\000?\005\026\345?\272,\232L\323\216\345?\242\360A\352~2\362\277\353\336\233\0008\320\341\277\303OK\0067\037\363?\223\316z\221\300\t\321?@9\177\224/\003\342?\215~\010\002lB\337?$\025Ls\026\302\337?C\315 \353\255*\351\277N\373b\"x\321\352\277\314Kj\223\330\315\351\277\231\221\016\320N\245\262?\315\261\260iC#\347\277\032@\230uS\036\361\277\261\312\260R\342M\362?iR7t .\327\277\327\364!\373\227\205\314?\263\265\375\367\343\215\315?\ru&3\rT\360\277[\031\n\037\2525\354\277\316\326Ze\327\315\333\277\240\260\305j\017\"\342?\204:\265E\001\350\321\277\313s\310\204\220}\342\277\260\203\203G\254\363\302?\2274s\362\260\177\324\277\243K.&b`\355?\017+o\233\314\256\357\277\024)\363\215\265k\361\277p&\205#\257\264\340\277\250\240\236|\353*\327?\235\026\2140\322\242\343?\237\377\335)1~\333?V\321X?O\000\311?K\241Ef\337\363\260?\227\3270\353\n|\332\277\273\023\372>\213@\320\277y\214\001\334\0162\345?\201\360\261R\335(\346\277\243?$AJ\200\314?\'\237`{l\016\346\277W\'\375^\210\210\271?\245\244[\244\242\235\362?\355HC\334 \037\361?\314\314\002\005\r\373\351\277\266OY\204c\317\340?\010\346\3318\304\007\354?+~:\300\355\227\344?~\320\347\361\256\303\355\277)\266\000\276$J\357\277\232\032\324^?\226\315\277s\t\n~\244\315\306?\236\305>\005a\362\305\277\253\204\211_]\312\362?\240\300N\000_\206\351\277{Y\001En\006\337\277\232e\340k\203R\343\277\2230\340\204\275D\337\277\336\235\026\005\034:\310?{f\366z\305\206\263?\303-\267\314Y\222\307?HyYd\006\232\362?ov\005\376\272 \347\277\305e\264\033\355m\345\277\256\251\336\275\374\332\347?#\237\230;\023m\362?[\356\271\001\204R\350?\200\260\037<\007\013\344\277\213\335\210-\251\213\352?e\307\325\254\177\207\341?\254Jz1\250\243\321?n\342\220\346\177\274\316?G\344\204\002[\360\332\277fG\322\336\231*\344?\320~\263(t\010\346\277`1\342\202\343\002\342\277}\255;mR\035\305?O\255\022\331\r\271\362?#K\211\314\022\366\356?\371\002\231\202\306\343\361\277\332&\261\r\005\323\344?\235\025\276\277S\037\364\277\200\345(\023\243\234\353\277\223\2604\016)1\314?Iu?\270\0221\330?\220U\352\273J*\332?\207\003\253A6\021\342?\240E~m\311_\320?\216*S\326\316\365\342?\210\261\236o3S\355\277;\216N\371\321\000\313?\316\326V\376\371C\362?\212(\271\352\324=\350\277\300l\344+I\"\347?\340\307\031\0208\302\346\277o)5\316\010\024\350\277\031\361\2225[0\361?\'\362\311ZU\217\340?<\351\370\030\242d\360\277\374\333y\216=l\340?\306\263\354#.*\356\277\330\002\334\002vx\336\277\030\021;\332\231}\332\277Tfe\304\210&\343?4|Q\250\265W\357\2777\210}\336\037\334\353?_;T\013s\200\326?2k\333\344\264\302\321?\027\'\207\214\322a\364?\r\201\t\207Y\363\351\277\342(\324Vk\372\330?[\263\224\007\360\205\362?*F\375h\225\304\351?\350\377\301G\001\222\342?\361\370\277\032\316B\350\277\204\275\030N\333\355\361\277\331\333[8{+\343?\027\306\n\265\215\032\357\277\355\221\240!\254\306\342?of\361\023\257\360\331?\376N\242K\315\333\356\277\213q \313\354\340\351\277|\346[\367\333\310\333?F>\311\301F\267\341?\031\224`\313\247\020\355\277\253\311\'\365\355\271\357\277\003\2177C\265\317\336?\375%\306\331{\203\361?\377\331O\362\267P\330?\265F3\330\236\304\344?\006(\345\334\n0\325\277\214oaI\274\177\342\277_\355\355`\013*\343\277\266\221\344\236\310r\362?\005\236Jeo\216\363?bO\223  =\324?\361\372p\001\2104\355\277M\005\"\231\231\035\355\277\360\355|\242\311\243\337?\'\310\030D4\013\360\277\244N\254\2151\r\347\277\252\346:\243\334\022\331\277\314\273_2HS\320?\325\274\253\365\231\345\323?\037o\362\222\344Y\347\277\030\260\2066\236\341\345\277\177\345+\231@\350\305?\3506\341\320\300\325\273\277\315w\212\314\243\340\322?\221\277\332+\366a\351\277h=\356\302\227\272\303?\202x\363\030l_\345\277\203\372\342\376\007\311\306?\253\r\250\214\222{\360\277\246/\216\004\"\255\310?F\236\344\026R\001\323?\363\323~\352\205>\340?\037\320R\023\236o\345\277\304\206D\351\345\266\343?\336\340\033$u\354\351\2779ny\205\266\034\352\277Z\302\343\304m\006\363\277I}\034\2672c\343?\244\375\326\340\237\314\254?\251\370g^\247i\341\277\030\262\373\220\336\205\362?\377y\304j\260\034\333?\034\017~\347\3716\341?\014\237\367\002\'\267\321?\375 \254z\350f\347?\360\355\243\023\204\337\342\277pJ\205\035~X\342\277\366\003\333\010\013\251\342?k\314\201\307\035\306\345?A\263e\3572n\336\277\276\260(\311\257\360\356\277\223\205\321fja\347\277\355\314\214\346\3460\355\277 V\307\352\270.\333\277\016\\:\200\026\246\362?^n8\021 \321\336?\316\323D\370\271_\362?.\240\016\317\022p\337?\206\031 \'L\234\354\277\231u\351\320;,\333\277\203\245\217\034JI\337?7O\356F\335\352\271?\242\010\374!\331\325\344?5x\262\032\332z\344\277v\013\272\020>\254\347?\322E\006\300\000\"\347\277\327\313Y}\211l\357\277\371\326\302\"u\244\344?\265\\)\317D\337\305?\235*\344\2071\344\350\277\211\250S@yZ\362?\243#1\270\216\337\334\277\203\272\256\034~\341\327\277\021\334\345\346\207\223\303? QdH\270\322\335\277\\{\237e8A\360\277\20543\026U\306\344\277?\265\034\3467\241\361?\241[c\237\305w\346\277\244#\313^\0060\341\277r\023\017 \023E\344?W\360:\303\313\004\311?Y\031\231<\336\252\350\277A\224;\256\027\214\344?Z\253j$\004S\332\277]\203\324\340D1\356\277q\301\\N*x\313?Es\305\212\236\220\325?\000\252<\235\014\212\361?\234|A\363/k\352\277a\337,\354\244\223\233?\303\244\342t\n\316\312?{\226\030\016}\323\303?\320\035\022I\202S\341\277H)\222\343\321`\357\277\210&\373\335\226\244\334?T\250\301\010\364\023\350\277\217\036\211vo\005\317?\r\250\027\031\377\221\362?\237\3235@\006\\\321?*A\273x\343s\343?\231e\337\255\373\212\335?\374\034\202?\320\206\357\277H\342\001\200\307h\343?N\017\223}`e\362?(;\320\352\203\217\361?\036\377$\2715\215\334?\235\026\363\300yq\363?J\022\361~\3744\337?\356#e:\375\305\340\277v\317c\251\032/\341\277\261\324<;Y\262\362?\372up\351e\327\331\277\301E\242\001 \342\360\277\365o.\341\366\030\345?\021ZJI<l\357\277\353\330\037\235k\027\314?L\306\302\177\204a\343\277m\037\215\354\220)\343?x\237\365\317\307\216\326\277\262\004\r*\255\276\346\277\273\204\374\376!\021\327\277\215\217\317{yj\324?\006\321M\312y\320\324?\024\221\t\006\251\345\342\277\321\347a2\316\233\364?t7\377X\006\201\361\277\303\255\352\302\262y\345?\254\234,O0L\346?\317\366\276hKO\354\277Q\234<\200,\246\321\277Q\264\207\"O\344\350\277k\226\265N\205\031\361\277\007\327\252/\250U\333?\014G((\305\213\352?\244\247\267=f-\347\2779(\246\321\310\372\344\277\020\002\303\353\331\314\267?gg\326\226\235:\341?\0200sN_(\343\277\302\373\361\352aa\302?\222\257\t\304\357\345\346?\026\355\346\r+v\343?@{\206\357\320\223\310?cY\267\355\311\211\337?\274\245\267\303+\237\343?\377O\257\024\034\033\356\277\004\027\243\251\213N\362?Z9:)\344\267\351\277\0311c\244]:\355\277-\324?\200\257\344\343?i\323\342\3749n\363?\031\370\000\334\315\304\361\277\331\370\305\303\354i\362\277A\010\025\226\361K\344\277n \342\236\210Y\352\277\204L\320\370\256\366\360\277\314\346_\357\2266\253?\261K\317\254\317X\334?`\t\232\247\270\330\360\277m\225\377\026\367R\345\277\226\001\346\2605L\252?Gzs\377\221|\345?\354+\224\271\227\316\341?\263\342\010\247\n\313\346?\300\'1\376\367|\360\2772\313\351\225\310\255\304?xn\223r.\322\344?{v\313(s\364\346\277\353,pC\251\266\342?\027\342\354\311$\252\344?@;\247\"&U\313\277[8\354S[\331\347\277s\243\277\326&\245\340?03\\A-U\352?\267h\226\252B\200\341\277W\370\312\3637%\354\277\000\242\322:Cm\350\277\304Cv\316f`\346?_\206)\270\365\313\362?I2&Q$\370\356\277\261$\002\260\017B\360\277 zD\256\262c\356\277\306\024\"\032\025\312\327?\027\267B\306Y\251\327\277\236/D0\244\312\355?\240\364\377\035\177\265\336?\024}\333\373T\375\331\277c?\367\224\375M\355\277\276\227\016\271\250\205\344?kl\016\2444V\361?\242\002\n})\214\332?V6\214\322\303\014\344?\0171B\001\033\334\361?%@\033\305\3222\345\277\216VkA\254\271\342\277\242g\020Z\214\365\343?%t\324N\367Q\305\277\350\0050W\241x\362?D\264\323PK\372\362? \230\342[\205\037\350?\270\206\257\332/\230\337?H\302\023n\214x\344?\317\2635\226\326\325\343?Z0\243F\212-\322?\266G\301\371\\\240\232?\332D\"#\345`\336\277m\301\332R\220\260\362?\263\337\\}\177j\356\277\264^.h\363\223\324?\307\240s\"\342\322\303?I\256\250&\004\215\362?<\325\014\246\302\244\331\277\365\373o\314GH\266\277c\342;<r\265\343\277\231K\260\017\235\265\342\277\270r\216\017hV\353\277\223\002.\321\301\250\326?OV[\221(\265\341\277\025[\317Vlu\330?\364\227\344\366\314B\343?,\334\'\245da\345\277\334M\243\323\264%\356\277\214\353\t\232p\377\307?\3522\004\'~\255\363\277\276\013\235$*;\325\277\232a\322Z\346\340\360\277<\231\231\0149W\327\277y\242M\347\352\210\340?\013^\262\375\3276\302?\221\315\242\032fQ\356\277\360\303\253\3056t\350\277\177\311P\325\007\224\352\277\210\236\336\375\3435\362?\000B\220h\313=\324?6\345\035\312b\217\245?6\211\335\344Z\377\346\277\254D\330\327\303V\341\277bNj\221#\202\350\277\203\312d\222\234p\362?\005$T\217F\314\351\277\324\342\362\225\336l\324\277\210\036\036\300\357\305\346\277\025\232\361L\232x\322?\273\240s3\311\366\360\277\343t\363NV?\242?\360\324)<*\275\353\277Dy+\214\267\362\322?\251>\370\307\2447\360\277\255\027D:`\244\352\277\005]\264uh\342\341?\304\311\355\0344w\313?\327\246\214\177\204@\352\277\035D\010\377-3\322\277v\217\341\253M\277\350?\016\212.AD\017\266?a\371\t\005\316\022\312?\222\355\252\004\240\265\342?\364P\273\351\303\324\345?\366\237\327\322`G\346?kt\304\305\207v\330?\031\202\273\310S\352\354?\021\243\336\376\261o\334?\2234%v\326\304\353\277Z\024IB+\246\352\277^\223\006\260>8\361?\007\271\202\321JF\346?_R\301Fl\353\361?"
      }
    }
  }
}
node {
  name: "normalize_element/component_2"
  op: "Const"
  device: "/device:CPU:0"
  attr {
    key: "_output_shapes"
    value {
      list {
        shape {
          dim {
            size: 749
          }
        }
      }
    }
  }
  attr {
    key: "dtype"
    value {
      type: DT_DOUBLE
    }
  }
  attr {
    key: "value"
    value {
      tensor {
        dtype: DT_DOUBLE
        tensor_shape {
          dim {
            size: 749
          }
        }
        tensor_content: "9,N\244*\007\226?\220\007h\035\021\333\227\277>\354\266\'\203\330\265\277\022\373)%\235H\265\277\263\371ec\352\'\217\277\264L$=k\251\277\277\021\2550\215lf\262?\366\327\336\017\244\235z?\222\340\r)s\007\243\277\343z\2309\177\"\225\277S@\266\305\004\316\254?\300\264\037\300\025@\310?qf/Ai1\314\277x!\301r\220\327\247?\036\324\226\233\035+\247?3P\344nq\211\262?a\026XU\334\233\311?nZ)\3247+\270\277\'\377\001\374\262\346\225?\253t#\211\202\'\224\277j\016\tWK\214\261\277\351\330\005\202o8\202?\010\001v\357\026\211\205?R\226\353r\027\026\272\277\205-\240\353\352%\227?\025\021\\\214\036\244\240?#xF\340\234l\212?\315\260s\0204\374\257\277R\307\316\303 \204\235\277\036g\026?Q\316\267\277iBX\362`\265\260\277\335:\301\200m\245\263?\200.\326\020\005\247\256\277\270p\306l\251\001\200\277\233\256l\2747l\307?\253\r\217\225\227s\331?\353[w\300S~\256?*M\302hG\005\274\277r6S\t_\014\216\277\374\372~\334\007\305\204?m5d\202\353\0161\277\306\030,U.6\267?\036\245;d\014Z\266\277UZ\256\260\2360\201?\020\305G\311\233\267\303?\206\\Q5\376\235\246?\0261\273\311\314\227\276?a\210!b{I\231?\301r\031\344\236|\254\277\230[\340\030=O\250\277\3312P\362z\214\301?F]\270\027\350K\247?\327\352\327\266\252\243\241\277f\200\317\310=\260\275\277O\204\"\213ZB\266\277/\324\377\221\034\211\301?\342fc\340\275\205\203?\200\024\257\036jE\221\277t\300\0231\372\365\260?\230|\001\275\357O\222\277\320\202>_q+\220?\247\362\005#\321S\234\277r\211\235\366\261\255\261\277\235p\353\213\271\301i\277L\325\223\037\245\357\255\277*n\335\336r\337\226\277j\365\346\254\373\343\265\277p\246\252\n&&\260?>\243w+\253\343\244\277*\322\305{\363\251\257\277\'\n\343\323\240\350\306?\333\000\032\264\356\026\270\277\033k\201\351_X\244\277`\317\277m\366{\272\277\345\270\241]FB\242\27702\232\\\277\177\275?N6\275Y\265N\233\277\017\241bg\365<\216\277F\323\016\324\313\013\307?0{\221\016\005w5\277\230\211AW\260+\251?\300\020.7\217\220\245\277\314\260\357\274Co\264\277\001\254\365\365]\320\262\277\321\232b\301G/\240\277\231q\204s\3306\301\277{\315\005\335\335\033\206?\336\007\331_\223\"\224?iJpo\n\213\253?\203\377\320\250\232\275\253?e\320\214\270%\n\244?4\264H\335\316\037\270?\007Y\256\261B\371\260\277\360\341D~n\302\223?\213\216.\026~\236c?\000@j\312\016\034\221\277#\325\372\235+\253\256?\010;\031\305[\262\256?:\377\251e\237\244y\277}a+\215\271\240\313\277\225\264\213\200F\002\255?\346\3717\"\265\345\262\2776\374b\314hj\310?\007\355\345%0\324\210\277\215U\204\013\327v\253?x\323\212\370{\200I\277I\014l\362\236\351\226?&*]\020\2225\263?U\372>p\351\240O?\224\375\334e\312\t\231?\324?^]/\200\255\277\344\247\350Q\177I\203\277\255\235\020m\344\026\251?t~\357\214\210b\240\277\266\237O\321aL\300?R\345\210f#r\220\277\360\020zxy\316\256?\314\354\005\006T\205\300\277\223\257\004_\371\213\246?\3458b\256\'4\210\277\267\324\373\351s\312\216\277]l\343b\343l\240\277\344\231\r\222G\314\236?\310\216YY\242j\260\277&\362\366^\236\314v\277=\374d\367s\373x?\346\312l#b\330\221\277pEV\276\373A\265?&u\243\357{\210\243?8\034q\317A\272\256\277\203w\362]\002\354\320\277\307(Jm*\214\306\277#ey\352\314F\206\277\005Rg\322,\223\251?\221\255^s\263\030\204\277\230$\034H\004r\221?>\272\250e\307w\226?\263\027\300\202;\321\262?C\266\261\241\324\'\263\277-Q\361\253\352\026\263\277\273\003\230\333\247\027\306\277\014&\2759\241\020\227?\243x\354\203,\267\271\277}\376\236f\370\021o?\342mE\032\006\303\223?\320\002\334\236\007n\254\277\2544\205\010\r\361\264\277\350\377\315u\236\331\252\277\273\206\324H\312\343t\277\307OP\355\370s\263\277\344pE\330H\026\306\277\261gBj\355*\222\277\306\333X\201\306u\206\277\013R\216N\021\300\242\277\337\234=4\014g\243\277\301a1\366\312N\262?\014\320I\202p\014\262?*b\373w\375\227\223\277\036\rMq\256\371\261?\236#H\005r\364\240\277\014\217\322\216\263M\254\277\263G^\362h\326\243\277\214\022UU\207\324\304\277=AV\221F@\302\277\323\266\310\ry\264\236?\213\353,8\301\227\300\277\352~\231\177\241\334\273?\2449$\006.R\272?\257\205[\224\335_\217?\031_\345\275\023\377\301?u\376cx\033\225\231?\003\273\236\234\013\317\260\277\214\274\240j\251\223\203\277\330Q\035\226j,\254\277bo\275^K\266\255\277:\347L\367o1\241?\232=\327\376!\371\272?hU\362t\014y\212?\323\335+\227]\304\215\277&\210\352\377\305\323\314\277\2763\250\275\304\251\214\277\302\214\272\315\327&\277?\315=\200\317\216&k\277\314\"Y\226\353\024\214?~\327\305+\343#\221\277B\016|M\016\266\272?\207\302\003j\022s\232\277\355~%\204\266|\277?\314\320\235\305\300\235{?X\257\033\357\003\"\255\277\020\2368\326mC\304?\314Z\271\024(\234\252?\247\260k\333\210\002\260\277\207\177Y\"\213\326\255\277\031Y\275\177*\022\310\277L\226P\n1\342\233?t\251\301\"\332(\260\277\336  \241\034\340\223\277L\026\244\341\256@\245\277\214\227\224\022\210\375z?iKL8).\270\277%\2119\237\315\014\252?\244\231\214\377\232\237\241?\367\023U\233\224f\273\277\273\006\332\350\300\313\265?\322\3724b\335\262\207?4\351S\356\350\215\312\277\035\226&\351?\267v?C#n\264J\202\267\277\346I\220 ,s\260\277:h\'\343\000!\253\277tR\n\013\206\254p?\374T\332\306\242}g\277\314L\201k\034\245\253\277B\312\277\240\035z\205\277\237\025\037\367O\345\315?\226\367\037\300)\031\256?\225\021\320\311\026\207\320\277;\272\372Y\036\353\324?A\201\332\231\274|\240?\016\r\355Q7\215\246?\373\337\204\032\311\277\273\277\245\315h\003B\251z\277\336-\313S\216\261\222?H\307\201\231\2141\230\277\021J\241\365\252\353\222?\213\365\177\007D\326\306\277\330\331\354\346W\343\302\277t\267\350\311\3773\252\277\322\240\341\303\331\215\275?\025\317\nL\261\264\210\277\204\212\254iEu\264\277Y\374\206[\236\370\252\277\364\202\350\326\342\374\253\277\313\277\331V\371\005\256?\217\245b\221s\"\205?\304ys\364\255\373\242\277w\340sI\300\370\237\277\361\213\271\032\254\302\260\277\233\3018\342\272\364\220\277\353\341\277\222\367\202\236\277>\203\252\331\343\201b\277\334PK\343\003b\267\277\212 \345]d\264\214\277\315\236O\352q\204\261\277\335\032\365a?\301\275\277\273\310[P\325.s?\204\007\231\222$t\242\277\275\262^\355\0024\261\277\343\352\252\025\256\271\275?\376 \022Hg\346\244\277\315j\270\242\020v\244\277b{\014\0339Y\240\277\323\353\251\374s\253\302?`\256m\345\202\037\255?:wY\021\300~\324?\243\351wYN\224\266\277 \2667\255\341Q\247\277p\002\346\212\\n\257\277\t)\200M\350\033\223\277\376\337\032\\F\367\243\277n@\255\005\321\364N\277$r\320\236#&\232\277\240z\377\263\tO\324\277N4\212\216\321\336\273\277\313\324D\325\314\334\253?\013\344\343\216s\364\241\277\004\005\265\335\332\321\302\277F\373\256\265\'/\257?U\344\225\214\026\242\222?\303.\244T1\360\264\277\217\306_\327\027\'u\277tN\233\200\363 \253?\275@\267F\263\250\237\2770\322\373\217W\336s?\257\026[\362\237\214\254\277S\\tH\017q\262?\337u\334\374N\002i?\263\033\252\036\2753\313\277\320,\315\353\220\360\264\277\271\034~A\355\334\303?U\004\326\317u\270\235?\236\205\356 \360\360\264\277S\n%\003\250i\251?\265&N\230\256\312\250\277\\Cd\370\026\354\327?1\375\365o?\305\261?d\024M\352\025\274\217?\375\014\270[\361\360\223\277S\320jf\257\364\262\277\216\312\327\235vd\216\277\317lV\020a*\232\277\345 \263\223\322\251\303?\373\203\321YD0\262?B`\334\360T\204\265\277%x\224\200\000\337\304?\3717\246T_\246\265\277lAE1\367\213\322?GK\226Rw\315\242?r7nu\321S\250\277\n\244\237[\272\332\260\277\024\231\020N\265\360\263\277\"Xg\303r\360\271\277]\350:n!\027y?\265od\034)\306\251?B\373\253\363\314\204\320?=\026\253\212\335\010p?\342x\324\304\216U\306?][\010\204w\004\223?+\245\274\006\2037t\277\273\303F(\207\034\260?4\"\034\353~\323r?\016\304%\247Zs\220\277+\023W\2348\n\261\277\261\\L\357*\374\207\277@\266I\321\322\215\265\277$\206\317\256F\337\243\277\207\32665H\221\267\277\227\t\246\321\337\200\302\277\360\274\207\245-\027\242?\221W\277J\210\300\265\277\240ox|\354(\214\277\323?\037\246\202R\264\277\315[\344\202pw\261?~\344\235\252\241\202e\277\270\256t)\2050\260\277F!\254 \023Y\241?\034[\350\311NN\\\277xwf\023\300H\271\277\257\276A\004>\352+\277\327\205\210\304\205\325\261?\373\000\000N\356\177\265\277W\305O\353\324\251\276?c\007%\325T\326\317\277\220B*\377\234\203\246\277\032\037\005\256\236\376f\277\353\'\372\337\237\331\274\277=\376G\343(\365\270\277t\013\264\004\265$\261?\371\003|\t\357\362\216\277\253\222\251\001v9\240\277\351\nMy\230\236\266\277\377\035\354|\213\346\223\277\216H\214\014\031\247\316\277\0142\031\200\263\311\271?sB\035\364K\225\302\277&\036N{VD\304?\274\232o\252yK\271\277\262\032\3419h\220\267\277\025\301\234~y\235\246?\374I\303m\316k\273?VgH\315\313\371\244?\241\262\254\342d\245\246?l\324\032\276t\372y?fy\305K:\335\245\277\230\326\235K\247\025\212\277)&MdX\213\263\277\243\310\333\305q\tW?\016U\271GM\355\243\277\250NS\020\274@u\277F\3623HQ\351\247?\221\\Q\372\253\337\240?%\303\000\3439<\251?t@\263\223\273\221\205?\275\014r\036\276H\256\277\325\271g\213\362q\272?\033-\224@P\014\270\277\210\262Jt\004d\301?\375r-\305r\334\210?\016v\275\272\354\251\266\277\264\347\274\3640F|?P\023\364\376\000\232\257?\325\005\370=\351\357\244?\371a\001\245~q\233\277\263\021T\214\305\214\261?8+$\220\321%\242\277\342\330\275\346\nZ\254?\370\025#\'\230\225\240?w\347}\252\255\210\251?\355Y\220\356\305\334\255\277%\244\222B\273\324\267\277\247<\210\244\353(\307?3\315\313&^\000\247\277;\257\335\254\326_\241\277\263\352\314\240JK\270?\277^DzY+\263\277\216\'\332\235\351nY?Ou\223\341\023\301\275\2772\017\272\332\020=\253?\000\211\026\225m\315\224\277Zd\t\351\201\370\255?\010\016\212`\271H\263?\r`\204\354\000a\302?h\2101\371\302\016\262?\337vD\217\037g\300?Q\215\257\032\262!\224\277@\256\364\343-Zi\277\334\255Rk\003\271\245\277Eu\177\002xG\213\277\213\223\212H\032\203\250?\221\322\227\343\010g\312?\023S<\272-\230\235?D\005\352\263\340N\230\277\202Y\341\202c8\247?\332\353L\203\232\r\253\2777\225L\301PL\324?a2\276\255\302\251\230\277\341\376\205-\r\236\211\277\000^>\370+\225\320\277G\347OA\013.\246\277\030\307\243\234\301\260\306?\316\340\313\213\026\262\267\277\304\373\227R\026S\267?\211\354\271\301_\324\234?OT\rI_|\223?\277\373\r{\003\353\307?\327\236X{\217C\245\277\362\325\3414S\375\261?\252\225\374\"\205\363i?\030\237g8qm\267\277\243\214\033\201~f\264\277\330\320\356\255\254\017\245\277\330u\314e\301\320\204?\002\311\256A_P\300?\005\035\310.\205\030\255?\336\261\245mi?\231\277\014\303\212q\004\271\264\277` \026&\235/u?\244\243t\222,I\223\277\200\225\241\213\017\272\263?\200!\230\333\000S\221\277ZtE\254\215\303\212?\347\320\215\324F\023\241\277\372\027\212/\226P\240\277\373\320|\314\n\035\242\277\272\300\r!3\331\264\277\014O\245u\030o\223?\\\250\210\t\366\253\302\277C2\316\350;\224\226\277\356\323\306\031\305\201\243\277>\253\013\310H\353\313?}+\233\rl\214x\277\'~\317\001\033\210\233?\224@\257$\245\330\261\277\326O\337Q\277\217\244\277w\177l\217_\340\262\277\006\253\216C\3035\215?E\341\331\225_\315\220\277\301\014:=\322\365\271\277\333g0e\350)\241?\023\201\261\326\343\022\275\277\207\023\016 ]\331\276\277\251e(\030\2431\245?\177\310*\227Q\317\271\277Y\3364\005~\237\260\277q?n.7#\220?\201\026\206y\350P\251\277\277F\344\374\313\260\272?JS&\304\211\364\233?\243\211\347v\335?\252?\241ow\2016\246\263\277\341j@<\341\352G?\214\357\361\347y\017\271\277C\313x5\337$\262?7vy\"J!\301\277hD+\376\302\017\321?\345\264\263\243\221\370\243\277+n\200\026\237\003\201\277\334ZJz\263\260\262\277\353\366\361\342\325\257\245?>\306\237d\252\234p\277\373\265\026\253W\376\274\277E\221]Sy\251\236\277\351\216\273\311u\n\236?s\252\345K$[\256\277@L\031\270R_a\2775\364Z\340\033\334\261\277\317I\261\005\275G\246?\360\211\271\"Mp\262?\036^\202Nu\031\233?\256\031\271\225\375t\262\277\214\216K\343x$\221?\336xN\334t\366\250\277\302\205\320G\353\275~?sR\214\322\2142s?\001\327,\267Y8\236\277\221\346m\346\326\221\263\277\340q\256\361\305C\264?\356\031\320\325\345\370\264\277/.\361\177\005\033N\277u\365\374z\266\340\266?\036\275+c-<\307\277\345\021\007TeB\244\277v \341\303\224\227\260\277\306)H\273\030\363\224\277A\260\257\206\375f\307\277\267l\210\022\302\355\264\277\025-\206\272I\005\322?\277\357\313\352\343\223\302?\203\266\345\026\373X\262\277\027\225\021\347P \260\277Y\372\374\032E\352\270\277\203\270\343\256\306)\244\277\306\022\014\371\206\306\321\277N\013k\013\032\216\261\277\205wI \016\033\272\277\210\207\203\273\2172\202\277B?yv.\335\255\277\262\275W\362\217w\224\277\241\274\232\307\336V\256\277T\320?\023p\260\231\277[\252d\316\307&\241?$2\255\220cE\272?\364\206\302o\177r\254\277\266\214c\341\277\206\231?\031G\227\361h\'\272\277\312u\271\304u\300\311?z\335\300\001\246\340\245?!?\264\360\340C\252?w\273T\313h\342\236?\035\243\327\365\3614\252\277\312\246n\215\266\345\211?\260\217@\300q(\310\277\271x\027\314?\034\262?\224\320\024R8\364\233\277\327\351\317\227\360\312\231?\n\252\030\251\307\240\265?\032y\211\ry\222\244?\023\250+\'E\311\233?\266NZ\230\244\"\241?\261\277\324C\373\257\235?;\341\327\275\215\027\262\277\202\273\307(\2510\260?\036hw\313\323\336\265\277}\227\230\247y\"\252?\377AP\2052\006\264?\177\276\367#\013\237\246?\320\002\026\351.\220\212?\317\217\032\274!A\257?~\227s\035\030\371\262\277v\205\355}\244\363\324?\002Q\t\212v>y?\365PV\016\007\021\244\277\251\032\234G5\334\244?Mr\263>\204\334\240\277\350_\210p)H\260?\260\323v\242cFw\277\345\006$i\3125\261\277\271\360b\216f\350\237?LZ\346\364\030\330\255\277\263%\007\237\307\227\246\277\253\362}\2755\217J?\322i\314\317\212\306\272?\214\022z\236!\314\334?\367\3241[\030W\207\277\345\374%\237\225\036\273?\312H^\326\335\240\303?\215\3322\250\265g\246?\032\tUC\234L\225?\270c\n\226\222(\275\277\350\230\203\332\030+\264\277\323\274+i\263\276\206\277)s\002\n)O\221?\301\307D\256/\217\241\277\251\275\000\237\333\234\243\277\375\271r\234\276\036\262?\006\376d\354\3029\262\277\276\223\225`l\177\250\277\016\275\244s\253\315\252?F\247\020\203\037\"\233\277\354\357\274\375r\036\261\277\356\r\013\3138h\263?\277\256/\037\336e\216\277,\3215\325F\030i\277H\242\256Fn`\253?S\003\270n\010F\322?\364\204\353\314\335>\264\277\n\350H\331\326u\267\277\276\033\263h\'\031\240\277W{\rt\322Sx\277\205\255\2004\0044\311\277\035\350\376\341Y\307\223?E\320n\246M\270\255?\225S7\231\tU\267\277\2572\272\273\n\322\244\277:\3314,\037\220n?/\016\326\272\264\031\226\277\326\234\203\032\331~\261?n\262\342=\214\317\246\277\321i\301\312Y\246\220\277Y\027\024+/\343\257?\36538\034\323c\247\277_3%i$,h?I\002\017\340\214A\250?\320;C\355\t\000\303?\034w&\372\006\240\220?\266\300<\203s\236\321?\036u\236\247&l\224\277\303DcR\361\\\300\277[l\211\216\240\361|\277\"HA\234\235\210\244?B\221\030\325\r\330\264\277\260\023\007\252\262\301\247?7\333\0261@\310\232\277\326>(S\332\210\230\277\007\026m\362\234\024\201\277u\351\215\322)\037\256?\274\253?\263\313R\271?NA6\177\241T\262?\354!\363\253I\021\224\277$\023=\332\271\316\240\277\227\207\016\333r<\247?\214\255\013\340\253\231\302?\026\024@\244Gg\304?\216\225S,\314\274\272\277\207\275\271Q3\300\177?\232J7\2232j[\277\031\177f\354\212\233\200?cw\030N\004\037i\277\365\\`zmX\247\277\027\034\350X!\266\261\277\013\221\325\230q\024\222\277\016\275\252\213\017\016\260\277\321\223\017h)\235\245?\305\263w\366\031\226\240\277q\234<\017C\336\253?\256\355{\307\354\201\241\277FI\003\030\321\375\213?A\354-\252@S\264?\207\377?\356\244\275\245\277\177\272\321\225\274V\267\277\364b\205\312\036\365l?\023o\240\224\\\247m\277n\302\366K\361p\266?\352\215\215\244\036a\301?\361\375\364\206SJ\262\277\210K\311\351\370\300\274\277\246\270\310-v\224\230\277\371\327\277W\352Tq\277D\247\030\315\331\373\244\277\362\010\350h\330m\306?\005\022y\032\306B\273?\200\302\273^_-\267\277\344G\005\264\365\331\260\277DI\327\332\240\304\221\277\354h1\3622\201\261\277\376|\303E\340\330\305?\337\035\326\3552z\265\277u\252\366nSl\256?\303\237\252\234\031\007\303?Dk%\257\022\330m?\267\342\37184}\213?\207\270\210L\207s\250?\257\261m\331\250\313\270\277\272V\244\rFS\232\277RM\273D\333\017n?\255\013\363\335\357\351\236\277Y$\330\224\220p\300\277\345\360\034\331\376\032t\277\256\200\352\235\323V\254?\240\226\010\0315\r\207?\343d\'O\373\346\313?#x &\201\351\237?\311G\316\200\227\223\255\277?65\376\226D\224\277\217\2148Y\326\365\274\277D\340\370\306]\214\261?c\247\010\372\221\223k\277\007\221\333\237,W\301\277\353\\G\271S\316\263\277%\252w\300\302\327\245?P\265C\020\253W\204?JyVPyV\222\277\r\243\346\342\243\246\270\277\t\330\031\274Te\215?\"\247F2o\360\251?\372\364~\233\352\"\267\277\t\r\307\004S\343\306?\240\316\224\356\344\371\267\277$\214\252\350\006;\241?\2057\245\023U\210\257?\332\262\013\343\263\212L?\326\241\312\247QZ\232\277]\004n\001\366l\264?\002\220\322\262\377>\203\277\031Kv\255iw\303\277\323\223\330\307u\315\255?\230\335\377\242\223\264\301?\367\362\r\357@\t\232\277\205\230\214`\"\363\261\277\366\357\177\213\355\377t?\315\035\217mhP\245\277R\004\026\342H\304w\277\023\333\024\205\035\312\251?R\0279[\037\370\266?\231\320@\243\027\206\260\277Q4,I\245\312\263?\363\036)f\253$\267?\276\300w\243\001\257\300?\037\371\340>x\331\202\277m\317\357\017\036\265\262\277\014\305\272)\232\311\221?\273\271Z\374H\200\244\277vK\327\336\020\366\262\277\312\360\254\252<\037\251\277\304\277\037\244}\030\307?}=\277\227\263\235\321?V\177?\327\026~\267?\321i\364am\302\255?\226\200\362-y\336\301?\347Kca}\035\272\277\224t\257\205\006\263\326?#\0055\345\'\335b\277\327\351:\014\211\r\215\277\365&\257\362!GZ?\303\351\351\316Zb\275\277v\257\204\016\256\225\251?#\311j\023\027\354\313\277\245\244<\346^\242\260\2777\t#\357o\302\245\277y\367\254\265\330\262\226?\201\345I\222\373x\266\277\320\255m4w\365\300\277\210\245\202Q_\263\243\277F\254\261\375\025\246\303?<\n\203/\351\255\223\277\244\341\026\027\n\003\254\277\n\0063\263!\244\265\277t\371)\335\024d\260?fF\353\301\037\204\240?\301\213\233\004\351+\226\277~\274,_\371\235\302?\"N\024\257\323\326\250\277\356\221\022\202\025\307\266\277\305\276\204\201^F\305\277\306_\034\376\364\375\234\277\365\001\003\004)\347\216?\322B\\\nL\030\247\277&:\000|\306L\214\277\344u\316=\"\326p?\030\255\023q\037\030\255?\227\201\\\322~\316\260\277\220{\023y\007>\306?\\P6\010\243\001\263\277L\362y\323s\303\237\2773\373\373#\274\242\272\277KD\223\356\310g\257\277\313\034Tl\024D\266\277\017V\343\351\204\001s\277"
      }
    }
  }
}
node {
  name: "normalize_element/component_3"
  op: "Const"
  device: "/device:CPU:0"
  attr {
    key: "_output_shapes"
    value {
      list {
        shape {
          dim {
            size: 749
          }
        }
      }
    }
  }
  attr {
    key: "dtype"
    value {
      type: DT_DOUBLE
    }
  }
  attr {
    key: "value"
    value {
      tensor {
        dtype: DT_DOUBLE
        tensor_shape {
          dim {
            size: 749
          }
        }
        tensor_content: "\215\246\3762\364|\247?(\332\0012\2514\237?\213\310\031\330\216q\306\277\263\177\312M\216/\204\277A\025\350\036r\251\271?P\261o\210\220_\253?TE\363\007\247\203\247?2\251\214\345\352\256\251\277\330\030\020\032\t\366\250\277\000\330\340\242\315y\237?\030\243|\201\305*\264\277\020:\321\232\270\307\261\277\212<\007\2773\336n\277w\372M\323\034,\217\277^\005\006?\231\277\275?z\342\266\206]\267\223?\260e\377ay\320\246\277\227\252PZB\314\221\277\\\217\345\006\024\347\301\277\267\275\027\303\320\247\261?+*9W\032\236\256?\332\324U\365fC\201\277G)\025\213\252o\270?\267\342\216\313\361\210\266\277\030\302\366\242\321\261\203\277d\304a\261\221\364\263\277|\022\227\255D\377\304\277\361\036\221\303\235\365\244?f\242^\252\210\352x?\324\203z?)\334\265\277e\207\327\227\020\363\260?\307\033\300\237S\231\223\277?\345\255\234\377\032\277?\213e,\002\215\276\241\277\261\262\327\352\356\341\274\277$\326\001\375\261\312\305\277\250#\307\034/\330B\277svJ\270L\302\274\277\246\244\013\241#\003\266?1\026O-T\307\240?\340V\372;p\214\261?\032ni\252\332\200n?]*%~\256\312\207?\210\250\375E\024\016\261\277\277N\013\307\333\230v?o<\265\\T\332\337?\262E\256\"\275\t\303\277\023-i/\204[\303\277\t\350\035mz\315\243\2775Y\016\355\367\375\245?0T\"s\203\235\230?4q\312\212\3772\233?vnkx:\216\241\277\370\004\225\360\322\220\222?)!o\030\302\241\254\277\234\354\254\253\226q\305?3\303\2214\002h\260\277\2245:U\"\211\235?s\036\276\332\0163\225?-\333\\N\n=\266?a\306\034\324\3553\244\277\246\020q\273U\271\241\277\224\030f/\264\247\223?\007\311\227F\371\335\247?\252\240\356\013\'i\221?K\"\262\004Z\177\240?\3429\204\250\322\032\220\277\363\353z\316\236\007\231?\034rB\255M\024\261?Dpp\276O\226\300\277\344\222 \335\326\336\252\277<?\224\377\246\216\306\277\360\250\311IC\320\221?\306\332/n<5\256\277\317]#6A\301\253\277G\253\223$\2702\276?n\357yI(\264\260?\371d\352\311\224\306\263?\033\250\237\027\r\301\251?\377\327\256\345\326\260\260\277\025\233v\n^)\256?\014\344<0\233\276~\277\305\r>\222\217>T\277\025\376\313\357\240o\224?\005\303\013v2\361i\277]!I\005\263\343\262\2776\335\243\322\266\233\320\277\020\001\334{\035g\245?\223\276\033\034\246\317z\277e\001\315F\205 \303?\312\216\310p\r\315\237\277\314z\t\254\020\263\246\277f\357\263A7\260\225\277$6\275k?v\244?\004\217\363\351\\3\215\277\241\224\350Of\260\252\277Y9\006L\213C\233\277\027\366\256P\021\313\274\277\006\\\265LL;\260?,b\212/\224\312\235\277\304\374,\035Ww\314?\004\206\320\241:\304\250?\261\207\317\311\021\243\242\2773\345\224\250\247;\203\277!\374\226\276\371w\273?\351\367\'\326\340\233\256?\276\377\332\235\232\371p\277\326\037\352$\254A\217?\270\3726\276\010c\240\277\233\245\304\333\253q\225\277\315C\326\2627\267\254?`J>[\225:\263?\313\036&\251\254\230\274?\022\307Rt\350\301\262\277\'\212\331\333o\267\226\277\257O[T\277A\250?s\370\337f\344o\211\277\267\'\t\301\312\t\300?\022U%>i\272\244\277\247S\023\345\316\341\225\277\007Z\211\3247#\270?A\247\177\337\3408q?\245\3276M\363c\242\277\020L\013\037\340\345s?\310$}O\275\312\266?\036]\201\"s\016\231\277(\3730\350\254\223\264\277\246\037!>\224\032\267\277\037\2616_\2724\306\277@\021\341\025\272D\260?\232\272\275*\240\330\314?\347\234\035zk\"\263\277\216MTnAJ\317\277\341[Q\233\304\343\263\277\306\303^\211V\306\231?\221\347b\334\307u\241\277\035\203\025P\031=\251\277\353|!G\215\310\240?g\204\342I\304(\217\277\330\231L\377\217\014\240\2770+j\337\254\262v?\005\305\005\214\256S\276?\301\023o3R|\222\277\331\027`\232M<\212?\261nq\211\260\022\246?[\267\356\307i\246\021?\257\314Tn\327\200\214?\301\272H\247\225\\\303?\r\347\'\230\372T\276?8\232\323F\320\201\255?y_\277\362\255\367\223\277P\007Q\321\313\311\221?\231\366.+$&\277?\331d\2150\n\211\205?}\321\327\331\021\232\250?\307G\001\310\024\247\250\2778\024\220y\303\330\250\277m\247\324;\316\222\227\277\036-g\232\324\007\252\277(\253\001\326\333\340\224\277P4\035\325\300=\224\277\345\316v+f\274\243\277{\263\224c]\332\260\2779\313\035\031\314\307\304\277nC6h\210\365\251\277:\t\354nT\347\304\277\332l\017\037l\223\267?\354\374sr3\266\223?\242\027j\022\360\n\244\277\304\227g\334\036\232\243?MV\t\036&d\244\277i\361\377\361\264X\211?\332\272\016\257V\324\232\277\260%=%w\220U\277\234\244\023\376\221\013\265?z\341\340\222\201\275\257?:\371\023\000\252}\270\277 3$Q\315\273\267?\272\022\315\334\275\202\256\277\264\337V\210\257\303\225?\n\341\203r\211B\263?`\017\252I\0315\260?\001^\322\252\255\354\264?\016n\3311D\356\261?\326b\215z\212\306\205\277%\237\017\242?\313\252?\236\364\221\037\250\031\251\277EV/rg\004\271\277_kj\314v\327\260?\177\341x9f\233\207?\316\323r\263\223\376\206\277T\367\010C\313z\313?:\004\374\026\277C\271?|G\025\234\277\253\261?\364\354\222w0\001\232\277R\243\236U_\n\266?\201\335\261i\353\265\260?\321G\201v\244W\222\277\312\33543\334\233\206\277\233:$\037 \214\207\277\362\317\233J\032\262\205\277\013T$\346\253\227\271?\215\365,&!\323\221?\356E-\323HM\301\277\021\265/\263\237_\244?\247R\262\257\253$\270\277\276sOFG\017\224?\224\342\275\006\201\317\241?\206.\257\"\370h\271?\265\250\266\265\243L\306\277\266J\274Q\326\271}?\251\263\242^\352V\251?\360#\312mk\265\230\277\226BaTp\"\256?\037\206\242\031l\331\263?F\"A2\020\036{?\003\255\341\\\005\035\236\277\035\322\010vE\363\225\277\356[_\0058\253\230?\342\310\021)\347z\272?\256n\366F\310\331\234\277\341u\217h\376\274\315\277\242\307\304\377\311U\207\277a\rqZ\216\314\267\277\020\300R\375^\240\205\277\356\273<\302\014\334\223?\247\215\257f\033\361\264?\310P\277Me>\267\277Y%M\224?\262\241?\270\332\207\321t\222\274?\331\231%0\006\000\212?Sk\255c\310o\251?*\264/S\272\004\264?\342,z\t}\271\312\277\337\207\357\177\334\'}\277\207\244/w\222\254\300\277\010#\020c\345$t?h\365\340\345 &\275\2776\026\244bsn\226\277eFp\332$\371\222\277\206c\327\250+\246s?h\365\357\372\032 \245?\207\240{\263\033 \261\277\263{\307B\032\355\260?\021~#\345\312\220\247\277\020c-#\025:\266\2774p\3763(\226\252\2777\007\306\007\327Y\203\277g\314/L`\013\177\277\0319UQ\032(\242\277\r\345\005\014\222\204\241\277\241\311=\030\304\345g??Vp\340\270\231\220?\222\025g\343c\016\254?\217<\032\002\024\341\226? -i\312\2074\230?\343\r#&\334\270\242\277\270\360\0317g\002B\277P\272 \272?\\\273?E\302\374 \237\303\225\277@\251\343\230+\341\260?\347z\001T\300>\242?\243\270\346\01366\233?\227\336KlJ\362\272\277\217c\340\352\362\024\276?J\363O\352E\367\306\277\366\001c\177\000\242\222?\022\352\2760v\362\224\277\224/\373\330\n\274\252?\t\004HG\342\030\252?v5E\306i\321\262?\320+HI\376r\235\277\266hv\266\201/q?\364]\374s\367\221\237\277\313\017\343\333\264\247\213\277\236\2411X\0063\324?1\r\001\275\342\331\203\277\232\017\221W\r\300\276?\240q\013\257\233\321\217\277Sd\346\362cq\244\277\342\247\345\377\023\320\206\277\n\251\031\037[\340\\\277\035\352\276\376\031\023\242\277N\341\224\rx\350\264\277\'Q\206K-\022\205\277(\200\026\253Ek\177\277\34309\246.\350\253\277\033NS6\007\310\264?\363\264(QZ)\256?\344\304\346\001\333\321\250\277\336\313\341\265G\244}?3\351\231\034\340\016\276\277\372\264\246\347\010,\234\277\305hM\271\277P\256?\363\333=\206W\322\261\277\366\246\025\375\025\222\261\277;\025\033\201m\003\232?\330\'\261\240k|\210?\237f\242l\3430\264\277\016\313\210\014\264\203\261?\374\367\007^\306*\262?\027\1779\3047}\232?\034Y\230\320)\004\303\277\217z\207=\374}\254?\251\3250\300\335<\264?\000.\353\263\347>\241?\235kj\336\177z\212\277\r[\0062\322\003\231?\001\3649\211\002q\201?\000N\343\345\261#y\277\021\230x\002\303^\276?\213\334f\344\010\237\240?:\313\027\364\222\250\240?Do\370\030\216\023x\277\257mD\214\376\316u?\034Nm3\362:\267\277x\377/\323\360\274\205\277\310.\312\222\345l\256\277\261?\307\272Kc\251?\022Y\032\315<]\177\277\214\366\251\036\367y\250\277\006VTx\305]\260\277\366\364\327\213B\340\300?E-R\240v\260\204\277\3223\352\360\"\333\227\277\357\226\016\224_0g?\275i\177\226\312\353b?\240jK\207\224o\270?\257\311:\360\204\317\303\277D\314\202\304\232\030\263?\036\202\351\303\306\325\314\2773\3419\375\355>\216?e\017\n{b\275w\277\333\016\220\305\321A\231?\211\220\001\033\352/\243?\341\276\032{\240\n\241?h\325d#\023\321s?k3~0\365L\332?\352X\236\374@H\276\277\335\375\377\337\"\\\225\277\230\210\232\221\305=\240?Htxd`R\242\277\310\224\211:\352\322\304\277\327\246\025G\304\220\244\277q~\241\277.\205\220?\213\263\241\376\3651\262?z)\376\356\330I\225?\304\200$\237o6\304\277\304p\020\005\020\213\257\277)G4\313)v\221?T\214UK}*\207?\306J\307\333\014\316\241\277\027\242\260\363\237)\266\277\340\247`@\301\202\257\277\374\006\360\014\006s\204?\032i\026&1\262\273?IT.d\313\303\220?\030\274\2770\223y\260\277\222j\343nL\312\240?\251o\365}\300\322\264\277j\031y\200\255;\314\277\002fk\024$x\246\277\3400\201\352\253B\263\277$\177)>[\217\231\277\324\032(\273P\025\256?\220\r\351\346 `\'?a*%\255\203N\240\277\206_\241]\360\256\227?\356;\236E[I\240\277\365x\216\213\370_\236?X\301f\370}\273\254?$\n\301T\265\254\211?z\264\232w\207\020\270\277\341\303t\213\242\027}\277g\200\303c\325g\235\277\036\342\210\354\223\273\270?\253\207\372\202\340\305\256\277}e\032f\003\250j?\250\273\204\3155\215^?\245?\227\256\246l\255\277\323\275\225M\365\035\251\277\303Z\031\275e\316\244\277f\202\351\322\335\211\331?^o\232|\370\370\266?\233wt\307?\306\251\277\246\337M\270\027\232\240?$d\313\205FL\202?\212Y\302\275\241m\244?\346\272\247\020M\340\265\277\217\217g\010\352\343\216\277\352\231\336\240[{\321?\246wu\027\364M\230?\302D\245\343\355\306\267\277\250\326\311\346\2543\300?\001\207\215\265\002Q\240?\265\020\243\'wa\245?1p\267\034\205\334\256\277\3155\305G\204\300\221\277\007\312\035\210\345,\221?\006FT~{d\252?\365\363\025,i(\246?s\250\313\272\210\344\263\277\325\266\370\337\022\027\302\2773A\214\266\245\334\276\277\322\'cm\235\227\233\277\221\372\251e\026\240\243\277l\375\035\330\tn\262?]\331`\204\305\'\243?\351\301@\353!\342\270\277)\373\361\001Ax\233?\335*j\\\223\375\240\277\206\304/\037\334T\177?\352\365\331\207;\246\222?\024E\034\325R{\265?%\300ZK\372N\253?\321\2526|\335\365\242?\371#\207\225\314\023\222\2773\337\261\000t~\245\277\332\207\013\242\376\212\246\277\232\370\360\'uC\270\277\375\024B\314\241R\307\277\327\344\206h\216-\255?$H\2073\215\327\260\2771\363IU\312\"\233?f\321\200\333G\336\224?+\335\231\336\267y\206?\375J<T>\025\237?\365\300\024\211l\026\223\277zwi\205)x\270\277#\215\217\273\241\037\256\277UT\r\307\340\300\260?\004\334\245\006\376i\265?$!\364\037\357Y\222\277\030\231\017\026\216\021\265?\016H\275\370\216,\303\277\327a\320FhK\222?\362\363<\277\266\242\270?\232f\242\262r:\314?G\031K\371@\327\251?~\001\301rnR\254\277\247\n(\254\255~\311\277%\305\211\021\313c\262?\347(B\372\366\177\256\277\313\034\236\324\251H\251\277N\"eA\272\354\244?+\236r5\323\351\230\277\375\374|\377\376B\242?<\202\021K\226&\244?W\034D\366MX\272\277\007u\205\225>\335\247?d\226~\025\224,\266\277\222\025ZpE\203\233\277FO\007\t\016~\225?\216\214\214\267QT\247\277\017\036\261\377\221\204\250?\324\305\305j\3559\264\277\320\241\360\264\350\340\216?{^xz\330g\261\2778dck8\301\271?Z?\n\2711\323\263\277\360\361,|\315W\235?\341\374\357+=I\266\277\322\033#\327\360\370\247?\347\357W\206z\327\303?S\223r\266\316!\\\277^\257X\322Yy\217\277\236F\2701\203?\245\277\177\271&\305\361\355\242?\204l20\333.\267?2\217\264\343+\227\270?\220\270?\323\312\177\234?\211\352\022\213\362z\275?\337<\267\\\246\357\235?\302\270\026\346C\230\266?G\275D\377R\353\264?\305r\371r)\373\215\277O\202\211jct\220?\026\314\254\2555 \260?\247\343c7~+\260?\207Q\343\223\220\266^\277 `\307D\017cl\277,~\251\336\352\275\265?*$p\213\225C}\277\t\312x\275\305\324\234\277\227\227e\337E\275s\27796\256\262n\034s\277\333\330\003^\241\247\213?\001\311i\'\014\026\250?\375; \360\231\372\243\277\274z\313k\003z\243?`AMm\326\351\322\277}\204\353u\361\315x\277q\0070\210\3025\222?tY!\013\317&\266?#I77\tM\206?\023\020\220\324\014\335\226\277\005\233\024\317\245\376\245?\317x8\032\316\272w\277u\003\3770\006\217\271?\021R\013SsB\246\277\224\232\207\303.M\243\277\211s\303:\207\037\275\277!-\246C\354)\266\277\202;\364\312 ay\277\376\251\027\325\340\313\246\277\222\251rF\002{\274\277?\237\354\315\260\336\224\277\333\302\303\357\366z_\277\364)\014W\311\033\257\277^\375\031\235\257\366\214?\270\007\253\226\253\2469\277\231\374Ju\020\315b?\223\230\204\332w\030\233\277yH\253\326Zi\263\277\341\211~O\343[\251\277\341S\260\006\212\260\275?;\317\311\010\017\010\302\2772L\344X\303$\236\277\267d\253\220\337?\231\277\230/\301\265\035\356\277\277\026[\200y\244\333\225?y\205\201|9v\220?\277[\034\211\212z\241?}\323S.\312\026\205\277\273\237\215\234\321a\260?e\t\"\013\217\301\255\277M\276\247\342\201\007\237\277\330n9A}\\\263?\206\273\361\257\305(\231\277p\264\270\025\023\231\227?O\333\211m\276-\254?4\035u\314g^\227?Z\235\005\r!\242\230\277\365\325\315\305;MC\277Z\223\n%\377\310\265?\270a@U\312\332\207?\025\"\300\363\240 \270\277\026.C\032\332Wv?\256\216\352\320>S\231\277\326\352\231\305\334\307u?\377\313;\036\004=\321\2771\021\265b\n\240\222\277d\223\3706\016\264\236\277\367\001x\024\370\373\265\277|\317\232\204\330l\260?\023Bjf\262\362\265\277oE(\027\325\243u?K\221\260\037\212\241\201\277\354}\005\245\367\224\264?}3\376!GV\201\277\315\342\202\247\222:\177\277\323P\032\334\342\266\230?1*\004\240d\025\256\277\251\262\244\244\350h\204\277\200\270\024\213\257Q\210?S\001Rh2J\267\277\374\031D{^\321j?N\270\3604\203\336\260\277\033\323\032\211\230Ri\277\021\'\357J\356L\304\277\263\266\250EE\322\266?\036\2720U\344O\262\277\267\353\334\277\227\004\213?\342\313\257\0006\220\254?\262\247N\300\265\226\246?\n\2775(l\303\202?7\254\253|\373\263\206\277\036\217W\223M\226\240\277yU\264\025\250\231\301\277O\031\036\252\016\200\232?o\373l&\275\331|\277\017V#\227\223\212\267\277\0307\035Xz\304\230?\310\266\\Z\\U\241\277\236\331\004]\202\364h\277\352P!5\206\215\254?j\362\247I\345\346\212?\334{\224,\224Z\264\277\225\007\261\346A\247\206?\342\275\253m\313#\203\277\005\027\345Z\340@F?D\222=\313\305R\301?\364\255\303N\271r\211?\026u\3169F\275\252?xq(3\347\t\262?*\003\222\214\334O\266\277\345r\020\020\217\232\234\277\2211;(\350a\217\277\366\274\260\204\262\013\266?|\277\030\203$\021y?BQT{4Z\250?l\266\264\006\250\037\300\277\227\022r\335d\244\203?\233\210(sn\254\270?\3740\013\023y\365\214\277\007\332\271\320\016f\264?\360\237\327\037h\342\250\277\"\352\t\315\210f\200?\010n6\220\027,\307\277\223\n\034\356\r\372\263?^\377}\340$\237\257?|\334\327\352a\351\274\277\237\325\247l\244\033\240?}\200\336\273\302\222=\277\205\231XU\005\337\240\277m\0330\206\362\363\255\277\315\234\331gTX\275?\252\341\274b\264T\257\277\025\002\211\262\020a\250\2778\213\312\364\216\022\205\277\032\343N\374|\232\260?5\003.`4\305\241\277\223\n\332\334\277\345\246?\361s+\005kf\270\277\310\357\271\232\355#\201\2772EQZ\2411\237\277\247K-\240W;\254?\331\343\021m\004\364\244\277\244l\005\274wz\200\277\240*k\244\377\251\214\277\306\335\321\352\032\301\255?\334\354\304\251\037\245\206?\267\303j%\226\327\274?\252K\273\274eR\251\277o>8\312 >\213\277\374\304p\207\375\344\200?\247\tg\0231\311\232?\226+\304P\034\264\276?\253\373D_\013\302\231?c\3524\244\3076\262\277\202\304?\324\337\233\211?\216\376\330\300E\013\215\277Ww=\275R\203\263?,n\rL\357T\247\2770N?6\363\210\264\277\235A\017\305>u\303\277P@(RY\216\274\277\207\311\314\340b\003\260?u\233\352o\372\036\244\277\364\220a^\205\226\276\277y7\305\203\007>\273\277\031\265!\357\370\323\242?\363Y\251\t\262\034v\277\331\305\301\374\270\345|\277\\\240b\027S\326\264?\343Bw\313\360\331\303\2779\263\226\363\307;v\277S\306J\277b[\200?Q\365V/\326\231\303?\026;\367\334\235\023\252?\266\336mCN\370\272?E\312p7}-\236\277`1\206\325A\233\314\277\340l\333V\005\375w\277%\'c\0300Q\220\277o\300\366 \334\200\323?p3\002\007n\376y?\024\214\301\252\234\370\254?t\014W\235\035\247\232?;\002\025\316\261zn\277p\323\t:\302N\216?.g\237\267\200\314\237\277\005\325WB\376\354\223?\311y.\202\234\303r?\234\351y8X\034\313?\220x\270]\241i\243?\353\3230\312\246\313\305\277a\201e\003.\231x?*q\222\014\227\215\262?\364w%R\325\207\270?\364<\305Qo\267\275?6?m\314\230\213\315\2776~\224D\024\270\253?\3637a_\027<\253?\323\365\2349\035\305\241?>\023\336;\357\021\246\277\3530\026E\262\216\263\277\"\257YR\310\374\302\277\n\320\351\303\371\023\302\277\017a\347\301 \216\231?\230\3756z\000E\260?az\271\3715\210\222\277\177J\031\037N`\226?\313\024\277\023\025\245\272?\300\301\032\357$\377\261?\260~\352\031p7\230?&\210\212\rwt\247?\326\201\005\240\352\202\201?\232\207c\370\371\307\223\277\312\370O\200-\002\262?\273\302\024\312#~F?v\314nH\206{\226\277\353\336\350\302\331)\203?r\335%\307\n\322\213?\031^3\355\rK\255?\351\304\226J\320\0237?\377V\370\372\346\005\264\277\323\276#\rHj\260?y~/\004\275T\305?7\366h)\034mx?\273\026A\205,\003\223\277K\327[\200j\016\254?0\023\377\307\3164\271\277\271\253\222\376\233\362\241?\242\035\261\262O2\242\277\023vk\037\266}\262\277\274\251c\t\3540\303\277\351\303\010\250*\005\241\277C8\314\007\241G\260?\370\220\024\031T\207\310?;\236\203\377\250\371\270\277\032\274\266\300H\337\216\277\r\235\021\\4P\275?w\230\316h\252\222\221?\254l\227\351\032\240\240?E\020\036\215\346\014\250\277I\004\302\000\035\037\276\277\316b\233\360\255\243\242\277\017m\261\365\345\220\222\277\002\263\030d\022\314\264?\037\311\356\233L\303\034?PD\351Jm\321\247\277\361\303\342\227\216\271\303?\031\026\331;\203A\273\277L\224\230\220g?\300?\222\215\3228>\t\240\277Q\3410\204\025\346i\277|-eWP\304\221?(-I\341\246\252\250?\323\341bIC\263h\277\342\312q\006N\342\261?\2578cd&\344\264\277W\265J\354I\302\233\277\371\240\315$j\363\300\277s\335\010\377\002\211\232\277\2129\230\367\214V\302?=\337\365\234\254\023\246\277z\371\375\320\266V\235\277\362%\204\211\336\317\266?\372B\363\373\001N\247\277N3\264>\273f\242?\336>YS\331g\322\277\233O,\326\225/\322?!\251\026\337\014\361\271\277\002\314\203\214Cb\271?\260\303\360\305$\006\233?\331\034\300l\265L\217\277\326X\350\361\353\000\267\277+\362\'bVM\242\277"
      }
    }
  }
}
node {
  name: "normalize_element/component_4"
  op: "Const"
  device: "/device:CPU:0"
  attr {
    key: "_output_shapes"
    value {
      list {
        shape {
          dim {
            size: 749
          }
        }
      }
    }
  }
  attr {
    key: "dtype"
    value {
      type: DT_DOUBLE
    }
  }
  attr {
    key: "value"
    value {
      tensor {
        dtype: DT_DOUBLE
        tensor_shape {
          dim {
            size: 749
          }
        }
        tensor_content: "\205#\273X\246\177\275\277\232\313\010\377|kz\277\201\244\276\232\354\300\262\277GQD\320*\230\256\277)\371\320\252\310\232\250?\032\333\"\334PR\252?p\t\314\276\036\220\263?\274\330^\004\242\005^?\234\232\013\336\305\267\250?\311\205Y\307Q6\245\277\204\306\237\036D\353\220?\214\203\231Y5\321\251?>\372oR\247#\230?\234\330P5\r\211\247\277+\215\205\322i\244x?\007\271\240rn\213\243?`\025\031\340A\267\324?\275\037\373\305D\375\271\277\006\362\277\241PN]?C4-\325O\360\251\2778\256\320\302\213\254R\277p\211\016yCF\260\277\004\031z2\262\334\253?\027\002\017}U\266\263?A\252\213\240\226\263\270?+SaAyv\204\277\351{6\321\022\251\303\2776\217\343\004\324\303\230?i\220t\027aF\230\277@\206\273\347\356y\263\277!\237b\350\346\334\272\277\2662\336\267\222\255\241?*{\210\023\035\341\262?7\224\355\302[\235\220\277\253\235\356\350\"\263\250?iB\321b\301\245\262?\255\017f\t\000\363\202?u\323\363\3631X\261\277u%\356\326}\217\221\2779\204\244k\355\344\272\277\211)\265&\027?\255\277@\330 \277\026\026\242?\367l\030\236R{\274\277\rj\212\341\\\244\262\277\003\022\016\224\201;\260?\341\254\377\026=\231W\277\2066\216\024\262\357\237?\027,\241\301!\371\242\277Z\007\234\r\201\223\262?$\243\237\252\030L\301?L\207\206\321\376D\236\277\2577\352(\224\243\300\277m\272\3120\372[u?o\205\310\231+\214\243\277{H8\251X!\231\277\300\274ki!\355\301?\373\250\3773Q\222\250\277\356/\234H\316\330\251\277\234\270\333\3773\332\201?\033\300\340sg\013\233\277\323hl\304\211\336\224\277~@\326\332@G\256\277\232^-\206\370\267\240\2771\361\306v\331m\227\2775\264\014o\310\033\315?\262\260\251\334!A\270\277\027\005k\227i-\261?\252l\243\\e\370\261?\330\223q\271\232S\253\277\345c\005M\036`\227\277\374\371\364\267\265q\265?J\217a9%R\264?\375X\216G\337\330Z\277\005\003\364\260O7\253\2772\350\331|\361\021\200\277\010\311\340k\352^\216?C.8\367\367\\\251\277\246*\366c \010\223?zj\250\313\356\315\255\277\324\316\375\336\267\376\231\277y\356\023\257m\375\252\277\202\207\332\252p\230\270?\271\207\r\236r\022\277?\357\275U~\365LY\277\024\332\'n\204\362\231\277\332n\265\360\005\035\301?\364\n7\022,V\270?1\013>\0071\333\302?\017\366\035\356\371\004\233\277\3344^\236\344\306d?\352\225\230\233q\213\241?0\221z2F\210\250?\250\212W^w\007s?\\P\256\254\n\346\270?\036\227\222\272\035\267\220\277\272\365\351\273\331%\276\277T-\342\202^\235\262\277\346\211\245\240\245\207\241\277t\363:R\207>Q\277\031p\006E\211\340\200?\236\371g\261\220]\300?*\034\261\3205\334\244?\221\300v{/@\265\2770g\021\342Nk\302?\342\257\331D\355\240\240\277?\313\033\357,e\265?\006\207\"\210P\357\234?\303\303H\242Zh\247?fN\231\364\312L\231?\325\243\367qt\342\261\277\340\"K.\227\237\230\277v\211)\334\033\251\262\277\333\312\244\362\260?\242\277N\277\265\030\360\013\231?\335`\3246\253\375\241?\031\021:\r\241\364\255\277\375\022\224]\226.\305\277U\020\215\237\264\013\307\277l\362\214\034\234\322\232?#\332\251\020\277=\274\277\247\355\307\025W\313\244?e?\001w\266@\255\277\353R!\350\344\356\256\277\340Z#~\243\007\305?\236\017\343\3170\265\275\277\357\277\226\333[d\232\277\201\004\002\304\247\205\272\277\201\341\257\313#wZ?\3450\021\345B\335\246?\337#\264\226uP\240?\353U\244\246&\310\307?\277-\345!i\035\277?X\277\2734\212b\260?p\370\317#o\375\177\277A\233\313\353\362/\276\277\014MO\274\322\372\231\277|LqV\0200\300\277 z\320\267\215\007\236?\275\010\353\207\254\"\215?\254^6,gN\224?\274\016mu\340p\250?!\373\366\343`\241\242\277\217=Cp\274!\237?3\nQ{\210\366\250\277\210L\017\341\374\326\260?\240\331\273\343\014\013\235?\177\273zFo\026\260?4\304H\300\223?\304?hR\n\375\374X\263\277&D[,Q\022s\277\332Z>A\2251\267?\010B\236(\330\336E\277\235\373\267 M}\246\277\016\201\3726\'\340\261\277\240ne[\003\245\245\277%\003\211O\txu\277\223H\335\004\216^\302\277[\347\2536O\331\264?\302\265L\224\340\246\223\277\026h\017{\211\\\234\277\253\310\335\017W\000\271?,$G\016\211[\227\277\036&eq7\235\241?\261@\232\210\2364~?\\\216\203_\000\370\226\277\027/%J\261C\265?\254\023\267\346\307\276\245\277*\014WX\016\r\243?!\262\253\326\363\234\263\277\020\314\036\031\324\242\260\277\267\341\255C\023\036\277?\025\362\241k\215\034\221\277t\032\367\030F;\237?\315\277\346?\017\177\251\2776z\313\243\033\016\300\277\361\210)\375\371\371\240\277\223\226\234f\211%\245?q\317\321\354\362|\267\277\030n,\375\357\240\233\277\311\313\347M\245\'y?\243@\254\332y*\252\277\367<\024\026\323\341\220\277\217\233\327U;\345c\277Z\004\345\216\242\036\264?\300\223\340\351\005\252\263\277=v\0142\027\360\221?7\343#\001\345=\257\277\215\332\024N\363Z\231\277\034\363\202\312\272\266\302\277\211\256\267\361\\\005\257\277\301K\251\266@Y\242?\217\362oR\374\251\272?d\370\t\306/\236\254\277@0:s\201\353\264?\271\327e\347\002\243\260?\330tmV\034u\251\277\244\366:\226\326#\302\277\3107FU\330\304\217\277\364)\231\371\216|\252\277\315\177[\306\2521\216?X8\3702\261\324C?&\345B\270)A\202\277\320/\'\255\205\270\242\277\010\247\246N\257\243\254\277\232\240\t\207\235L\222?\212ne\021\024l\274?\n\230M\301\330\323\252?q\326W\0173r\262?\373\354\036\233\254\035\260?\250\327\007\344O1{\277S\306|\273\251\"u\277\2321.8=\227\266\277\007f\016i 0^\277\341\266\316\034dU\260?\275>DT\301S\240\277\325T\014\266\306\367\247\277Y>\243\233$\207\272\277\006\320-\366\344\320\272\277\261\310\224\234KB\250?)\346Xc\242?\231\277\020l\217!\372)\235?\001\2456m\364\342\207\277\340\306\352\247\032\206\257\277\223N\310,V[\276?\342\370\244}\036\205x\277\335\020\212\331\311n\263\277hJ\002\236&\254\301?\037w\243\241`r\277?U\244Ar\266\262\223?f\344k\263N\235\225\277\315\261\036\332\336\237\263?\263\265\321\300L5\263?\213\262n\260$\316\213?\350\225\204\024\016\375\245\277\341J@\251\316-p?T\267\303B\007\206\250\277\222\351#[\203\363\226\277\326t\274\n\237\256\250?\367i\327\235\362\314\263?\376\250a\345\301\363\177\277z\361\341Qp\336\316\277\001\226}i2,\246?\036bWF\341\005\264\277\001\007\266fz\234p\277\037yW\257\332\345\302\277\232u;\372\006\304o?\241\016\335\024\002\377\260\277\\\232*\261V\331\275?\203T\332\0027\244\240\2777\030\212\377\224\262\265?\242\030\001\010\014\005\231?\312\014\242\200\361n\260\277l\342\277c\260\t\225?\365^\262F\037\330\231?\n\271\365a\022O\242\277\013\315\024\322\200\363\252\277\321?o\265;4h?BC\254\221r\237\267\277\266=n\234 7\271\277\030\2547c\342\265\266\277s\244\031T\242\366\247?\023@}\362\rE\273\277}\362\030,\340tk?\342\253zz\257[\270?\363\232$\204\374-\254?\202WZD\213\016\230?\270\030I7\005/\252\277\320\247=M\336\223\240?\031\177}\031\203\333\275?\034\273\323\265\263\263\302\277a$\014\323\301\275\241?\330\247\212\300\212\246\274?\255\224\201\201\\F\217?\300R@\220`\003\250\277_\360\303\316\343c\234?\344-\315\004\320S\301?\205\037\243\343(\034\300?\326\001n\rwQ\243\277\312\356\301\203<\013f?\3621\364U\014\207\206\277\013\260\356{\271\360\250?2\320\346\005\354\325s\277\251\236x\2157Mx\277\372_y\364\344\373\205\277\253\251\267\273\310U\306?P&\332t\260\216\303\277\355\324\3042\361\330\231\277\256\301\242\230qj\213?\350\232\366\377\221[\241\277\325\362<\013\016&\243\277\034U{\226\267\263\300?Q\0143\317?\374\267?s\021\356pl\237\265\277b_1\222\331\223\300?\377\027~\270\007\357\254?\334\320\312\331\376\364\204?L\313\237\324b\026\237\277tm\021\000\250\366\252?v\"$\303\220\323\247?q\325\222\023\235\000\251?c\023F\021/\006\252?i\372?\035\025D\223\277\032|\"\355\334\314\260\277\226\351\244\205\023\007\272\277w63\213\342X\223?\336\214G\325\026\351\264\277\202\272\316\202\251\017\240\277\261\371#\035\304\244\266\277dY\366\331+x\235\277\0259\374\324\355cf\277\360\317rk\226\244\271?^1\313\276\0346\274\277\033Q\003iA&\244\277+\276^\224z\370\247\277\257\265:\256&x\250\277_l\222\212\356\336}\277\247\273\026\266\032\003\275?n\\\331?\333U\236\277\373&\215\257\013\232\234?\360l]`\204\021\243?\2715\0034\026\376\223\277\230\242\007\005P\247\211\277\255 \345\264\235\363\250?R\365m\304\244!\226?\'\323P\3179\333\254\277I\356\356&H\345\220\277>\346\213\332\271{\255?\316\375\265\336\357:\226\277^& \373\316\301\244?\320\022\220K\354\276\316\277\210\260\177d2(\251\277{9V\331\264G\251?gx\273:rW\223\277\271K\320+\315Q\224?\306\351\312t\207\355\252?e\335\222\010\373\255\261?\032bx-1!\210?_trj&\372\241\277\177\030g\207\223\233\272?s\265\247\322r4\273?\213\027\355\210K\225\222?&\322\213O\344\375\274?\005\247\253\360H\006\242?Q\262\264\220\275\343\235?\177,\006&\177\256\263?\262\334E\202\312r\244\277\355 \210\307\332\257\247?\334\230\213\325\355\350\212\277\356\026\201\330Q\305\260?\023#\255\340\211\333\242?_$\253\262\206C\226?Z\226\317\303\277i\313\277\000\330\032-\234Y\216\277\217\003\004\260\311\\\221?b\233!\326kB\217\277)\310\325\303\306l\241?F\010\326\232\341\212H?\310\325*\021\257\312\265\277\210S*\262\325!\270?\030\214`V\010e\233?O\341\303^\021\206\226?\n\343m\325hx\265\277q\034\333 \353\357\216\277\277\346\277U\270A\263\277\234NY\265{\305\307\277CB&O\302o\267?\331\253\376m\260\\v?\263\367\301\317\276\031\304\277ae>\213R_j?!\234b\325\325/\241\277c\236\335\013\327Q\263\277\021\246\372\242\r@\204?\372D\205\370[\371\272\277!\2067[\257\260\202\277\037Ad\016\361P\224\277\276\314\"8\tq\275?O;\373H4?\201\277b\016\213\031\233\226\241\277\325\347V\357U\025m?\344\260\322\277\260\347\273\277\207\322\3741T^\204\2776N\224A\340!\265\277\007\236\223\232\030F\265?R7\372\262\3533\235\277o\234\206\236n\345u\277ottMx\307\266\277a\272\2249\330~\300\277w\230Am\323B\265\277\222\275\201\222\257\261\223?\335\n\217\tCT\205\277\001\301+>\025\302\272?;\251\236\331\204L\214\277}\006e\350\304j\252\277\357\204\356s\337_\252\277\001ai\310\020-\263?\216\256Nem)\230\277\343\014g\371i\337\265?\210@G\014\265>\240?\021\257\017#\222;v?>\316v\302\342\235\310?n5\n\335\2524\262?ug\003\371\202I\224\277\236aj\213M\225\272?\'\300\021z-\365\240?\340\366\006\016L\033\262\277\276N/*6\237\222\277+\374n\031\026\030\201\277\332\211\342\255\240\330\273\277\022\353\264\373\367\024\230?\255>\202\343<a\254?\037\316aw\215B\210\277\313\341+\335q\375\257?\226\374\307Om\350\251?\313\241\213\332c7\227?\304\035em\341\210\272\277\271\223h\215P\325\301\277\002\334\255\0306\274\250\277\226\035\326\334[\242\262?\002\302\344\245T\020\273?\330\301\017\222\212\026\225?+\266\031\266r\377\266?\361\250\234\203\317\375\220\277\177\251xi\243\\\223?\001Q\364q\350h\240?\342\344p0\364\370\245\277`Q(CT\333\265?3`\201\000\214!\250\277^\254\257\367\017r\237\277\020\035\t/\0207\241\277\027\336\020i\262\020\232\277R\326\304\022[)\251?\334\364U\202\204\335\266\277\375\367U\023\300\305\262\277v\252<TG\305\301\277\20626N\373=\262?^\201\372\242\210i\211\277\216\032B:[\323\213?\000\313K\002\206\275\254?\234-\267w\033@\253?7\262\030`\376\342\241?uT\334\313\320\377\302?\032\345\023\035\351\340\224\277o\3339\203\024\322\260\277\034ET\311\362\r\221\277|\002\336k\231Zo?\311\r\234\366\350l\261\277J\325\325\2470\220\220\277\354\'\334\301u\261\241\277J)\333Y\366\217\244\277\007|]\320\303\016\210\277\376\261\317|\001\205\247?\246\230\261\0346\241\253?p\302BG\357\346\307?;\350o~\010\t\225\277=\217H\003\260\265\226?\353\335e5\255\216\241?\221\262\374\010y\305\220\277s\315%\340\037\177\241?x@*\032a\216\244?\314\365\324\212l>\247\277\200.v\035\037_\241\277\265\346\227$\303\'\241\277{\273\231h\377\241\250\277%\225\006\024nT\302?\310\027\'_%p\243?m!\210?\034\306\201?ux\352\006\237x\256?S\234\253\003\242\260r?uB\037\177\031\253\307\277[9\264Y\360\365\241\277\227\224\205>\222/\263?\247\261\027\036\023\374\244?\257Q\332\247n[\225\277w\224\325V\024Nu\277\n.\023\204y_r?\366\364\247[\354/\255?L+\257\003\216p\203\277\324\177\021@q\372\266?\261\020\035\211\344M\253?\370xW\355\177\350\232\277\217E;\3241\224\216?\001o\257\311zk\217\277;Iq0mQ\253\277Gx\366C\035\237\230?\204\235pP.\251\305\277\245\226VXC\365\260\277BN\024\355A\017o?\214n\334Lu>\272?\334)\253s\347I\211?4\251\326\352\315\265\261\277e\374\214,\361\032\304?\344\264\'_\227I\225?4\305k\325V\243\255\277oTL&\202w\254\277\202\267\370Ud\030F\277\'#m\260lz\306\277\364\227\270\003\350n\224\277+\031\361\333{\350\265\277\224j\245\247\232.\200?\032\213l`\367\205\274\277x\311\313\271c\314\255\277\0147\267D\271\002\220\277\241\037g\326\030\207\246?h\230\007\020\343\215\271\277gg\027fvA\265?\331OX@\247\026\227\277\254\364e\034\007\371\223\277G\262\255&\305+\250?8\225\313\242\314F\257\277\325\350t9\020f`\277\313\245\352\335uZ\265\277\332Q~\241yW\207?9\271\367\031\246\235\204?\255/\200G\277\246Y?\274.\005G\363(\277\277\213\214\032\234\272>\262\277\311-l\205\026\222\227\277\224H}\215\321\306\253?\002\034\323\347\317A\304\277\027.\t~R\024\262?\005\004?\220\021\215\263\277\301E\302W\257\234\246\2770\363Q\222\225\375\237?>\037\361h\275\267\216?qn\032LK\337\234?\207\375N\340\262\257\272\277\354\t\242\024\332\375\244?\262tk\321]\213\277?r\351l\315-\337\224?/$\350\355\241\212`?\350\224\334@\rt\252?\264o\345\301\374\224\221\277\366\030\234# \256t?\200\222JR\325\212\261\277\263\373\364\222\231V\237\277ySY\200>f\251\277\205\021\300Z\371\t\202?\013\202R\215\346\003`\277)\3247\020\221Z\240\277\367\371\307\n\022\246\254\277\307E\307r!\352\233\277\204\206^\343M\246\245\277\240\217\345\375N\355\261\277\357\205u\334#H\262?\366\235\367\177\360E\265?k\303^\254\213\251\262?g.\377G\005(\232\277l@i\226;\316\245\277L\256\326\001z\355y?\025AQ\270\010b\236\277z\360\350\314\031\235\245?\217\2462 \271\321\263\277\365\305b\016/\250\234?\336\233\t\005\304\357\275\277[>\306\271\031\032a\277Q\205`\"\022#\243?\335lgc8\264\247?\034b\370uq\375\335\276*\243y\327\302\321\270?^K\223$UX\222\277N\330\372\255\227^\237?\262g\t\033y\247\244?=W}\325x]\270\277\270\341\317\201^\'\271?\315\361\374 C\215\271?\n\264\370\224\\q\243?h\2459\352\022w\236?\027\225\177\256\215$\207\277\207\321&\203\001H\220\277\201*9\346\"\226\264?\234\335\353\024\257r\261?:\340\2658`\363\241\277kY\230\230b]\242\277{\027)/r\024\222\277\023\213\303XW\217\272?\245\335b\037p\037\307?\"\270\032\2453\373\263?\324\241\272\241\3221\234?8\341u#2\205~?fI\320/\221\274\270\277\377\002-\277\210\320\243?J\t\367\215\tU\241\277.\023p\311|\277\277\277*\246\340L\227\351\177\277tR`\320\360\003\253?\320\025\345\314\005\352\225\277\373RJ\333\022:\305?\233\223\232\227\021\027\244?\325\303&\363y\274\263?\027:o\203\206\376{?\264\234Y\331\305\322\231\277_n;\205W\266\251\277X\377 \003\005j\241\277\0262\305\004c\214\253\277\224\307C\007\206\210\221?oY\355R\3168|\277\347\255D7\345\354\233?=\010\024#\264\241\265\277\372\305\223\210\226\215\242?\236x\233\365k\243\230?\221\317\320g>\312\212\277T\033\0260#\212\237?\313\323\304\270\2330\231?\216\030\327\362\252\257\226?\262\024\010\362\216\325\252?\2742\376|w4\270?\037\355\253iu\272\340?\001\203F\215zS\230\277\273\222q\305\216\241\273\277c\205\321\276\'\377\245\277\322\221\211\037\271\263\241\277\255z\373\312\035\027\261?\303\204U\304\211\200\247?\014\315\240\204\027\254\250\277\023j\346\220\023\016\226?\336\236FP?F\250\277\021\321\214s\300\r\224\277N\244\273\252\370`\243?\rU\030\336\035\242\266\277.\251@+9K\226\277&UK\t\017\325\301\277#i\206\014\266\245V\277\330s\333S,\321\301?\230&\'\315\360\267\270\277\340!~\247\202\351v?rR\354\263:\302\224?Z\241)\023\366S\252?\202\3754\022\200\333\244\277T\231\227\236\265\213\245?\326\273+\302d1\256?\353K\21459\242\251\277\271\313w%\345\247\241\277e&1\023\2652\251\277K\363+T\2612o\277\241\306\036|(\270\222\277\027\241\230\010\315\233\247\277\327z\211\023\211\030\243\277B\r\303\241\276\013\214\277~\232\224\314aA\240?\371\343\344\331\204zr?R\231\246A\010\224\247\277h\271\025rn\376\220\277BY\260\322\016\373\232\277m\301\247S?\033\230?v&!\242=\'\251?\005q\346\207d\217\255\277\006\321(\362\330m\242?\2611\247\374\260_\262?R\006\213J\333\377\275\277Ba\360\313\234\302\272\277\366\270\251\030\212\330\254?\201\223z\317\002\276\242\277\'\342\246\r\366g\261\2774\023 6U\211\251?2\365\201O\214:\203?\274|B\363\213\222\266?\376\351>Z\035 \253?\332\376\332\344\331@\255\277\334.\344\271\035\364\265\277\323CA\274[\237\251\277\302\205\006y\274\301\307?\236\201L\203\347.N?\340\231\365\245\024zv\277\364\337\211\351\341@\213\277\241\257\002?\255\301\266\277\237\221s\007\340;\260?I\337\3173/\313\267?\373\210\r/\365\356\227?\256\215\332\252\023\010\250\277\246n\004\302\215\261\254\277\r\000\035n\001_\242\277\233\312\367\250\311\003\300?\232\220=4\231,\206\277?z\311/\302\272\266\277\355J\235)\036\323\202\277\327\250&\315\220\313X\277\245\325<|\022d\234\277\313\333\341\277\303|\300\277\315\037\301g\266\236|\277\006\016\375\232\235v\235\277\263\334\205\204\210\327\265?\\M \001r&\240\277.\315\327\311J\353\247\277\213\237\245\365\313\336\242\277r\033h\231\n\307\244?\376\200~\037h\226\243?+\347\035g\367S\267\277\342i\365bi\350\266\277\367P\347>W\256\234?f\222\376\231\033\\\243\277\243\324\215a\271\211\255?\347\303\016J\267&\207\277\035\316\263\027E\022s?\3264=C\366\214\254?\024\323\204b\267\310\256\277\250cz\027\342Z\275\2775cp\r\200\302\277?H\201a\355\3717\303?O4\272V\035\232\237?^%\005\2103!\223?\200\\h\277$\016\266\277\002-k\307q\300\256\277\t\007e\361\311\243\256?f\016\343\226\"\245\233\277b#6\276)\217\241?\021\273\262Nru\241\277\244\023\021\340\215^\304\277\231\002\213\250\020Ac\277\020\227Q\301=\331\255\277/\326\016\"\253>\244?^v\234V\013\200\253?!\370\201\234_X\237?o\034*\n\007\326\226\277\362\"\217\026\243\313\261?\326\036\\\311Y\337\261\277\224u\013\317oa\231?\306\001\242}g\227\301\277\352\232\211\364\304\321\302?\216\265\320,\034\013\235?\347#\326\253]\023\301\277\241j\254E\264\335\267\277~\374\n-f\357a?\2615)\225~\222\220?C\014\307\261\262\227}?a\020\232\036\310\212\207?\243\225\305\333\245;\257\277\264KxS\377\365\223\277S\0256\006G%\311?\2162\n\316\020\202\226\277W\260\223\2159I\236?J\225\371b3}\245\277_F2\367h`\261?,\023\375_\022}\201\277\305\240:\024S\265\266\277\306:I\225-B\243?\302rv\022d\322\301?v\336\005_\254e\211?\003\3368\007N%\242?\316\333\367A\335\030\220\277\350(\271D\301\252\177\277\355\352M\272\213\256\257\277\003-\261\323\202P\251?\253\327\364j>\203\273\277r\230dA\"\261\221\277\031\177\253\363\247\237\302?P\341\322\270\323y\260?\232%\260\023\257g\307?\372fC\024\332\306\270?f\232Go\017y\270?"
      }
    }
  }
}
node {
  name: "normalize_element/component_5"
  op: "Const"
  device: "/device:CPU:0"
  attr {
    key: "_output_shapes"
    value {
      list {
        shape {
          dim {
            size: 749
          }
        }
      }
    }
  }
  attr {
    key: "dtype"
    value {
      type: DT_DOUBLE
    }
  }
  attr {
    key: "value"
    value {
      tensor {
        dtype: DT_DOUBLE
        tensor_shape {
          dim {
            size: 749
          }
        }
