node {
  name: "global_step/Initializer/zeros"
  op: "Const"
  attr {
    key: "_class"
    value {
      list {
        s: "loc:@global_step"
      }
    }
  }
  attr {
    key: "_output_shapes"
    value {
      list {
        shape {
        }
      }
    }
  }
  attr {
    key: "dtype"
    value {
      type: DT_INT64
    }
  }
  attr {
    key: "value"
    value {
      tensor {
        dtype: DT_INT64
        tensor_shape {
        }
        int64_val: 0
      }
    }
  }
}
node {
  name: "global_step"
  op: "VarHandleOp"
  attr {
    key: "_class"
    value {
      list {
        s: "loc:@global_step"
      }
    }
  }
  attr {
    key: "_output_shapes"
    value {
      list {
        shape {
        }
      }
    }
  }
  attr {
    key: "allowed_devices"
    value {
      list {
      }
    }
  }
  attr {
    key: "container"
    value {
      s: ""
    }
  }
  attr {
    key: "dtype"
    value {
      type: DT_INT64
    }
  }
  attr {
    key: "shape"
    value {
      shape {
      }
    }
  }
  attr {
    key: "shared_name"
    value {
      s: "global_step"
    }
  }
}
node {
  name: "global_step/IsInitialized/VarIsInitializedOp"
  op: "VarIsInitializedOp"
  input: "global_step"
  attr {
    key: "_output_shapes"
    value {
      list {
        shape {
        }
      }
    }
  }
}
node {
  name: "global_step/Assign"
  op: "AssignVariableOp"
  input: "global_step"
  input: "global_step/Initializer/zeros"
  attr {
    key: "dtype"
    value {
      type: DT_INT64
    }
  }
}
node {
  name: "global_step/Read/ReadVariableOp"
  op: "ReadVariableOp"
  input: "global_step"
  attr {
    key: "_output_shapes"
    value {
      list {
        shape {
        }
      }
    }
  }
  attr {
    key: "dtype"
    value {
      type: DT_INT64
    }
  }
}
node {
  name: "global_step/VarIsInitializedOp"
  op: "VarIsInitializedOp"
  input: "global_step"
  attr {
    key: "_output_shapes"
    value {
      list {
        shape {
        }
      }
    }
  }
}
node {
  name: "global_step/cond"
  op: "If"
  input: "global_step/VarIsInitializedOp"
  input: "global_step"
  input: "global_step/Initializer/zeros"
  attr {
    key: "Tcond"
    value {
      type: DT_BOOL
    }
  }
  attr {
    key: "Tin"
    value {
      list {
        type: DT_RESOURCE
        type: DT_INT64
      }
    }
  }
  attr {
    key: "Tout"
    value {
      list {
        type: DT_INT64
      }
    }
  }
  attr {
    key: "_lower_using_switch_merge"
    value {
      b: true
    }
  }
  attr {
    key: "_output_shapes"
    value {
      list {
        shape {
        }
      }
    }
  }
  attr {
    key: "_read_only_resource_inputs"
    value {
      list {
        i: 1
      }
    }
  }
  attr {
    key: "else_branch"
    value {
      func {
        name: "global_step_cond_false_4275"
      }
    }
  }
  attr {
    key: "output_shapes"
    value {
      list {
        shape {
        }
      }
    }
  }
  attr {
    key: "then_branch"
    value {
      func {
        name: "global_step_cond_true_4274"
      }
    }
  }
}
node {
  name: "global_step/cond/Identity"
  op: "Identity"
  input: "global_step/cond"
  attr {
    key: "T"
    value {
      type: DT_INT64
    }
  }
  attr {
    key: "_output_shapes"
    value {
      list {
        shape {
        }
      }
    }
  }
}
node {
  name: "global_step/add/y"
  op: "Const"
  attr {
    key: "_output_shapes"
    value {
      list {
        shape {
        }
      }
    }
  }
  attr {
    key: "dtype"
    value {
      type: DT_INT64
    }
  }
  attr {
    key: "value"
    value {
      tensor {
        dtype: DT_INT64
        tensor_shape {
        }
        int64_val: 0
      }
    }
  }
}
node {
  name: "global_step/add"
  op: "AddV2"
  input: "global_step/cond/Identity"
  input: "global_step/add/y"
  attr {
    key: "T"
    value {
      type: DT_INT64
    }
  }
  attr {
    key: "_output_shapes"
    value {
      list {
        shape {
        }
      }
    }
  }
}
node {
  name: "normalize_element/component_0"
  op: "Const"
  device: "/device:CPU:0"
  attr {
    key: "_output_shapes"
    value {
      list {
        shape {
          dim {
            size: 749
          }
        }
      }
    }
  }
  attr {
    key: "dtype"
    value {
      type: DT_DOUBLE
    }
  }
  attr {
    key: "value"
    value {
      tensor {
        dtype: DT_DOUBLE
        tensor_shape {
          dim {
            size: 749
          }
        }
        tensor_content: "T\206\026~\025\305\321?60E\373P\020\330?pB!\002\016\341\331\277\025\215\030\352n\246\305?\022\023\324\360-\254\320\277\204\200|\t\025\234\322?N\303\"Lr<\274\277{\207n\0053\367\223\277i\006\310\002\354\304\305\277\275\266\351\225\323\032\310\277:1\230}&\324\322?\362\210\300G\263\350\313?\\\337n\346\343\034\303??\244\204\005\234J\331\277\017\214\315\330\341y\326?\323Z\342\022\221\253\301\277\372IR%\014\373\317?p\337\3258\274\034\311?\367\370\214]\005\345\321?\222\035\305\200\277t\262\277\215\365&\351\016\240\305\277 Q\262\346\021m\322?\233\t~\002\305\333\336?\017\335&\273\035\212\302?\207\337\013\233\032K\331?\225\025\375\200\213\276\321?\367.\224\002\301\322\336?KZ\216\343\311\346\331?\274\360\377\272\005X\326?\037\227\202\177[\001\320?~\376\336\032\226\016\243\277U\366~\037\345\222\313?h\237}\233\264\337\327?\363\350\004<\202~\313?9\304\252\007\355Q\304?72\0235fL\274\277\271\201\310C[%\332?\353vr]c]\277?\353m\226?\235\372\327?\247\277,\'\200\346\301\277\332G]!b\371\327?\010_\322\367\236:\302\277\344\'z\205\252=\305?\230\350\342%\356\347\346?nX\256\022\207\307\306\277\007\346\2158\tJ\340?L\014\023W\337\n\321?v>\362\275u4\277\277\026a\324\377\203\231\333?<\210:\377\270u\332?@Sm?2\300\333?\355\206\naw\362\343?\361\026\202\373\205G\322\277\275!\246\247<\370\307\277W\241\324\240`m\320\277\241wS_\320!\273?\200\003\305U\206\355\302\277\220+\273\201~6\320?B\325\"\201\212\323\310\277\346M4\3763\271\322?\217\301\350\304\256\205\222\277\256m\243d\346@\320?\317D\340a=\"\342?f\215r\027\376\337\314?\273Z\264!{\024\262\277\006\334-\250\363\321\311?\244N\304K\005O\262?\006\224\227F\335\030\266\277\255\200)\240\334x\327?G\333\204\275\201\260\321\277\t\330\263\214yB\321?<?\326\2358J\314?\310\345h#\021y\325?l\205<\3047\373\303?\377\361\271n\2452\272\277 \215T)\207 \355?=\322\277\250\315M\317\277\344\223>B\007<\333?\212\324\3566\363\324\250?\343)\026\205~\"\260\277\316\014\013\203l\270\337?A\221\027gF\236\300?\225)\244\004\026c\334?\032\205\207\3355p\306\277\tl\020\336\005\247\320?]\"rU41\301?G>m\\\030L\305?\002\357\252(\332,\316\277\370U\230B\020\265\314?\332\200\276\343\312\217\331?\351\357\010\033\\\302\306\277\345\302y\037\344H\311?\262\006\367\034\273\270\322\277\307\026.\035\006\002\221\277F\236\240$\217\355\325\2776\222\302\3048\342\307?\300z\232\233\210a\300?1\005\020\343\332u\321\277RV\035\203_t\320?E\375h\027W\205\311?\375\260\224\033\373H\310\277[\372\002@6E\302\277:\243\367\327<\330\305?\274\356\010\002\277!\325?`>Y1\\\235\322?Tg \\\"\223\330?\274\"\370\337Jv\314?a\2633\267\010-\302\277@\3174\233\246S\326\277\314\275\372W\332R\307?\265n\305\366A3\300\277\n\300\334z\217\253\311?\002\'\035\335\357m\327?\215\003T\335\310\341\310?O\343b5+\025\317?\010\221\312\034\344\230\331?\223\204\325<m\253\250?\316\351\204`\355\331\244\277\360\027q\t\331\\\305\277-t\014e4\264\307?\242\374\356g\302\300\321\277\014\031\302C\256Z\205?\000*\250\352\026h\312?7\010\347\021\253X\266\277\3572G\177\375J\316?\352\036\372j\036\362\264?J\037\241\003\036\332\314?j\2034\337\230\320\312?\355\306q\226HX\334\277F;\023?k\303\343?\037:\024p\225H\232?Q%V\210?q\306?\3307\203\001|\236\307?_\347\t\370\363u\275\277\232\206v\210^J\303\277\214z\363\341z\020\321?,\271\314\341AP\312?\260\372\351`yg\304\277\374\265\253Fey\321?[e\"|Z\213\313\277\033\002\262\235\020\266\312?\345$9\005\236 \331?\267\343v\375\274\010\316\277\357\263\302\333 \246\323?\032`Q\327\373\t\267\277>y7\232L\252\311?\216\025F\304\336U\337?A\222@ #\342\310\277\316\212M\320\313M\333?d\013{\271\323F\306\2777\016\253.\226\330\302?\265\353\224\375\251\347\320?\221\325\316\254|\001\237?\244{)~\204\010\321?_\007\311`\227q\276\277Q\213^\231\371\006\313\2775g\330\203\244\252\300?\035\341z5\2740\271?n]\377\350z&\313\277\234\377)\345M/\223?\005\224\237\267%0\265?\226\327\000[\024\254\315?\254b;)\335\247\311?@\277\255\303\3522\332?\232\007\260\310\257\037\312?%\221\340\272 \252\314\277\226\033\373H\000m\353?14\215\334\211H\305\277S\004\274\365/\203\312?\014w\204\214\255\213\216??\301j\321\247z\321?u\232?\205\247\000\306\277p\035\210\321\030R\311\277\317\370\235\252k\202\254?\241\222uc:\247\217?=\344w\344Y\223\324?>\231\332\255\300\353\275?\360\017\000\301\301c\350?4\335\004B_8\320\277Z\020\210\337fT\306?\031\225q\337\254\271\276\277\026\313\004.U\212\262?\232!v\"\230U\322?3_\261\310\247\256\263\277\217\327\315\326\013\317\307\277~\2455\376+\310\325?\222%\316\345a\374\324?\241N\263\037\255\332\320\277\212\260\341\351\2252\316?\201\303v\275US\275\277?\334\233\000?\272\302\277\265\304\251Z\373P\321?3<0_\3428\261\277\305\000\25249\347\276\277\301Q\270?\223T\312?\365\327\n\036\317|\303?\330\205\233c\253\221\230?C\304Q\342\010\014\306\277`\371\271\3027$\265\277\373\312\310\177VWd\277\266\227]\305\034\343\305?\213\365\323\240\344E\345?\026\356\350\301\325(\321?u\362\267w\354k\311\277s\002\005\244\036\036\305\277\241!\322%\322l\325?\223\376\3014\312\002\267\277\323\3121\027\300\255\263?\007t\226\301g\327\230\277\220DF?\316\277\247\277\373\021T\307\t\227\306\277\256\232)\245N]\311?\272|\024C\254\335\307?\371%\352\036<\307\337?\357\017\245\007O\362\340?<;\021\253\334\227\270?tZ}\226c\211\262?\351J\343\233\226m\311?\217\254\272\026F\335\251\277\327>.\273q\034\330?\177\353\0364\026\250\272?\333\0059\336\323\213\314\277#Cu\020\307\374\271\277\217\016z\374\3774\305?b\314\247\330\342d\314\277\022\025h\177\271\271\320?\331\366\013\260n@\263\277\3153a\301\036\217\312?\310<\227N\220\375\327?\264\221\312\230\253\264\306\277\262\t\366\200\365\017\315?D\205\013\365\313\222\272\277\245\250\216\260\003\202\341?.\214x\333\032\313\301?\267\245\006\2012\031\320?\r\023\323\246f\346\232\277[(\231\234\332Y\320?\330\331\220\177f\020\325\277\235\302c\242\265 \324\277\377\003\017\200v\217\314\277%\010\323\007\375\022\312?Zr\211\341\362\361\302\277HxWJ\212 \212?\352U\307\236\373z\342?c\001\002\214\035\303\323?\320\205\252\373t\372\320?||c\204\307\351\333?\347\246\005\343k\305\242?\210E\261\201\031\370\330?\226\007\206\377\266\237\321?\241\254\316 \364\"\314\277D\332J\330L\370\303\277\363\261y$w;\311\277h|\272\025\035\244\303\277\264[\313d8\236\327?T\270\324\367\320\364\254?\243\261\264[\344\001\275?\340\314T-\216o\320\277\313\022\235e\026!\311?\365(\"\3448\307\260?0n\376\272.W\340?N&M\007\333\035\312? ^\370=\3010\304?\206x\177\027\021 \321?\010E\270\236(\326\237?\327&_\032\320\034\323?\307\t\372\250\022\247\274\277\3233\234\266o\203\303?\247\363\270\332PR\303\277\241KY\002\0002\320?S\r5\351:}\244?\216\346\351\330\030&\300?\353\354\\\377K\245\324?O\362<\033f\246\321\277C\225\033\276\345\347s\277\351K\210\034\317%\317?\014\215i\236\n\325\343?H\340w\"t\017\236?%\026\347^\026I\334?KN7\232m8\312?\377p\374\365\257\321\302\277\035@\277\357\337\274\323\277\376\211>\335Hr\321?\'\367\371\3672\264\306?\344\320\021\257\241\212\312?a\261\237(}\337\267?\361\t<\244\326\003\320\277\033\360;~Vv\325?\216\301\324\340\307\242\336?\202T\253+vf\261\277\016|V\343\266G\320?\264\300h\240Cj\331\277y\016~E+5\304?\t\301\252z\371\335\331?\177F\211`\223j\276\277\2471\214\201\226*\322?\r6\267:\347\304\305\277T\"\303\t\320\337\310\277\277\343%I!\332\261?\320EC\306\243\224\340?f\321\246\260sO\271\277\242\035\036_\316.\305\277\216\262\372\372\214Q\332\277>T\277w@\376\322?cD\201\302\311K\326?\317i7v`k\200?!\223\214\234\205=\314?WV\327\367\232K\221?\315:\004\n\314u\317?]\252-\320IJ\325?\3575F\3437\242\300\277)Lk\025\365\260\303\277a4L\351p_\314\2777Yz\237p\027\307\277\212\3531\364\374\'\274\277\221b\200D\023\250\304?1\351s\336\224\214\342?^\232d\334\273#\322\277K>\227%\021\314\302?\333T\366\300;7\305?\372\205p/\335\342\266?i\210\021_y\322\310\277\355\262l\241\274s\253?\311hp\235w\n\320?\030\276\021\037\320\200\256\277\360\206\023\034\207\017\306\277\272D\232\035N\205\323?\217\316\257\234s\246\304\277\204\313t\371 \225\303?-s_s\263d\331?`\234\021\010\350|\307?0dT\235\376\201\264\277\252\255\001\337\247\t\332?\351\037\n\207Z*\310?\027S\237\232\201\000\340?T\031k$\256\210\317?\267\233\340\233\246O\303?\364\203_\217.[\330?\215\032\0026\3264\323?\310Q\312\265\262\016\301?\202\222]\304\322[\321?5\304%\205\201@\335?Y\276.\303\177:\333?\026\372\036\375H4\335?b\321\235\365c\362\305\277.l0\201\031[\301\277\204\304\013\\\375\\\302\277C\244K\244\331\341\326\277pY\t\006\245\"\305\277\321\205G\321\271\221\326?6\017q\275\2673\303\277\356H\314\036.\332\322?\347:\t|\260\322\302?-\031\341\234\372\010\230\277\247\312Z\267\377\320\305\277)\363\352w\274\244\333?\013\345\216H%\006\317?\002eS\256\360.\320\277gC\243\340\316\252\301?\342\022\221\253\242\211\303?L\241\230aH3\350?\362(Ib?G\244?\2736\n\377\330Z\307?{i\340\000``\265\277w\350G\005FE\303?Xe2^\3539\275\277\361\212\371\034\314\344\312\277\367\022t\305\326\375\326?\277<\215I\271\332\254\277F\247\031\030\232\347\307\277\363Ox\"\353\235\306?tM\365\"\342\177\326?\177\017\003\002B\320\321?\227\n\"96\216\316\277\310F\336A\005j\314\277m\223\'\234\037w\263\277\274\324!\232\355\310\305?W:\304\344\262\366\315?\367\020\001E4\323\331?0\021o\235\177\273\322?\315\325E\300\327\006\326?M\270\333\036R\306\306?\314\363;\250\037/\324?L\241\332}\0329\277\277.>`y\353\327\315\277\347\320\267?\366~\273?\365\245\320\334\267\030\316?Drl\0345\317\321?\313\002y\270\025\251\304?\373(\033\275\267\365\303\2777\312U\2077\306\303\277\261\335=@\367%\334?\230\3756\233\371\033\331?Mq\260\222\352\026\334?\007\"\315P\303T\272?\364_\224^\243>\320\277\260\342\226\2073\\\262?\365s\371\305[\235\310\277\"\261\366\332\340\302\320?\244\216+\201\326\364\321?\224\357\000\354/\375\274\277%\275\271\t\010\367\304?\177\317z\276\207\307\272?R&\356\336u)\263?\363uz\336D\346f\277\201\266r\202xU\302\277Z\252.\207\255>~?y\205.v5X\303\277sv\276\3416\001\320?\r`\333\354Y!\314?\330n/\'p\204\302\277^\217WZ%\334\300\277\203\220\003\341\320\\\350?\035\322\177A\230|\317?\315\256Z\035)p\300\277x?U\"\334\246\302?\265\330\222\372W{\302\277_\322\265\202\350\001\331?\373\263f\376\255q\274?\352#\215]\344\226\274?\354\214\032\014\250Iv?G\3156\273\336\313\302?\353\367\001\236m\233\244?\333\343,\2740q\240?z\356\024\335@\"\321?\217\223\035v:k\321?\310\364\337\336\220a\321\277\255\210y\332\n\257\300\277\210e\022y\273\363\311?@\270+\211&\257\302?\216\201+\217$\367\341?C\241L@\237\212\350?\302\332\030;\341%\306\277U\333\260\032\t\274\304?$\354\035f\026>\313?9\221h\033\342\314\310\277F^\326\304\002\037\326?\352\256\354\202\301\265\323\277\000\311S\332\013\232\300\2776\364\201\252\3629\316\277\223h\362b\233\263\337?\2265\332?\211.\325?\333\374\006\300T@\247?\265\260~\236\314`\303\277\250\355\025\314N\365\323?\030\000.\361\025\027\254?H\370qCr\203\254\277\2645\205B\302\377\306?\207\355\274\307x\030\300?M{R?\322\324\327?q\323Up.\264\245?\254\337mZ\000\205\301\277\311\004\272\376v|\323?\202#\036\334\337Q\330?g\340x%fI\305\277\374\267N\000\036\201\210\277j\025\232w\336\276\304\277\311@\330\010H$\303?\303\334\266;\340\304\242\277N\243\301T\320@\277?\022\207l ]l\303\2775\323\275N\352K\337\277#\033\357^S\277\253\277\245\017#\245U\004\244\277z\265\263\032\330\313\314?\210\214?8<\020\305\277\276\201\013\252\364\260\265\277>\232\003g\235/\307?\327\350\254\201s\347\327\277gh\227\3126K\325?\262<\376\301vf\343?DVc{\300K\235\277\261\265k\000>Q\325?\022LV\301\177\245\314\277J}\027\276\327\263\327?\320\217\320\340\000D\346?o\335I\033yf\306\277\357^\244\006\211\243\260\2773\177T\334\033\260\327\2778S|\327\373\350\313?;\362\264\272\244\003\312?P\264\376\330\034\316\313\277\"\240FJH^\313?\2225\321\204yQ\311?{\002\325\375kR\320?:U\204\274\232\023\327?\276V|\"\323J\320?1\037\367J\254\316\260\2777\225\373\323\374\347\302?:\013\326\223T\001\314?\305Z\031\340\304\210\325?;\027FzQ\273\305?\336\322\305\001O5\304?S:\375Eu\337\265\277\322\353\344Fp\247\312?\377M\275\250\274\241\315\277\352,\3044\035K\322\277MA\206\247\272\364\303?\207,&\304\311\356\247\277:\251\324\221\310\343\324\277P*\242\245yg\225?\276\3213b\013\346\315\277)\014F\374\365\320\305\277S\016^\242\027\301\311?)?g\332\0273\305\277\200\200\224\\\356\341\301?\222\r\377D\300\374\311?\272\334\375}\010\242\304\277:0N\266`-\313\277uc\356\030&l\305\277\355\356\246\000\275\225\312\2771\341\341\207\2240\325?b.\353\366@\310\311?1\314\004!+\210\241\277\241\030\351\335\t\n\224?&\001\007@\036\362\321?\264R\214\034\267R\324\277I\275#:6H\300\277sl\252\337f\240\255? \214\351S\330\026\345?:J\363\001`@\321?\\l\244\266\036\317\313?\202\201\326\262k\261\331?94]6\327\274\315?\345RK)\236\351\315\277\232!\270>j\033\313?\261t\272\003\247\004\307\277\365\311\037F\347\200\261\277&\2507\\\021 \245?B\363s\"E\r\323?\252\220<!\205|\322?\330\355\365\346\036\257\305\277\337\377\272\337\020\306\252?\024\014\r\342\010\364w?\263\010(\201\213\235\270?\377J\276D\202\312\322?\226i\333\000\321k\246?\246\211N\001\366\362\317?H.\203Z\241\002\315?h~-\226\277\316\304\277\312\322\271h\351\206\271\277\245i\016\030=\032\315?\311\"M\274\003<\320?\r\373\177\315 \333\277?\235TE\002W\303\337?\327\227\327\327\333b\315?w\257\346B\335n\301\277{>w@\341\005\310\277\326\367\310\203\200>\324?\007\373e\346\270\t\305\2772\355\264\230L\323\277\277Cm]b\0236\314?\312\351\004\227;\361\276?\222\350\334\"m9\244?f\373\014\177\270\361\316\277\300\315\301\267\331\355\300?\007\316\031Q\332\033\303\277\267\253\374\327^\260\264\277h\355\021\305?G\321?:Z\325\222\216r\311?Y\312*Si\027\251\277\017\272B\'\235+\311\277|/\031\"\002)\322\277\254\265I\250\215\250\244?\2268\331\243\303\205\335?]\203c;\204\226\320?\027\254\006\233\031\201\306\277f\031=\022\212\010\305\277/\207@\242\307\367\304?\316\240%\270&\027\303?\324\251~\347\017\264\275\277=>\306\201\374\221\315?\303\302 \033\016\354\321?H\322\301<\\\331\310? x!\302d\317\345?\255\021f\177E\243\266\2773\323\007\334\004)\254?\2536\305\004\261\303\317? \035GA*$\310\277\343Ai^\304-\322?\377VW\252\260>\310?+o\201\343\266&\334?\274[\233\276\205\022\244?P\030\265w\035\\\305\277B{\026\000\272:\340?5K\346~\245\370\264?!\255R\366m\363\312?\302\021j\247b\272\310?\t\240\275\237\277u\321?vy\010\035S\373\312?\203\272\355\347\271*\266?\251\322`d\023\352\321\277/A\333\244\201#\320?\217\373\332#iq\326?\375\211\210jcO\305\277a\220\221?Z\024\326?\343B\3243s7\302\277\312\202.\206\027\351\307\277\306\206E\300\365ep\277\277&\316\376\376\234\326?Zl\356C9,\330?r\225zX\240\304\304?\364\355\217\275\377\213\326?(\214\230\237<(\323?\214\263\330\334\207r\310?\266\035K\006\035\000\270?\354l\310?3\210\343?\251\202\027\236\023R\314\277\016\331a\310\301W\310?\224\231\373y\215<\316?\030<\361At\255\271\277i\371\211\034\205\330\326?\205\032\256\243\344\264\301\277R\004\037 \353k\312\277\223\330 Y\341\022\304?\223\376^\n\017\032\301?\205\273i\351\300(\336?^L\022\317\002\202\262?r3\036\235\241U\310?\323\005i\204\206W\320?\"l\333\244`\225\256\277\352\262\024\240\330P\317\277D\351\342\241\265\303\304?\203\234\377p\272\331\261?\361\020\245A\372\273\311\277\347\\\345d=\220\315?:\364\016\236\246\"\337?\254i\317F]T\221\277%\200\264b,\021\321?J\351\253A\036\025\237?@W\021$\245\017\304\277\377/l\007\002\350\262\277\224b\313\033\365J\320?C\320\207\035|\227\313\277 m\261\025\023\237\316\277\203\353\335a\013(\244\2779\266\236!\034\263\307?\013\305\014C\232g\302\277\313\320_\205\347g\315\277\0333\34434\371\312\277:\177\311|\366\222\311\277\363P\200\315\336\276\251?\220\002\3723r\314\330?\305\311\036\035.$\306?\333L*\277\261l\340?\032$\216\206\235s\302\277\3317\336\272\356o\302\277\250\227\316=\332.\324?\230\277\366W\205\211\217?\006\357v\200\321,\231?cT\204a\341\240\332?\253\260\363\030\340\340=\2770\243\026R\227\357\270?[\314\225b\303\252\337?\240\200X\374\307\276\320\277\3655\344\002D\277\326?\211\203\276\323\350\376\275?\000\212\025^\027\270\300\277\265\333\221^\222R\264\277 4qa\223\253\321?\355QM\203\201\353\324?R0\235\265_g\306\277\326\224\236\310\027\335\314\277\374\306Sf\265\006\306\277\257\344\317\\L\330\265\277C8E\313\252\235\270\277\256\333\332\241\345i\307?\321\306\266\261~\330\324?\277\270\361zr\305\326\277\332#q\342\3559\263\277\343eU\2358\355\325?D\324\257:\2232\306?\024\254q6\035\201\340?\241\260\264!9\370\330? Dt\000\253\000\322?\254\020\221\305\366\215\235?W\276\253A?#\232?9d^\242\325\344\346?T\306\340\335\241\023\313\277L\231\212C\354B\320?\303\251\305\226\324\277\331?*\262\272\373:u\251\2777*?\302\223\212\311?\375\344\377\300\342\021\325?\231\300\010u\354{\325?\224\303\345\200vj\312?\375\034\325\237\263;\277?\334e\236\340\213D\264?\263>\212\337\271\234\307?sP\212\242|K\257\277\335\222\342\004\"\233\320\277\340\262T(\034\213\302\277\247\213\332\0369)\307?\247b|\373\347\'\325?\350\353\246R\273x\273?\006\"z\010\231\032\323?L\350&\030k\013\300?\272\317\226\030p;\251\277[`\260\227}\211\300?V\021n2\252\014\301?\006>P\270h\022\324\277\354\352\002\034J\206\320? \026\270\334c`\222?y\314\037W\023Y\301\277\224+a\022\323*\310\277\311fy\3440\224\317\277:t\335\010In\250\277\247!\211\342~\325\310\277\251\031\255\376c|\260?\345`\025\363\234\302\240?\036M7\201\320\027\320\277\311\234\307^x\360\267\277\375\240O`\021\316\341?\3621\270\343\326o\250?F\214\350\350\002(\311?c\302y\202\016\004\334?0\232\370\027\377F\316?m\241u\236\302\233\332\277<\372>\240\\\350\302\277\242\030j^\037\347\265?\262\206I\300\001\220\316?\205\3704\345\022\340\301?\243g\'A\207R\347?h\314E\370\356A\303?O\030\336\366N\026\224\277\307\024\213cM\372\312\277\370\351\221i\341p\307\277?\2451\367\034\232\313?\335\3665yg@\305\2776w\221\225\241\242\305\277\370\025\357\360l\311\264\277i\244\010\0352\255\320?\347\212\224^\202\360\312\277\332\211\232\001\221\262\331\277Q\367\333\200\312V\260\277\027\354\n\246/\276\303?S\330=`\273\207\316?\306}\365\002\375O\332\277\006{\227{\026\276\336?\357\246\252\274\\E\204?\353\333r\303)R\321?z\206\340 p\020\270\277w`\177`.\254\247\277,\234b\335\221T\320\277\227Q\217\341o\203\240?\377\361VD\352\311\316\277\000\321a\370g\n\311?Xx4a=&\340?\371\346\253\242G\245\343?"
      }
    }
  }
}
node {
  name: "normalize_element/component_1"
  op: "Const"
  device: "/device:CPU:0"
  attr {
    key: "_output_shapes"
    value {
      list {
        shape {
          dim {
            size: 749
          }
        }
      }
    }
  }
  attr {
    key: "dtype"
    value {
      type: DT_DOUBLE
    }
  }
  attr {
    key: "value"
    value {
      tensor {
        dtype: DT_DOUBLE
        tensor_shape {
          dim {
            size: 749
          }
        }
        tensor_content: "\\\262C_\356Q\314?\270^.=\365#\316\277\332\240\345/\343\\\312\277\263\257<HO\221\334?\t\016\27315\360\263?\315jh\240\205\306\275\277\225\021\027\200F\351\256?q\325\320a\031v\326?F\357\022\244k\311\326?\202\300\363 wp\323?:j\226\025\324\001\307\277\036a !-\302\317\277\277\331\377c\225P\332\277\232}\375\224S\320\255?B\006v%\2279\311\2776W\356\201-\341\273?\245a\235\317%\301\275?z\254S\304m\335\325\277\254\213\374v\351\221\316?=?\224\201f\204\320?l\013\317K\305\306\305?\314\323\271\242\224P\324\277\361\300[{\372\343\303\277=\251\243\241N\322\332?\364\177X\200\000c\271?}4\350\t\234\314N?\363\216\266\236\337\377\325\277KZ\216\343\311\346\331?\300=\021\274\010p\314\277\206\317\357^bj\334?d\201\n\242I\275\322?h\260\251\363\250\370\322\277\210_V\315\030\013\344?\026\025q:\311V\326\277\361\"\331D\342u\323\277F.Q `k\307?K@\310\211\3410\311?WDM\364\371\250\332?\004f\021\314\311r\266\277\250\215\352t \353\324?g]H,\316\275\307\277\205\374}\020\023\036\276?$\016\227$\350\022\327?^\007Y\236\0305z\277\211\244\362\203\256\325\251?a\302hV\266\017\341?f\243\357E\346W\304\277\2412Y79\327\262\277\370\210\271 2\027\311\277\025$\021uz9\263\277\202u\332\"\202\324\313\277*0K\330\n\334\312\277MV\0349\230\356\317?\001}\215\352\225\256\300?.\337-\242\203\264\236\277\352\244\255\000\225`\333?8\010\337\240b\301\332?@\302\3155\016m\315?\003<\350`\235-\266?L\363\330\340\216\201\312\277|\026\337\253\261_\325?\266\323Z\301\004(\326\277\nH\240f\355\333\302\277;y\252\246\230A\316?r\\:\244 \221\316?9\231\331c\371\245\323\277\025\327\245\004\314\325\335?\335\303\322~s\230\303?]\ry\231\233N\313\277\"P?\240\032\214\321?\213\257M\225\265n\307\277N\317\273\261\240\360\341?WO\234\222b6\311\277\365\3613\242r\233\336?\353\363br\264t\324?\267\010\255\003\367n\235\2770\212\210\334\2707\234\277\326}t\250\256\225\306\277\325#\252C\260\242\333?\005tW]$\000\327?\007\326\253\247\332\027\306\277\036\177\263\336\271\301\340?\244\345\037\001\314J\275\277\035}\352]^\256\275?\377\365~a\001e\313\277\265\302\262\241\264Z\340?\261V\'F\032\205\317?\314;VB\332\363\330?\223`?\376\261\024\324\277\n\321\306\266\261\376\313\277\335\230\340\314\226I\263?\373\250+D,\007\326\277\256\217=1\2418\316?\274.\323aK0\336?\212 ;`8\206\205?\242!g\212\316l\316\277\215\301\026\375\231\250\330?\261b\237\235_V\316\277e{\343Z\243\024\340?V\275\374N\223\031\342?\234\332\235\336Z@\340?\362fh\227\3126\312?>\205\267b\332\022\337?\3719O\206\364%\321?\240V\352\274:E\321\277\243\023\266]p\337\325?\357\250s=\270X\325\277\360\307i_\253J\261?\002wf\243\357E\310?\3017M\237\035\360\303?\244\235\005g\021\006\317?\325\333\023\342\231)\321?\000v\352\241\350\307\320\277\332\001\370#\034\345\321\277\270\246/:\017\335\322\277\037\243\033\345\2115\325\277!\346\026\343\221\262\331?\351\302@\276!`\334?\t\346\"\235\005\312\304?\357U\n\005\225\006\324\277B\036\250\360\363!\267?\352#\317y\266\\\315?n\267\352[b<\335?k\037~@\230\002\324?H0Y\005\377\225\317?\311\375PaS\004\332\277b8\350\\\233\327\325\277I\005_\342\331\357\320\277\375Gl\230\035\271\304?\243\000\027\205\331\333\303\277\025o\te\206\362\323?\211\366\312\037\200\222\341?\331\256\320\007\313\330\312?\3145\026^\223\177\305?\002\222\270\340o\250\325?\231\270\270:\276\005\327\277\321\nF\004g\231\317\277\005\323\027\337\243\300\266?\254\3315\347\001\250\273\277\256\010a\342M\006\316?g\272\266;\2246\276\277srT\250M\240\315\277\303\350\274==\363\224?`6\205\276\211\333\315\277O\362\270\342\301\232\275?y\370|\336\236\361\326\277\206\017x\242\0343\310\277\217\364Px\\\026\311?>\225\221\202\300-\317\277\344\013 \2356:\306?\331LS>\343F\331\277pMp\240vn\320\277\312\000\355\232\3222\324?\256\033\000\273\344I\321\277,\240/A6^\314?\215\362i\241\246\216\234?\221\367\005O|\220\324?C\"\310\234\302\345\340?%\204I\034rf\241?L\345H\302\031\027\330?o\353U\001J\005\337?}s$<F\036\307\277\230\377\251\033\234\206\326\277\320\336\256\321Q\222\256?X$\0367\231D\300\277\336\247\r\373\373T\322?\231\346F&\032\203\313?\360\344\r\017\3454\270?\313\3022\221-\246\324\277\243\021C\335\315t\330?1\352\377\301,\331\315?77\3075\025\224\300?\213\026\003\230\360S\261\277vi\303ai\340\327?\214!\245~\203\233\324?o\302\367\335\370\203\320\277a\226\321#\241\010\340?\366\360\300[{\272\337?\"\355\322\310\337\244\306?Q\017U!\263\355\332\277\222R\226B\234\336\330?El\250\377IO\340?\361\362\225\274\021\310\324?\263\t\017\036\226\033\262?&L\275\023X%\324?\244\233/\274\263\362\316\277Y\375\021\206\001K\325\277\353\211\360\'\021~\271\277\262\273@I\201\205\317?\003\335\352{\005\320\322??E\032\204\3252\253?XIT=\323\312\340?\255(\353X!\274\314?\222\352\371\242V;\332?Q\221\267\032\341\206\325\277\370zk\036\217\262\342?LV\301\177%\035\325?\212!\367|\346O\325?\236\177\232\336\356\372\331?\351\304\365Z\226P\330?j\230\251b\215g\341?\226\337X\006\213\371\331?\"\262\274i\002\336\310?\267\366\272\034\341z\277?n\3339\305\221\244\271?\367\334\256<\355\225\276?\340*\364fy\303\314\277\357\251\275\004~\277\336?\232\3253k\306\365\264?+8\366\313\253c\267?m\205\372\247e\265\300?\255\224\022@9\243\320?\003\212\005|\206\t\330\277\344#\224\204e\350\274\277T\274\035#\321r\331?G\207\321\275\2307\333?\236\251!\273\034\300\324?\020!\256\234\2753\342?\032\263\231\0016\371\320?0x\177Y-r\313\2777\247P\345\315\304\327?C:\331Y6k\235\277\232-\223\300j\325\325?\t\267\306\261?\032\342?\2551*\241\242\307\322?\227TL)\330\024\313??\227\241\330\247\357\317?\025\276c\0353\225\342?m\371d\237\251\322\270\277\267Ya\237\245\020\323?\345n\204\003)\312\307?\226=\222],\266\250\277u\236\343i\032\220\300\277.@6$I\253\324\277\355\242C;\002\323\323\277\274\233\300\327\204r\305?#\223!\001\202=\325\277\t=\223\344V\224\306?\332\246\035\243\341\271\322?Q\344q\232\003\331\236\277\277%B\033g\360\323\277&\331\314\034\360\313\254?D;~\332n\243\317?l]\254\240P\354\325?\220\177\311:\332@\334?\307\352\373\025\327\235\344?\003#\336#c\001\234\277B\256\324\263 \024\320?\263\352\030\374\242\351\321\277\264M\330\033\010\213\316?\177\202\356?\360@\322??G\232.z]\321?\232h\021\003\275m\246\277#\233/\037\336\255\277?d\330\325\242\r\031\323\277\266h\277\275\204\255\327?e\r\254\035\244\253\333?\204\031K?~B\321?ki\207\"Q\246\330?\205\322\325%\374\265\312?J\3254\367\251\215\272\277N&M\007\333\035\312?\230u\030\366(\032\317?\360-\223~N\203\343?\'C\237\331\277\374\260\277\233\030\365\275D\204\321?\305A:#\347\320\304?7\341^\231\267\352\341?|Bv\336\306f\262?\226e>\326B\377\310?[\325\222\216r\360\340?}\325\343!\0006\340?\213&\'E\361K\273?3\323\305\2772\343\276?\307\377\025\340X\243\327?\223\017\315~\3258\332?r]c]\375T\307?h\022\253\3654\026\325?\270\177<&\030\357\316\277\267T\255\236\366H\334?\272\275\007\\\025\260\271?\023\325\370\330\237<\312?p^Z\334\230\201\322\277\246\002\223\300\213c\322\277\300\267\341^6\215\317?\246\020e\373\322\323\320?\246P\253\"\273V\223\2777\320t]\225\227\307\277\035\005\004Ju\307\314?\345j\236\002\344\364\321?\007_5\"Z\243\314?(\001\234\244\032r\303?{\310J\202&8\340?n>d\200\372\005\315\277\254\324\303\002%&\315?A\327[V\243\317\317\277;Ws\004\2312\303?w\313a9:\025\302?\276\217\335\344;!\320?\376\264r\253\367\206\267\277\t6lc\005\"\265?\271oR$\241%\304?\364\025(R/2\220\277K\\\246\252\371?\316?\"B\320\217\216\304\277?\235\344\375npX\325?\3654X\037\254\022\320\277\303\341\375\237`\022\327?\236_\224\240\277\020\321\277p\225H\036_\255\315\277W\310\001`\341\311\327?\3055\343\331\212\"\326?5?a\375]\247\323?\272I\014\002+\307\330?\"hP]\216\221\323?L\301\\\203\245\227\337?\273\020\'\007\036%\310?\227\252\264\3055>\270?\312\2172\301\364\346\330\277\304\017)a\001\247\340?\371l\333\377\031\010\327?\341\373\321&=B\324?WT\314Zmr\325?b\262#\233\314t\324\277j\244\204\344\215a\330?g ;\024\252@\277?1)>>!;\312?\227\322\310!\301X\317?\243\205x\342A\314\334?\271\016\037\"\177:\323?\302$\246U>\025\325\277\272\213\315\032\376K\315?\242\025sk-\'\320\277\0068\265\032\257\014\331\277\277\t\263@#\'\274\277\210\021_y\322\272\303?\316.\204A>\r\342?\355\277)\007\016\303\341?\004-M\337\2453\321?\322~Z\373\361\215\342?\251[\207\264\327\314\313\277\301\325K\235\221\322\305\277\022@\275[Q1\261\277\335L;\353\t\001\314\277\256I3\355\3155\263??\013\225\301I\201\315?\206\004)\004\264\245\277?\323>\244\177L\342\260\277\037\232\334\234\010\352\321?\033|\'\207\313\001\301?t\215i\202\265%\252?\244\350\334H4\\\331?\302=\350<\327\365\320?\025\345\322\370\205\327\325?\215\304x\213\217h\270?8\331i\030\374\005\276\277I>\300\244B\206\274\277mU8\240\252\344\251?wZ\310mE,\343?\307\277K\200\314\224\312?XB-\274\201\370\342\277_\333\323\274\200j\326?|\214\250?\261\204\322\277vV\250\301v\250\322?\311\001\036\305\367M\336?\326P\310\240\243\355\270?o\027\026\263\220F\266?\215\276\335\355\325\242\344?\255\2058Z\376\021\311?h\237\330T\'\261\304?\2162\013\202\001\343\321?\315Am\247\357-\300?\233\352\207\340\321\351\326\277G\367\275\227\014\021\325?\342\000\014a\273\317\215\277\016\321\021\216\223\241\277??\221\'I\327\214\340?\337\333x\240\343\335\324\277\225\246Zn\335\213\267?\275\032\2404\324\250\332?\230\306\212u\005\266\333\277b\312\227\202\373\002\340?j\345\271\031\311\371\333?\360Y\317\367\360\270\312?\256\203\270\257Y\347e?R\351P\033\017\025\335?\311\031q\236=\031\323\277\265l\316=\373\374\323\277\3478\226\373\r\250\323\277N\334C%\"\372\325?\0173\013\037\327\247\321?\353\225\252\233(\025\311?\265|\217\300@\014\333?!\302\205]\220\004\315\277\005*\014_\231\366\340?!=\342\343UN\325?\002\277\241K\223\255\335?>\264\352\316n\010\322?\347\006\032\236$~\313?U\2514\275\037R\326?\005\024,\006\3665\274?\373\026\347\271\317;\324\277\025]\223E\3142\307?\323\360\363\000\222@\316?\2153\033\236=\233\322?\241\036p\227\334,\310?e@Q4j\231\320?\216\002\206\335^/\327?\376\347Y\336\217\332\342?\327EvJ\2541\321?\210}0`19\277?\274\371W\240\'/\301?0E\034_9\n\334?\351\007\032\330\317\207\320?u\267\004C\312M\324?\020!~c\247\326\253?\341\006\276\232\352\246\324?Q\223K\251l\324\310?\021\021i\341\3238\341?\305\244\256kj\217\333?|\274\312\271\230\217\311?l\360\031\344\211\273\320?\006\225]\325\376s\323?\3213(`\\\246\335?z\356\024\335@\"\321?\2675\330\212\354\271\321\277\177%\343Z\345\360\310?e\333q\334\214\307\325?\026*\346\275\275m\335?\375TO\305\021T\324?\007\014\222>\255b\324?x\227\356\"\n5\334?K\262\253\034\234\000\325?_\001u\230i\332\313?\254\361-\007\325a\314?\210\366NX$\036\304?\213\205\245\252\236\206\304\277\220\200\336\017\320a\200\277w\273\177\250\013\343\256?c\020\263\362&\032\323?\375\330$?\342\227\326?\331#77d\013\272\277\t\375\n\241\234K\323?i\301\315\332T:\326?\231\365\275\341\231\253\276\277\317\301\361\204w\334\332?>\364\223 \022\264\336?\312\317\272\004\257/\316?7\354k\033N\262\332?M{R?\322\324\307\277\246N8\242\030,\332?\236\213\361\'K)\267?\242\201\263\357\345\231\315?\252\342|\240\313\212\321\277=\032\230&\266\314\305?\022tj\035\013\200\325?\240@\361\306\366\030\301?\200\247\177\377\2348\341?\355\266\217\005\032&\315?\210\365\343\202u\224\323?\344\360\017|\210\235\307?\257\260d\267d\217\261?\013\257\207\243i\330\307\277\'$%\177(\377\331?\200h\203\237z\234\323?\313\001\026T\257\266\275?\r\017H_\224\242\331?\023\307\r\001\270@\322?A\225\303\274\001\305\332?H\014\n\234\317-\322\277\272\030^\244\253\017\327?a\\\005\214\211\250\337?\324p\035%\247\335\305\277\342\r\243\377i\223\305?s\224\254X6\322\300\277\235H\017\307\3437\253\277Wh\265\372\311\034\300?\264\321s\352N\240\304?\177\311\327\257\205j\304?j>\235\341\274\356\324\277\022[0\247\2726\344?\365\365[\277\2116\306?%\177(\177\224\244\323\277\026c\344Uk\033\312?g<\266\n\007g\324\277R\226\245\306\031\375\313\277\223\321u\237\353\224\342?\0350z4\366\241\276?\361\243T\241\005\221\332?\362\013m\010\247h\315?\007z\311{\254K\301\277\333\035J\233G\321\333\2778\005\"Y\372/\302?\025\263V\233\234-\313?7\370g\2537\017\325\277\255\353\243\225s\020\306?\377Y5\000\002s\262?e\220\273\010S\024\340?&\377\325\333M\215\326?ah\330\234AK\307?\212\317[D-\260\326?~_z\000-\213\270?\314\204\272\243Z\037\323?g\214\305%}\320\341?\211\376\032Z\256H\325?\204\301\2200g\021\340?\035\276\361Z\256#\326\277\234\347_\375e\230\303?\017\342\271\255\343.\326?kK\333\307#\033\302?t0\254,\033\347\323?\224\201\250\240G\261\317\277P\202\243\211\034G\323\277\256\327\262\204\316N\324?V\210`\177\206\265\326?l^\223=[*\327?\361\332\204\377\235\202\247\277\t\214\026\0345\221\310?!\346q\234\004\204\332?\261\202\245\333\216\000\321?c~\260\204\234\024\334?\204\260\340\237\316\354\305?\243\tN\\\022\220\325\277:\207!(m`\324\277,\335v\004\344\t\320?\242\203\211\232C-\320\277\017\345\355\003\356K\244?\201a3\237\367o\271?\307\374\324_LF\327?\032\336I\227@B\316\277BD\244\205O\343\306?A+\017V\214\010\302?\032\334\367$\207:\333?\007\366\251t\301*\327?\036\375\355\272\320\177\326?\207\363We2\236\324?\355\"\226\336H\252\321?\007\326/\340~\243\316?\274\242J\203\221M\325\277X\327\221\270\001\376\301?\274\330(\251\033\301\312?\276\306&\340t^\330\277\347\222G\303kO\327\277\226\223\263$\376\360\322?\n\201\236\376\232\t\332?\322\271.>\375N\320?>\355\317\311{j\275?C\\\265B\303(\301?\222\022P\033\264[\314\277\350\360\224\376\363n\323?H\374i\'sA\310?\177\003\213\252\374\276\315?\205U\304\002\302\273\337?TC4\035\256\223\321?\334Sj\335\243\312\322?\252\366e@(\025\340?8<R\267\222\241\262?\336\0264FNS\314?\323\r\271\276\264\315\312?>\275\347\372\035\216\335?Bb\365&\n\035\257?e\373\261\305E \302?\327\r\004\226\226\360\315?\323\217~\342\235O\320?]\036c\325\275\241\266\277\206\321b\337\0045\343?\320\222\215(i\325\274?\231xQ\005\355\337\325?\0310/]\024\177\315\277\342\267|\177\336/\321?W\004 j\262\261\302?\231\201\312\370\367\231\305\277\315\262\345d\373\363\272\277g\235\361}q)\326\277\037\014\341=\254\\\336?$]u\0259\341\314?\007G$e\346\335\320?!\234\252\326\035&\341?,\254e|\251\351\324?\343Ai^\304-\322?\006Z\252\240\334\225\330\277\310vc\346\247\335\310\277\217\205\215W\305\300\323?\377\3751\306\352\003\305?_\277y\324\014g\271\277T\362\034WD\311\307?\321\r\250\222\\Y\315?RI\235\200&\202\324\277\354o\"]\340p\324?\361\014\277@\265f\326\277s\247l?\266\370\340?\354=\263)\371\006\202\277\305\217\224\241\350\211\315?2\207\213y\251\032\310?\001\265\244\3458\236\250?J,c\")\022\314\277P&f\244{)\304?\244Bm\002\251`\320?\305\020)\233\2540\324?\367\nf\247z\r\301\277<\207Sb\256w\305?\373\232\037^[\010\341?YS\223\277\377\177\303?(Yw\301\032\306\272\277k\023\243\276\227\010\327\277\233NW\034sC\340?\313\315\201/\2263\332?]\273\214\031\343\356\210?\367\020Ca\006\231\324?\317(D]\367\230\265\277T\330V\375[\023\316?\371=c\277$\036\271?\312\"EK\273$\261?\206\265Y>\220\221\255?I\216\350\\Y;\325\277\234\275\330 8\023\323?\346\014A\345\312f\330?\231}`\277\016\271\335?\243\017\361j\024\355\323\277\361\324D\033W\016\314\277\336?\263w\210w\310?\2037\244Q\201\023\323?\316\'\341\370\220f\341?E(:\273J1\326?q\020\000^\227H\325?\3337\265;\275u\324\277\332y\321\r\003L\300\277;g\260N:6\321?=\352T\236\345\336\321?\255\3325!\255\261\334?F\031\232\200\231\316\301?\230\034\024 L\002\333?\323\033I\335)\270\322?\370\336\337\240\275\372\240?\377$\224w;\346w?}\336\371\352O\207\310?\226A\020{\374\271\332?^C\323\206\201\266\305?\360\344\354\000\374\221\310?\327[5\225fo\272?G\'\253\037$\326\262?\017\343$\203\222\270\335?\201\217\207\337\311\376\337\277\016\261nz\037`\264\277\221\342-\241\314\320\267\277\213\245\'\260)%\260?\0137l\235\260\253\262?\005\344dE\201\374\310\277G\240,B\322\003\340?\254)\034\203F\327\327?\346Ig\232\217o\304\277\306v\316\201\253\335\327?\276\003\362\333\306\225\334?\367\037\231\016\235\236\340?.\224\230\3342$\256?a\201T/d\032\324?\3734\223\024\375F\341?\326\302\217\336.\303\327?\242\257\244\005\375?\312?\363wJb\244\262\321\277\376\355\364{I\200\321?\0107\235\215*\375\267?r\366\250\241\010\007\260\277)\021\372\374\244\230\300?H\354$l\211&\322?~a\t\326\376\357\306?\222i#\215\300\016\323?\337J\372\244\250m\321\277X\rWA\353e\265\277\3742Z?\344\312\314?\355\347=c\231\335\315\277\352\016Z\366\301\205\310?kZ\020g\321}\303\277\222\033\352\034\250\370\317\277p\3224(\232\207\310?\306EZ\317\265\324\332?BV\\\301\333\250\326?\265\324(\301n\332\325\277\272\022?\316M\376\264?\266\003d\236K\'\313?:\315#\373\367\313\320?B_z\373sQ\327?\261#a!k\264\321\277\310\341\335\333>\265\322\277\236\255(\312J8\266\277\314\377\365\0337\306\327\277;15Sk+\320?\314=\013\337N\244\334?\243\264\365\333\360\236\314?\276\351+\202\336\037\320?\352e\014Z\345\025\312?\310\r;c\312M\324?\001\223+\'gI\317?\203\265{\003\335(\304?\340\214P\"x\262\321?\0031\236{\356\210\337?\346\026\004\240\233\247\341?:\260^=\325>\305?\035\223\305\375GF\341?6\353\347\250\376\334\342?\340!\326,\341\232\321?\033t\266>\264\250\322\277\347w\365\205\353,\326?b\235l\373\005X\310?\322M(e\316\212\324?\014\335\326\341b\250f\277\360\270\362\243+b\321?\204]\332\221f\003\245?\\\263\360Po\241\323?\350qs\205\322r\333?\374\257\255~\360J\316?\354p\360\\J\243\320?\243{\020\341\343\274\331?\371\357\301k\227\266\334?Y\354\304\037$\017\316?\364F\367\275\227\314\325\277 \372A\237\300\"\327\277~\027:\237\317:\276?\200\346%_\006\354\270?\247\3158\rQ\205\325?\216\343\013\203\307q\307?\233Y\t\345\226y\333?\204\010\371\037\347\235\271?\363\266-%&\003\336?\221\030\363)\266\270\327?H\272,GD\010\271?c\233\320\3731\363\321?s\365c\223\374\210\330?\214Hw\204\221f\320?\npr\246\246\260\264?\364\240fi#.\317?_j\235\033G\352\316\277.7\030\352\260B\326?6\023\253\275\212\267\242\277\210-\373}\030\004\307\277mjE@*\252\341?\300cOm6w\240?\006  %\227{\222\277M\364;E\365\363\303\277T\203\274`h\234\327?98\246a\327z\321\277\320\021T\350\027\000\315?\365\3613\242r[\340?0{\300\3319\017\262?8\210s`{\036\323?\027\306\'\256t\210\323?\202\224\022aG\214\315?\336\360/@\252z\267\277\334g\225\231\322\372\247?"
      }
    }
  }
}
node {
  name: "normalize_element/component_2"
  op: "Const"
  device: "/device:CPU:0"
  attr {
    key: "_output_shapes"
    value {
      list {
        shape {
          dim {
            size: 749
          }
        }
      }
    }
  }
  attr {
    key: "dtype"
    value {
      type: DT_DOUBLE
    }
  }
  attr {
    key: "value"
    value {
      tensor {
        dtype: DT_DOUBLE
        tensor_shape {
          dim {
            size: 749
          }
        }
        tensor_content: "\217\023\354\340\3346\312?\315\304\363\240@\242\264?\261s\252\347j\314\311?V\367\310\346\252y\260?\341\302\354+0\340\261\277\313\377\334~\226:\265?\206ID:4\023\270?\346q{\366\032\212\262?\306\233Z\210\236,\230?\225z\210\331\332\341\230?\276\232\304\237/]\237?\237q\303\241\316\313~\277R*#&\217D\227? dc\242d\031\244\277\276\022i\227F~\300?\366~\037\345\222p\252?\026\036nfx\\\304\277\322\266\355\275\3601\261?h\336y\373\326\373\327?Z\312\246\032\305\013\313\277!l\314y3[S?\323j\321\315\301\335`?O\375\254\307\267\326\314?\246hOC\000\342u?\272m\031O\210\251\263?\200\212\020B3\224\247?<\002\217\332\212\036\306?8\n9\204d\340\242\277\r\321t\270N\212\300?\225\023\212\000\351\023\265?\025\271B\200U\363\233?m\233\332\000\t\026\203?\204Dv\300\336\315f\277 \004\222\337\203\030z\277Z>\206\037\200\372\247\277\240\374\376ISo\303\277\256\r\240\036\245\322c\277q\005\220\261E\230\262?nf\231\352n\303\320?\270\347\\\376\001\336\227?HI\264\2118B\316?\250lYx~\\Y\277\360\331\000\215Nm\266?n;\2478\222\364\267?;\344$\234/Y\225\277\323\264\264\350\327\265\315?\026 #\003\355\314\241?\337\377\246\373)\243\325?z\035P\272\035/\317?\314\257j9e\250\317?J\3332\277\036\274\275\277\366\213\247X\024z\300?`\350\251\277rE\230?W\200\027\377<\342\237?\224\354C\244\307k\303?\027No\322vD\224?8\364y9\252\242\263?\200\033\224\366\'\355\310?`Q\322BP\325\227?\354\262\225 \356\255\236?\275k\226\354T\320\266?\255V?\231\363J\221?\026\241\\C>\"\302?\324\324\262\265\276H\307?\244\310\367\030\356T\245\277\2325\t\302;\027\250?\205X\356\346X\307\223\277\210\367+\203\273\312\226?O\272\241\347\036+\262?qR=>\306\001\301?\000\000\000\000\000\000\000\000\007\325x|\212\002\224\277\032%\371[L\375\307?\247\230\360<\322\217\247?v\025s\214;\020\262?\022>\010\277\334@\313?\207\201\327\3742\367\253\277\333\022\204\356<8\202?\214wk\214\342\304\213\277\253\325\323\036a^\264?\275@b\036\246\273\276?\201v\352>\276\014\265\277\037q\341\243r\221\322?T\360F\254\346\265\270?`\235:\301\304@\307?e\032\304<h\314\254\277\257$\232\274\330\346\324?C\373\273\353*\254\276\277]\375\335\335\370J\245?\236\256\n\256\233M\215?N\002;\001\304\222\264?\350\2751\004\000\307\232\277o\200\"\341>\034\270\2773\330y\300\341\252\260?\266`\334\037\205q\253?\301\275(\375a\244\217?\365\223\234\331\317\336\305?7\202\304\336\332u\261?}Y\373\267\242\377\300?\321\242A\201\254\344\260?\307\343\256\315\342\237\203\277\356\330!a\214\206\271?\352\001\230\327\266\315\235?1Ap\t~\243\304?e\023\211\327/\267\237\277\265\277\324Kc\346\263?\324\2673\250\002\"W?x\322\227\345\270A\223?2\332W\334\207U\312\277\221ffEX\375\310?\267\270\313 l\350\242\277mc\036\277\330\367\315?d\371\215\213w;\213\277\031Z\332Aa.>\277\\rtF\250\332\215?\207$\006\303\261\025\303?A\230_\366\2003\307?Y\322\335\267R6\301?[\315Q\177q4\221\277\265la\241\314\302\237?\312m\373\036\365\327\256\277\315\330\247N\315\006\273?\317&\217\300\202\250\264?\216\315G\177SK\227\2773\354\007\247\313\003\314?HmT:g*U\277\002u\227D\265\001j?H\'\025\004\304a\242?+\362\237\371\222I\236?\353\206\361\303\326&\315?\'8P;Wo\315?\033\021Jgy\201\244\277\223\233U]\217\033\326?\360\210\303\377A\027\267?\201\342l\337H\305\261?q\323v~\027\327\232\277\200so\023(A\217\277\247\331\326+9\342\211?\355\221\264\270R\021\303?\232&\004\\\244\021\257\277\361e\351\3354\212\262?\271\214Y\376\225\370\260?\363-\377c\031I\320?\"\240FJH^\302?\310\264\277~K\252\271?\352`\346\003N+\241?4\202\215\353\337\365\300?%\353Of\254\313\267\277Z\247\200jrg\303?\302\242\321\006(Y\221\277\334\024Mo\230\313\232\277\264\200\340\\\211a\262?C\274\"\266\303x\314\277pN\272g<\225\304?\344\2023\370\373\305\271\2775\251\2629\030\373t\277\356V\032!\321\276\307?\274e\177\207?\026\260\277\247<\213\375$\000h?\266\007u\037\355pq?S\233\223rR\363\240\277\3037^\313ud\303?\235\224i?P\261p?\306Gr\226\345\255\305?e\356\311\337\227\334\240\277 \300\032N6q|\277\203.D\373\026%\304?9\264\242\257\033\024\213\277\332W\266\3002\367\252\277L\nV\222A\331@\277\023\016{\251\361\265\306?\257\3616\302\344>\232?\213\026\003\230\360S\301?c\013b\0343\273\255?\'\324,\000(\247\257?8\024\374>5\301\306?\346\001\3218y6\222\2774\345\371\302\032\235\300?\206\234JH\234\374\221?\361-]\036:\237c?\205g\370\005\2525\255?\014f#B\351,\227\277\246\244\034\006\322I\315?(\356\333\275\232\213\261?X\246\234\205\366\027\201\277\005\334\303\303SF\246?\013\2053\270\340\036\237?\362\233\374\365\216C\250?t*\225\307\005\255\313?\215\3559\331\233R\260\277\r2\242\334\221\004q\277\302x\274\177\342\366\325?*\260\235{Q\263\276\277+\271/\014\375\270\250\277\235IJc|\344\221\277\265a=\203\300\251\243?\247 `)\242\221\270?\037f/\333N[\270?\'\353&\347z\221\261?1\371\227\213\225$\266?\3017\236\346\034\360\232?\257n\345\272c\220\237?;H\231\036^!\314?nJ\273\311V4\305?\n\306V\n`N\215?\332%\303T\247\301\240\277Rr\373\243w\303\334?|h\233\362S\342\265\27755\236B\215F\316?.\344y\277\275\252\274?$\352\204\036\321\007\245?Lg\253\273G\360\313?\306\313\303 1<]\277\364\366\214\351\256\021\317?\216\3676?\366a\262?\000\000\000\000\000\000\000\000y\001\233\0307Z\300?\361\007,N\357\301\275?\231\227h5\311\264\303\277\013\332\273q\030\355\265?\235~\026l\237e\273?,RY\373\330p\325?\345\211s\026\356C\233?t\037\215\376(\316\254\277\007\350B\325}:\243\277l\t\267\204\225m\313??tA}\313\\\321?>\'\234a\223\312\243\277\224\205\320\275^L\303?1\006\362\306+\013\224?\020\374\024l\310\344\302?\345\370\333}\022H\315?\320\323\200A\322\247\303?d2\250xTc\305?\350v\243M\335\256\246?\250*~\235\345C\306?\002xd\334o\025\247?6\242\203G~\361\307\277\325\020\260\261\246\r\302?V\215o9\250\016\273?A\351\321u]\317\307?\375v\206g\021\243\276?\352\177\363\301\266n\265?\000\000\000\000\000\000\000\000\351R\257\235 \030\302?Q0\373&ag\223?\360&\256\031\317V\276?\377\273\323\327\322\'\260\277j\000\251,\216\363\271?0\025\331\326h\234\304?\246i\340\337Qw\226?\275\232M\221\215Q\254\277>\270\226$*\257\304?\'\322\017\200>\345\200\277\216\356\260!\351\347\264?\334\303p\302\374Ms?\314$n>Cr\243?\202o\375h\366H\250\277\363\017\256\302^\017\266?\002\217\366\337M.\261?\332\374d1V@\317?\346\320\236\242Us\313?\'L\367\276\341\323\307?8\2565JMq\262?J\306\234-A\302\207\277B+\007\345Cq\324?/\261\246p\014\032\263\2776\373\0359\273}z\277`\372\320\341w\325w?]\312\022\000\220\321\311?\357\315tQ\"\371\212\277\024\231e\301W\203\250\277<\016(@\271\022\240\277\320\355%\215\321:\261?\007\317\347PD\216\261?Y?\354;u\033\307?xW\274\337\010U\245\277\242\357MW\240+\315\277\330\346\357s\266_\261?\213\235:\240\266W\261?WO\200=3|\255\277+;\222\005+\322\264\2779.\035R\220\310\263?\220u\006\200\t`\260?\367\243\362\300\021n\302?f\231\217\265\320\337\262?\207\261@L\2460\201?\037M\365d\376\321\300?c\311fX\326G\266?\030x\356=\\r\245?u\221cg\341\035\302?\242\272\322\225|\252\275?\260\312\246\330\250\271\236?d?\237\211/a\210?\034f\344\003m8\310?\347I9b\244L\242?\004j\246\205\017H\225??\312\004\323\233\027\266\277\001\336#\027sB\273?\2739\2468X\311\313?@O\240\333\215\266\307?\004\314D]\340\374\220?}v\363fj\230u\277\373\026\010\310\270\336\311?Jb\327c\023z\230\277\023\205\000Z\237\344\205\277\260J\022\031\220\034\302?\"\254\313\313\217/\215?V\335\033*c\317\267?y\037\276\201\006\361\261?\336W\3044\374<\267\277`\360JA\240\373\242?\323\254\224\347\277\334\230\2776U{\001\213\266\274?fN\336\232P\225\222?v7$\365k\331\200?/\257\226\032%\330\235\277L~=\277%\211\226\277\314gg; \265\223\277\236\310\274#\235`\247\277\337J<\301z3\263?\334\265k\337/\250\253?O\360Eb\037p\310?^C\364\224j\331\241?\266_\215\237\005\"\271??C\303XbB\223?\003\034\010\352\020\017\307?\344xO/B\302\303\277\365\3556\005\270t\220?\205\367,:\037?\311?g\\\347\310\222\205t\277D\266^\231\330\370\270?\030\305J\203\335\333\245\277G5\274\276\256\335\240?\311\214\032\300\031\004\315?a\003}}\010\305\324?\253\216\301/\232:\250?\355l\237\300\001\316\320?\312B\246B]\240\323?\314G\364`\302\320\260\277\014\261\372#\014\203\301?\007\3110^[\216\261?\035x1\244\365\375\306?\234N\323\343\316\267\271?\211p\335\336\177u\242\277,\334MK\007F\253?\321\252\330\220f\311\251\277 \003\036\275\206E\325?|\350i]\366-\261?5ms!^\360\241\277\205\203\224\n\360\376\220?(\032\326\032k{\310?\345\316\257ZW\324\265?\317\247r\000\033\025\255?e\311\356\222\320G\201\277\212\352\255\201\255\022\306?:=\255\252\260\374\301?\272[\304=\267L\257\277\341[\036\214T\357\261\277.\350\234#\033]\322?O\275\003v\024\353\304?\242\342\2138\225\363\274?tb\254\302\250\234\225?Z\003\347\316D\277\265??\346\306\236\204l\275?h\037\320>\3736\231?\307\026\335\325\006\002\305?^\241\315y\337[\301?\213\216\303\3446\257\242\277t\264\373l\034ex\277\010\265\031\206\023\301\313?\240EB\235\352w\240\277\312zvht\341\235?F\300\036\234\032+\254?g\373\251T\375\010\241?\231}\242\333\340~\301?\337\272j\267\300\222\225?\031\211\376@!Q\263?\302\021X\304\246Q\211\277\200v\217\205K;\300?\270\200\017\337;\312\253?\3368\335=6\205\236?\314\343Y\027\361|\310?\024\352LN\253\360\262\277\341\273(\325\231\326\260\27710\341\206\316!\271?\317@4\014\202;\246?p\345\323\0001K\300?8\375\340I\371\263y?pX\277>\337;\265?\361X\277\333\264\000\307\277\213\321=b)\317\244?M\211\342]G?\320?\353cpZ\021\261\266\2778[\326\203\235\360\241\277hk \374\324\010o\277\277D\207\203.(\232\277y\200\311\273ZV\241\277\245\007p@le\306?\341\037\235W\310\036\303?\330\372\345=\025\n\264\277\367 \336\034\251\034\250?\326\255}\205\365\224\315?\021m\324\376_Y\274?\223?\374\"\277\203\244?\265\265t\273M\256\322\2770\205\244\242\363\222\310?\000%x\"\014,\272?@\274\317m\231>\270?\244a\245@n\330\314?\341\332\327!\001\032\272\277zhH\252)(\302?1\275\263,Nk\235?\010\2777Cv\311l\277-\237\274\372>=\250?\231\355\216\265T\030\302?\370\2270\334\261\277\265?\331\273\026_z\234\302?\204\341TR\304u\265\277*\032\255\2339\301\242?~\345\377]\270\026\320?\362\371\325\332\003F\311?\265\300?!\022p\274?O\223\370`B\032\266\277Zf\317m\333Z\277?\022\232\333\277\335R\253?\022\375V\302E\264\301\2773\354\203n\'\370\251?\2701f\340\272A\300?9~\2504bf\274?\231\236\212\375`>\254?\222:CiVS\275?~\306s ep\210\277\213\273\007\t\315\005\314?\t\354 ez\370\303?\307\375\017\374\3442\226?\2021*\302\260p\306?RA\352\033=#\222\277\212\354\234\311\2531\303?\3074\347\2415\215\263?\r\256\024]r7\302?Z\023\037`,Z\254?\277\226\265\037\271\315\272?\202b\330\0370(\277?\3410\250\241\323\224\310?\030\000.\361\025\027\254?\367\3678$\314\354\223\277\366\035\211\270\265\334\306?\222\346\023\242\021\246\262?\351}\004z\270\317\310?\231_|\272\202\271\222?O\331]^\210.\325?\206\003Bg\251\'\275?\017|\353G\263G\274?\254\374\203_\"\222\256?\021\244\224\010;b\246?`Y\035\304\304\242\222?\370\3205\300\202|d\277\243Y\227\"\022\350\303?u\003G\372\233m\302?\313%\244!\"\266\231\277#)\257\266\336F\301?\335Z\271&\303B\232?\'\366\2570m\315\252\277D\243\277\300A\265\321?4RJc\017H\304\277\271:\257\232\257\336\233?\364\005\302\210\\t\310?8\346\n)\036\233\263?\356\303\024\301\014\201\236?g\354A\304\252\232\240?\221\253G\320N\274\245?{\322\221u\233\344\300?\226\034=\237}<\303\277\204\353z7P?\306?P\255\322\236\021\363\242?\023(\225\002h\032\230?z\256J}\264\223\264?\302\025\005?\207\300p?\006\257\201\240\350)\262?\254\'A\037/\033\210\277v\372A]\244\320\304\277/\024\355\200\244\265\272?\260\252\240\232y\017\314?\027\265\301\252\366\300\260?\325\205\016p\367(\304?V\202\344\245kBk\277\314\301\340X\037(\263?-a\2477\'\037\250?7\031\260?\344\210\312?\263\310\007!F&\221?\005\333\014`_%\204?\035X+f\306\323\270\277\3663H\003p\032\302\277\030\274\236\236-\326\253?{\034@\236\341\366\262?\332!\214\014c\354\213\277Yo\377\212/\354\216?i\2627[6?i?\367\346\232v\357\260\305\277!@yd\033\324\230?,\240\253\010\222R\303?\220H\350\"\026\025\246?!\250}\347\325\010\300?\025\243t\nn\373\300?A\334BH\367\"\237?9\355$\200m\215|\277B(\214\271\255%\267?Z8/\237\303\264\251?\271\276\223?\255\334\254?\352\253\200\202X$\250\277\300`\251\301C7\244?\021\203+f\245\305\232?^\222\024\242\215m\245?\2713\270Rt\311\302?Nq\231\366tEv\277\207\302l\244\232\311_?\021qR\0340\335\311?\276\303\314\302\307\365\312?;h]@\273\205\310?\246\353O\003\202\020\267?\355E\264\035Sw\307?\354UH\037\021X\262?\336\303\210\361X;\233?\264\352W`\346@\225?\035\217\370\231\243\334\303?\261\363\205|\017\030\251?\020\226-i\367q\275?\252SP\027J\242\264?=!\"\322\302\247\270?\225\243\204@\265\030`?\306\372\260%~\241\210?v\002\365\301\215\357\241\277\325\240j\037\353\334\242?\377\036a\275\366q\330\277\353\2170\014Xr\312?jU\212\236\rY\256?\277\212\347\307\272\023\316?\207\317k&\276^\242?\206yo\001j\'|\277\t\031e\211\020O\274\277\3771&]0A\256?9\373\337\036?\254\235?\340\252\343\337\004\262\262?~\277\366\236Z\025\251?\360\267\250\334e;\267?\236\327\335\336c \260\277\376Af_`\363\215?\266\261~\330w\352\270?\357\362\271\202\211\031\253\277\017\010\346{UM\235?\2542:\275\336\277\312?KD \340\016\251\233\277\357,\254\341C\005\245\277\341\266\353\342\214\032\241\277xjh\342\241\030\216\277z\236\005\302\312x\222\277\377l\317\037\337M\277\277\353\3562\252\251\270\301?->h\3523o\262?U\317\223|6<\316?\256\257\001S\376\234\257?\347\334P\245$\363\201\277\216+&\035\2026\260?\215X\223\300IG\320?J3\314\277LJ\263\277\267\016\314\331T@\273?\207\220N\270\262\237\273?9O\334=\376#k?B7$\203\026q\305?\314\367\204\323\037\355\274?\261\376\215E\354v\260\277\302m\235\032\220\006\225?R\023\220\375\213\343y\277>L-!@\002\274?\203\366\326\377\272L\272\277Dx\305\235\034O\322?\360t\235\374\314\017\254?4)\000$\245i\257?n\227GH\356z\316?b~\031\002p?G?\314N]\376\345\210\276?\205\340D6\210=\300?\351\350\r?\214\014v\277Y\320\305\360\"]\320?\237\371\203\036\275\343\320?\343<\367y\347\253\302?C\372]@~\"\212\277\nH\373\037`-\314?\'\027c`\035\307\242?\355\370\233>\356\343P?\326z\371|\030J\272?@\353+Y_n\306?\224\276\333\177\016:\223?\260\270V\200\221\305\246\277\243\362\310\2026\367\267?\336=\233\260X\036\313\277\373jp^\201\310|\277!\253\024h\233\016\233?\320.\370\227Q\352\274?\326\320\354\013\377!\211?\367\342\201\204\005P\232?\021-\315;\273m\224\277+\3360 g\331\261?\226\375\2230\365)N?!\036\204\336\355\n\254\277\266\277/\005\3267\321\277\034\227A\032\355o\237\277\265\304g>)\013\305?\274X\030\"\247/\305?4\373\331\033\276\375\303\277\205\330J\374\022p\243\277cs\020\2374\007\212?9\327\254\n?~\304\277*\216O=\334R\240?\230\313\035h\313Z\302?\213\255Q#\265\317\246?W\351\356:\033\362\233\277\313\263t\000\"\317\202?\266bz \204\020\270?C\324T\201 \341\263?_\246\271\333\315\301o?\357y\366C\t\006\322?(\202\223\310\231\001\301?\326qs_\013\320\256?\314\231C\0136\231d?Nx\317\242\363\361\276?Iw\000Y\302\271\314\277h;lCA\200\306?\237p\331\225Tux\277\2173\371!\020\332|\277>\300\244B\206\237\272?\317\362\237\342\366S\313?G\2435\030\200\314\222\277\272\227)\035\024\343\252\277H\2617\214\335\231\264?\270\001\237\037F\010\262\277M\022\222\237i\226\240\277Bt\255b\226\342\275\277\272b-\333\332\004\263?F\254\356&2\322\306\277t\021\370&\372:X?\271\200y\303\333U\242?\246K\0300\365\261\277?|\337K#^\005\310?nM>f5\227\271??\351\261\036\330\240\234\277\020\245(]\033\246\225\277\323x3\264Ke\300?\262\232\244\265F]\213?\244\214U\326x\341\305?\240J\264\201\307y\274?c\216P\371\370\000\273?h\316\331\206z\217\245\277\006\330&\231\305Y\253?\216\302\273}\322`\315?\301\367\243Mz\204\260\277U\352\013\201Y*\236?1.\013\334p\216\310\277>\232\207\237A\273\300?\355QM\203\201\353\304?h\244R\252LJ\304\277Nv\330\351\254;\301?\352\335\023|\267\237\212?\371\200\024\302PjK?U\206P)\237\263\302?%\321\344\3056g\315?\305\2738\376\377\220\253?:\266a\276\003\326\274?\373\n\0148\317\001\302\277Zp\026aPG\265?\000\233b\304\364\263\324?\202\034s\"\352\323\305?\006\356\304\325\226\364\306?\264\314\001\006r\236\307?Q\253\362\201@\016\236?im\340/\342\022\261?f\321R\261\345 \216?dZ\233\306\366Z\321?\265C\r\360\356\022\314?\t\240{\203\355\257\312?\257\312\307\346\221\334\263?w\\\3404u\005\240?P\367/\200X\205\242\277\0346\035C\370\376\300?\346\216,\320Vt\213?f4\362y\305S\331\277\244&\217\341\220\221\262?G0\335=\243!\316?:\306\272]\324\223\255\277G\375\021`:\250\256?\370\262\272\303\220\026\241?\220x\242\271\210N\313?\253\356\306\277%\271\252\277\270S\235\202\272\220\333\277\273=\2149\235\236\302?%\300\372\211\024\024\262\277\206\307-\317K\021}?o\217\277caP\230\277\240\211_\232\352\025\213\277\237B\307qT,\277\277\237V\241\346\203\034\216?(b\021\303\016cz\277;\202\036\341\351\322\247\277\030\354\247{tU\263?\341\203S\366\310\254\264\277\362\217c\220`O\252?\035\026\034\276\202\275\204\2771M*}\225\272\330\277$\303\2364\334\231\263?o[B\333\275\036\300?\310\202\333=\355n\322\277\354\267\300/?\201\247?Emv\377\263\301\260\277\237\010^\004\3704\312?\251\331\207\345d\234\315?cY\216bIQ\246?\3537\336\340\265\222\244\277\221rb\325AZ\300?\231\004w\271\353\031\303?/\237\223{\r\203\313?S\0220\277u\363\246?&\010\221\353*\315\267?\361\206n\325\371\340\263?\317\204V\302;B\207\277\233\334\326\263s\334\260\277_\220\231\260\242\253\275\277\000\023o\237\200\346\224?\321\332\021\247\303\245\225?%\027\214\337N\001\245?\n\373n\241\310\346\306\277TC\035\2018B\222?\241\252\327g\255\354\274?\257gc\200\237\314\300?etz\275\177\234\333?\277\323\350\376\177\326\321?\220kC\3058\177\225\277\022\223\337\276\350\324\257\277\207\266k[\367\003\264?m\002\251\240\344\206\273?\020\207\370\311I\017\273\277\305\375\313\336\347\262\305?\200\364\340\375\327\n\205\277T&\251\n\0255\270?\036)g\227\213\322w?\230\336.\226J\301x?\374\315\274\003\331>\303?\245vu}\325\200\322?\252\207\344;c%\323?"
      }
    }
  }
}
node {
  name: "normalize_element/component_3"
  op: "Const"
  device: "/device:CPU:0"
  attr {
    key: "_output_shapes"
    value {
      list {
        shape {
          dim {
            size: 749
          }
        }
      }
    }
  }
  attr {
    key: "dtype"
    value {
      type: DT_DOUBLE
    }
  }
  attr {
    key: "value"
    value {
      tensor {
        dtype: DT_DOUBLE
        tensor_shape {
          dim {
            size: 749
          }
        }
        tensor_content: "V\221\222\235\005A~?\331J\371Z\341\247\253?\346_G\3632P\236?Rs\335\207\310X\211?\341\302\354+0\340\261\277\343Z\304\342\375\331\301?\244\363+\347\234i\311\277\324\325.\000\345\034q?N<-`~\376\262?+\017\230\250Z\342\301\277\330\270a\210Z\242\224\2771\377y\376\332\030\247?\322\205e\'\024\006\217\277\2255\301\242\350\242\273\277\220\355\245\276f\230\302\277>\014\347\371W\177\316\277\346o\347g\217\274\331?\274t\1774\035\263\214\277\363\310@\032%\032\311\277\343\0236,\333\301\247?K\204\001\334\020\t}\277\237C\320Am\025u\277T\3727\237\2429\274\277\367\203\354\202\342C\254?d\343\316@\275\375\275\277wL\274\207t\r\265\277\272\245\n\203\210\215\251\277\375L\275n\021\030\266?\356\2525\004/I\246?-9\223\333\233\204\237\277\303\005f\2460\306\270?Q\021\370\332k\365\230?K\360\026\340l\207\242?\314\275\336\002\253\030\212?\021N\217\226\230\241\261?>#S6\223\214\305?\375\340\327\243\313\366\261\277\346\'\005x3\354\221?#\231\274\236;\203\302\277B\260.\227\"\263\310\277[[\333\210\345\236\302\277152]\302\000\305\277.\367\217\246\366\371\222\277\205\356\263F\024E\304\277\374\206O[\237I\301\277\343\235\256\264\255\342\264\277\217\r\351_\256\037\236\277j;\236}\202\027\324\277\010[G\260\314\266\263?K\036\330\274mP\245?\307\264\272\305\221\301\307\277\313(;\242\347\273\262?\r&\330\030(kS\277\316\271\317\2024\211\241\277\230\014\256VyD\303\277\333\207\037\020\2460\250\277\262\341\237\010\230/\300\277\366\217\263 \374\332\263?r\264W\335\362\252\307\277\33098\236\360\216\246\277\374\"\333\330p\201\261\277\\\002\026\027L\236\204?!\221t\325U\344\261\277\201\332\177\317\325w\270?<\352;\001E\223\273?/\226p\210\273\361\225\277r\251\240[\025\314\213?\"\262Y?G\365\305\277\222)\342\036\222\364\266\277?\004\037CC\037}\277\277\255\366\333\227f\250?\345\261\202\271\277u\227?\250rQb\024Z\235\277mH\372\271C\270\233?\362\312\300\304\311D\200\277I%:\240\254\345\240\277\352\000\203\002\301\254\246\277\t3\320)\206\263\240\277\370{\265\345T\031\231\277\241\023\361\277]B\230\277\206t\352]\313J\240\277\25744SV\242W\277e9vA^\276\254?\025E3B\204\'\246\277\236\222\265~\3412\256\277\314\264#\363\315\330u\27727\204\317{\010\317\277\325\361\261\036k\204\274?gz\r\352\360J\225\277\"\310\234\302\245>\305\277\310d\355\306\355\335\314\277a\220\376\333\210\316\244?j\202\311\t\352\306\245?\326\354(\236\0301\252?Fjy\234\244$\240?\241\266\323\367\226\311\302\277\255\200)\240\334x\262\277\033RV\035\203_\274\277\343\316\350r\372fQ\277\300\260>\026\211\246\267\277[\215\025\312\374\202\251\277\331\262\337\207Ah\267\277\357\241\n\240\224\240\262\2776\224\332\213h;\306?\272L\352W|;\304\277{ii\362\275T\267\277|xR\003&\240\220?:1\332\231\370Y\306\277\251\320\314\325\207\334\261?0e\013\001\363\242\204?FH\252\335\031\347{\277\372\355\353\3009#\226?\260\2312&\263\260\304\277\3052\n=\363V\223?`\205\027!\225\222\226?I\264h*Y\210\255?\256\230\370@~\370\303\277\271\212\244a!\010\226?\210\351\2149\031f\277\277+BQ\243\007s\242\277\004\022\034\260\016\364\266\277e\375\357S\030\005\204?\243b\367x|\326\264\277c\037\336\037a\253\205?\204#\330\342Y\225k\277\370\244\257\002\345\277\177?\346ef\311\220!\245\277\r@\242\006\245Ah\277\254z\342\001\261\341\257?-\306e\201\033\316\307?\324\307A\336\262\020\247\277\033\021Jgy\201\244\277\224(\244\312j\031\317\277\254\333\250g\244R\300\277\025.7Z\006\203\265\277\225\324<Y\307w\237?\032\205\311\371\0076\267\277\222\305&\307\327}\306\277n\370\250\202\373H\241?Co\274\376\316=\255?Sz\"_t?\306?\271\030$\371!\241\301\277`\315\277eg\264\304\277o}\334\247x\226\262\277\204\300%[\270\207\314\277\235s\032_\200hr?\233\300\005\275]M\253?\323\000\367\237\251\025\302?\353\213\347\340W\264\303\277L\222K\001\000\367}?3Y\237\034L]\244?\306\334\"!\253\n\200?\371\212\013\223\353\236\274?|3\353>`\033\230\277P5z5@i\224?Se\255\333\177\350\277\277\354\375\200\346\367\246\301\277?\343\004\236br\226\277\356\336z\342s\206\302\277\200\340\316\336I\246\255?\203\007\227\340\245\363@\277Q2M\231\032\357\232?\021\033\001\034H\005\242?\364\275\235|.\336\211?8d\304;\000fn\277\331\337\002\236\356\033\313?2\264\266\000\237e\273\277\217#kGP\000\304\277\307\222\033@\035a\231\277\225\026\366\000R\245\226\277\212\250\354h\332M\303?]U\nB\370\236\247\277\212\230m\002g\204\313\277c\013b\0343\273\255?z\r\352\360Jq\264?\305\2626\031\227\242\303\277\346\001\3218y6\222\277\202\007\376\236\365|\301\277\t\003\ti\021z\257\277\240\272\342w\r\331\264\277\234\020!Kr\002\267\277k\017\030w\305\204\217?9/g\031V\257\266?3J\372(\341\221\303\277n\0355\211\356\027\301\277\201\022\017\376?;i?6\'\'\301\270\247\223?\2102\257~\307\313\313\277\212\034U_\3630\226\277\215\3559\331\233R\260\277\237\213\351\266\002\022\306\277e\370\364}\335\016\307\277t\022\204\n\222g\264?\007$@\321e\377\226?\364\335\207e.\316\230?\277\372\177\242\240~\255\277\374\246{`q\177\245?\361YK\277L\255\266\277\364\274\341_\200T\275\277?\300%\303\233|\252?R\202z\n\353\214\265\277\367a,\357\204@\211\277B\246T@\334\000\242? \304\230k\006\365\203\2772\371\260(60\310\277\263l\275\021\243\010\231\277\225\351<\317D}\316\277x\210R\305\014I`\277\217ND\\\214\003\321\277\376\344\253\301Tc\232\277\320\337[\303\322\341\247\277\363\213@,\003\035\211?2\003t\343\006\021\247?\232\021\006\347Q\306\227\277\224,C\366#@\217?\006\207+(\213I\221\277N+\340\371\240\302\277\277\236\273U\276\004\372\304\2770cm\000\364\003\266?\226`\355\377N\240\303\277q\232\357\364\013\365b\277q\222\203e\256\004\300\277\037\237\322\271\211w\301\277\220\'#Y\311\010=\277\370\227m?\312\234\250\277\345\200\014\006\2372\217?\264\252\312crO\326\277\300C\024=7\007\236\277O\323\343\316\267\313\265\277\345\233\216|5r\311\277\020\374\024l\310\344\302?\304\363\214\\\273]\315\2772\306\202 \022N\265\277o\221(r\220)\271?\001\017P\206\230\376]\277\202\335\270\336\231\375\273\277r\002\233\277~\222\253?\241\202GD\306]\300?\256q!\202\266D\261?\374\022\226\035\207\346\310\277\341\232\267\301\273\"\303\277<\020\233\300[\275\312\277\210\231\217\001_%\221?\002\371G\034\010\202\242?\335\227u\367\347?\267\277Q0\373&ag\223\277\336\235)2B\221\277\2776\336\256{Q\331\231?\337]C}\206\310\221\277\t\335g\215(\212\271?V\357\366\275\"Hq?\347A0\375\001\305\263\277\330\304\033\374q\271\313\277\216\203\277\035\260D\322\277z\353\025y\006\313\224\277\334\303p\302\374Ms?n\330\370D\205\207\260?a\017\222\252\222m\263\2779./5L\261~?p\274\313\335\230\262\210?(\"3\177\233\261\247\277\004\035=_\2534}?\351\253\026\236\270\230\263?8\2565JMq\262\277\274\031r\302=\374\254?\330\210\273\325\316\213\310\277\234\274\264 \025x\211?\\wN\016\372-\247\277<^q\006\271j\304\277\352L\225\200|/\224\277\352I\221c\210\357\251?\254\314\027\241?\200z?\263\272\315\002\212\344\245\277\257\205\315\276\372\021\262\277\3654\300\002!$\241\277X:@\254\016\353\270?\006\034\322@\335T\277?\356]\331\276\255\337\274?,NR\354\2528\262\277\227\227\243\227\266W\221?\314\034\375\365+\031\303\277\357!7|8l\245\277XG\341\2740\200\261?+w\004\017\212\350\212?Y\036\377`;s\314?\253e\3066\004\"\263\277L\031\366\203\323\345\306\277\364\035x\214]h\265\2777\232\364_\355\315c?^\252\210\211\274\033\302?h\'\336\\W\247\310?\242\272\322\225|\252\275?:w\273^\232\"\261\277\005\242\253\235\366\316\303?\271}Em\321\270\320\277\270\234Mr\200\223\203?a\255\024\341\252\333\236\277\031\'\370\205\333\312\310\277\271W2<\000&\234?@\316a\342\202x\243\277\276\257\200\370\257b\321\277a\033\366\035\361\233\241\277\335\332d\202Q\261\255?\202Mc\234;\321\214?V\362\327\202\343\324d\277QIB\307\263p\226\277\224\274&\343\231I\245\277\000\264\004\036\272\316\236\277\002\252s\235*\005\241\277\313L\345\304\211u\237\277\255\331\273 \321\355\251\277\264<0\374\267}\312\277|\336\246\242%M\262\277\031\262\025\217\346#\266\277]\370\342\007\276\324\276\277v7$\365k\331\200?h\266\247\273\035\247\262?\026y~\376\247\225x?\201\362(\251\324k\205\277!\340,\377\003\247\240\277\373\265Ab\305\355\233?FJ\362\335_\235\250\277\312l\024\202\352Y\326\277\277\253\033x\200\352\223?R\365\310rTf\241\2778\034\264\\\330\310\243\277\037\334\235\265\333.\274?\001S\304\361\225\243\200\277\365\3556\005\270t\220?\317\212\240\030\366\207\306\277g\\\347\310\222\205t\277\246\335\236\326#\303\273\277J\337Z\3345\327\301\277^f\330(\3537\245\277\2602,\334x\313\241\277\236\310\233\025\264=\276\277\311}\345 l\241\264\277\021\243JAu{\277?DC\207?\021+\263?I}\323\240\332s\220\277\324L\010;\347h6?[\337\023-q\313\271?\261\354\034\337\353_\206?\023n>\035\253n{?\353\357\235\177XB\273\277kbL\275\030\021\246?\263\242\274E\026\037\304\277/\257\022\342\200\014\327\277\371\\\226D0\355\265?U\262\340\241\317\027\232\277\313\316\252\350rw\302\277\030\362c\'\027>\307\277u|\031dI\273\240\277\033\024\004@r:c\277+\"\007H\333\310\232\277x\254h_\270\364\267\277~\032\241\346~c\224?\272[\304=\267L\257\277\202Z7\236\002r\235?\000\301\345\000d\031`\277\325\370\371\255\245\231\261?0\373\216D\334Z\266\277B\306\252\240\345\342{?\261\225\247\336\340,\261\277h_\360\236@.\254\277\232>\277\030_\356\311\2771QR\232\254\325\262\277.\336\362\005\353\007\317\277$\342\260\253\376E~\277\250Af\241|\305\240\277\007|\346\373\225\r\226?\201\343\346\337$\211\246\277\0032*_\206\265\270\277\351\265\346\202\213\371\252\277\373\304\teD\026\311\277A\251\254\\^o\305\277\332V\263\316\370\276\250\277zKb\336\035\370\241\2776\247[\305\2054`\277\377\\v\200\016\020\263\277=\366\016\022\3755\304?\022\304\026\016\306\200\265\277\035\311\272\277G\353\240?\'\333\237\017\2770\245?oC\020\020a6\277\277\025x\202X\221,\300\277\250\210\304\036\211\200\241\277h0x^K\304\271\2777\363%\000q\352\234?Izg\240qb\264\277\264\003K\001\253\233\307?\007\220\312\3428\317\224\277\306\345\347\242\373\033\251\277\002\237\335)6\311\311\277\271aF>\320\206\276?\203\230\327S\243>\260\277\"\224\357\000\354/\217\277-AK\371>\214\204?\000\230\r`\001\264\272?\233\264\302W\350A\277?\\\220\353\256\005 \270\277\331\356\221\032\t^l?2\316\0310\3142\267?S\212\310\372\3162i?\370\252\021\321\032I\271?$\212\332G\270\332\262\277\307u\000\202A+\332\277\031\035\220\204}\273\314\277\203\326G\320-\256\266\277\235\354\217\305pT\300?\345T[\177\205+\274\277\275\r\336\025\311p\302\277\357cX\0078k\255\277\010\2777Cv\311l\277\2670E\230&\225\313\277\335\254fB8\013\224?\2172\003\021\271K\271\277.P\326\230\245W\306?\236\250(;VY\206\277L\211\037\301_\\\254?\320\022\236\257\335f\247\277>\225}\236\331\212\262?\025\257\330}\314\251\236?\231E\213\340=\017\242?!d\315\206\004\245\247\277\217\372N@\321D\266?\211\1773\214\026\373\275\2774i2g\246I\301\277\337U5_*\330\260\277w\312z\234/\027\257\2772\263U\235c\255\242?\022\201\321\202\243\246\300\277\0207\257\003J\267\274\277t\224\346\003\300\200w?\177\213\312]\266c\307?4\374\322\233\204\344\246\277\035p\300[\336\244\300\277\261\353\213B\232\312\253?#\356\271e\352\"\313\277s\270\240\277\323\222e?\214\210\377\307K/\267\277\354\257\354\274l\277\266\277\004\317Z]\220%\260\277\2776\023\272\350\267\260\277\373\257s\323f\234\272\277\030\000.\361\025\027\254?\303^\247\337%;\276\277\216\031\321\013\261\331\263?\222\346\023\242\021\246\242\277eZ\325q\200\211\276\277\034hx\222\370\005\273?\271\330Y\231\225\022\306\277!\275\023y\263\202\311?_\217$i\200\320w?9b->\005\300\255\277aP95\266(\216?MG\306\213\001\351\247\277\236\372\204\017\314\241\212\277\267\344\247\'\342c\327\277\274\274\340\243c\246\251\277\013\020\025\203\370\342a\277\034\246\307\000\232R\234\277\376\037A\240\034\315u?\030\271D\201\200\255\243\277_\211==\201s\256?\375\244\332\247\3431\272\277e/P\\\322t\243?\'xuTVO\263?\337\227e\025W\021\277\277\341fm*\275|\300\2778\302e\2775J\252?\205rw\335(\240\227?K F\204V\222\250\277P\261\270\237VH\214\277\335\316\337\000\n\340\267\277\254b,\376\257m\227?\002\302\325\241\235J\241\277-\266IEc\355\312\277\272\271\370\333\236 \231\277p\253\237\205\244\031\230\277\013\261<@\336H\243?\215L\251\023\034\323}?\003f\327 @D\254?\262\330\303\352\321L\275?\325\361\261\036k\204\263\277\325\000J\350\323\317\252\277_\030<\216\027\271\265\277\371}\244-S8\317\277-a\2477\'\037\250?\231\327\251\243\367N\240?\335$H\235g\211\303?\005\333\014`_%\204?\023\024Xc}\301\277?\363\016\246\027kn\266?\030\n\342\200\271\275\224\277\035}\243\210\322\377\256\277\357\366[f\321n\230\277\265\221%R\036\006\256\277\267~v\227\366\023\307\277\r\272\357\336r\361\264\277\177\306\236\240\301d\256?,\205\274\365\314X\231\277\220H\350\"\026\025\246?D\021\367\375@^\304\277\000\375B\270\227n\261?A\334BH\367\"\237?\036\325\236Ew\330a?\310KP&\342\353\300\277\3143@\2635l\275\277\345\025\241;5U\265\277\037\377\232\346\374\230\300\277\333\313\343T^7t?j\014Q\275\351!h?\343\323\037>\t\234\255?\314\004\022\000[\337\274\277\026\036s\0372E\206?\r\221p\2558\315\235?\337\177\032\255Y\035\316\277\237\362\340\325\017\275\304\277\302\342\r\274\234\212\307\277\221\024\354\032\210\300\250\277\242p\250\245\332#\255?d.\374\"\231\274\264? \332\001\266\007J\223?q\353\250It\277\273\277\034\225\274\266\216\\\304\277\260j9e\250\351\302\277$KA\022Q\247\317\277\223_~(J\242\204\277^\\\262C_\356\241\277\203\276x/\214.\236?K.\\\334\232\002\240\277\346\224\326\230=\364\230\277\311\256=~2p\257?\231\343\337\336j\332\272?}\342\240\207QE\226\277csE\221\004\315\216\277\")T\375k\365\251?@\377w#w\001\240\277\312L{\340\351\351\235?2\235)\266z5\304?\333\335\301W\215\210\262\277\201\3302\026\326X\201\277\357!\007C\"\017\253?\376\335\362\001Wsq?\371\030\327\2701O\234?i\340Y\030\250\340\232\277\177\261\214G\210v\226\277\220\330QI[d\260\277\357\362\271\202\211\031\253\277\027\035\373\037\201\273\265\277\003qw\006\250\321\235?n?\210\200\035\341\177\277\367VfBz\'\222?Q\374\243e`\301\230\277\315\263\355\017\357\224\231\277ba\353\306y\007\303\277\315\212\030\336\373\007\220\277\t7\3278\264+\300?\254i\346\342\322\245y?f\241\276\341\025s\324\277\311\355\362\010\311]\227\277)\204\243\036\201C\304\277n\376\035Y\022\003\227\277\214u\374\237\324:t\277\234\313|#\224\240\241\277\370\350\344w`!\274\277\367v*d\327\213\260\277i\221\3625\371\235\206?\006\035c\335.\352\301?wS\302\372\334\\\300\277K\352\343%(\023\205\277\366@\337\241\036^\246\277h\'\271\272\331\343i?R\357\375\233\204\303\256\277I\216K\207\024$\304\277N]\032;\270\246\322\277\034\005c\340\233\017|?]\203B-\233s\241\277O\217n>\225\336e?b~\031\002p?G?e\300\376\220#B\305\277W\375\370\350`?\302\277\333^\361%k\014f?mNS;+\270\237\277Y\262\351\\\337\364\225?\016-\025\310\252\020\313?\252?\222\367Il\221?\236\230\2228m\276\301?P.\376\330ZVG\277^\245A%<\016\204\277\350)\342\334u\"\247\277\234\220R\340\3176\264?\'y\236\r3\023\244\277\257g\2769\022\236\302\277\267Vb;k\371\261\277>\000\261\276\344\363\277\277\0355\354\030\323\243\300\277H\331\350\275\255K\300?\277,\212\252\241\005\270\277\226\350M\301\361g\260\277\367\342\201\204\005P\232?\006\230\340q\335\326\250\277\r\312\260a\270\000\240\277>s\260\340y\007\264?4\333\264\031\360@h\277\250\247\321\334\361\203\334?\004\025\372\005`(\302\277\357\177\323\375\224\021\275\277Q%\261A\262B\264\277\024\257\323\304\022A\254?\360p\335\302*Fl?\204,\352\027\025\006\306\277\224\350\331j\336\212\266\277*\216O=\334R\240?\360\314\333C\210L\245\277\204\035\013y \214\201?\024\020#\034d\246\221\277C\375\214\335\316V\242\277\232\370\223\017\302\236M\277C\324T\201 \341\263?\251\007\273\027N\210\261\277\236\225Y)\2518\325\277Ry\"%\311\265\265\277\372^d~E\351\245\277\314\231C\0136\231d?\272:#\361\302;p\277\310\317\210\312m\230\273?\3043)\204\\I\243?\237p\331\225Tux\277\2173\371!\020\332|\277\244(\206\232\327\307\253\277\177l\246\003\330\316\252?\377M\336\266\245D\302\277Nz\337\370\332\263\300\277\361W\301\24241\221\277\034OW\271H\010\302?\2437g\203\026\322]\277\245\020w\336\216\274\244?#\206\314~\245?\246\277,\366U\301\301A\262\277t\021\370&\372:X?,\373\t\302p\211\317?\274,\036\305\326\277\221\277\314\251\317\233\253b\256\277(\0358\251`;\262\277\"X\321\366\032H\302\277\003\341\313\303\220<\220?\0160\261\001*\377\310\277\220g\033\250!\344\245\277\"\224R+\247\230\271\277l\315\000^9W\227\277\0239\261\301\352Zw?\254J\t^\200\277|?\006\330&\231\305Y\253?\224CQ\301]\315\222\277z^\265(o$\205\277U\352\013\201Y*\236?\205g\247\276\252\265\247?%{B~O\217\261\277\020\312^cU\014\312?\304\257\232\337\027\264\277\277\006\220\353\360!r\321\277q/\342\233\243\027\243\277\361\255\274\242c \315\277\366(}\235\253\030\310\277%\321\344\3056g\315\277\300\332\266\307\211\261\207\277\0170o\345W9\263?\237\372\315\345\202\n\271?\230\002\251\177\326\035\305\277\363;,X\323\n\303\277\217\253OA\227\323\264\277\257L\021C\037\352\267\277\273\240\327\002\357\242\260?\314Y\327\034\253\212\226\277\2742\373~bK\251?\t\303\035\373\233\010\330\277\250C\033>\361u\320\277.\350\t\300I\027\246?A\031\333R\244N\274?\363/\337\200\352\255\240?F\314\342\201\245\023\211?g\010\tIMX\304\277=\335\222\177\332\346\276\277\346\216,\320Vt\213?\000\355`\'i<\300?\014\023\374%\230 \255\277\177=\304\336BY\233?!\247T.\371D\261?\r\230\321\331\023n\233?\225X\264a\226;\256\277/\034\373\236\000\246\251?\007l9]7!\214\277\224r1\345\307\210\275?\336a\352\031\210\206\265\277\372\n\303a\030\231\226?\226\330\214>\254X\305\277h\251\345\234\022\357\303\277\216@\027h\322\001\246\277R\250\263\002_\253\250\277B\363\265>\027S\303\277(\271\022$\347bj?\000\000\000\000\000\000\000\000\222\177\366\273a\357n\277\356P\301\237\351\276\304\277\376,\211\370\366\312\222?\211\004\266\367g\016\301\277\3132\202\225\\(\271?G\352\034\207\352{\313\277\2139\245\017\237l\271?GvB;\351u\267\277\035\220\332}\364q\210\277\217M\336?\227\"y?\007\227\337\200\316X\227?/\263\344\376\336\376\261?\273\244\227<\221lu\277P\277\260\241@D\321?A\335Y\036\030~\301\277[\314E@\351rh?\0130\306\345\223\354\\?S\0220\277u\363\246?\231\357d`\262+\244\277\2246n\224i\362\242\277\034\260q\036\312\247\307\277\203\"\314\243\321\323\246\277\232\204\335@\031\224\205\277\017\2236v\005\262\305?\366\3051\324Y\024\271\277n\356\330\235(\350\301\277V\260\007?\343U\255?\177\001\367\033qq\300?\315Z\247\035@\267\262\277\320V\271b\223t}\277\241\335|~s\032\320\277Z\311\330\032[Y\324\277\033\343#_\222\225\270\277\035\272,hR\361\300\277\2234E\241\341\244\270\277\035\351\257?\340\364w\277\2112+F#@\303\277T\3115B\225S\252? p\023\244\010_\325\277\310\361\236^\204\204\265\277\357E\261e\304\310\220\277\230\336.\226J\301x?\225u\346\273\347\002\315?\032\207<z\252\340\241?\323\210\3646\221\364\264\277"
      }
    }
  }
}
node {
  name: "normalize_element/component_4"
  op: "Const"
  device: "/device:CPU:0"
  attr {
    key: "_output_shapes"
    value {
      list {
        shape {
          dim {
            size: 749
          }
        }
      }
    }
  }
  attr {
    key: "dtype"
    value {
      type: DT_DOUBLE
    }
  }
  attr {
    key: "value"
    value {
      tensor {
        dtype: DT_DOUBLE
        tensor_shape {
          dim {
            size: 749
          }
        }
        tensor_content: "\340\275@\234\311\357\327?\366\256\244\2115d\303?}\210\025\207\226i\306?4F-\305<\310\275?\343\007B\r:|\265\277{poe&\244\307?\330Y\200\370\361~\260\277\346q{\366\032\212\262?\354_\243\366lg\260?\213\375\266>\344\341\250\277\347\200\345\207\230\262\226?\350\275\265<\244R\261?\352y7\026\024\006\257\277\353\324\t&\006\232\264\277\361\274\204\245\342H\227?\314\241\373(\331 \302\277T<\r\234\\!\267?!1j\214\020\375\270?!w\021\246(\027\313?\202\0039\254\231J\273\277K\204\001\334\020\t}\277\374&\342\347\236\371\262?c\3618\230\217\234\273?\023\356\n\207\"\000\237?0}Th\305\334\216\277\2266\262\261f\362j\277@Z\357y\366\303\302?\375L\275n\021\030\266?\271Za\331P\332\307?\242\023|\262\346\360\260?N\343j\246s,\316?\251>\317 \267\277\257?lW\256\330\333=\263?\346\375\025\270\220\325\226?`w\272\363\304s\244?w6S=s\270\250?\365\034\337~\303\273\215?\211\366\210\003\256L\267?\302\337\016Xb3\301?2I\270\322cB\264\277\203J\340\377\\\356\273?\275\021\345$\367\350\276\277\223L\3633\232\001\302?\357\256>\024\210{}\277\\\361\303\367\264y\300\277\2657\370\302d\252\331?\231~\177\006x+\223?\023\350\033\352\332\213\262?\255\202\336<Q\351\310?\010\240\346\036\361\257\304?\273\270\215\006\360\026\301\277\316f\037u\205\210\320?`\350\251\277rE\230?\344>\324\336)\342\217\277,\260b\031d\220\210\277\027No\322vD\224?1\350\262\010-:\205\277\\O[\300W\366\326?\025\301b\201m\314\274\277\303n\022b\262\341\265?D`\010\3406\270\216?V\252\331=XJ\262?\026\206\351\367\324\034\272?\034\303R\0233\261\326?\n\317e\031\313\274\237\277N*;yh\n\300?\345\327\341x\326\037\231?\3304\010\326\345R\275\277\262m\334X\014\373\232?\261A\262\302%\256\263?\213\030\2704eD\260?\266\372Ed\263~\250\277\001\34615\3172\276?\r\362\202\241qU\272??\317\256a\327\r\245?\022>\010\277\334@\313?\305\317\373\326\271/\230\277\333\022\204\356<8\202?\200\367\310\305\234\220\270?)\334<\037\257Q\252?\243\311\244\no$\307?\201v\352>\276\014\265\277\265m\326\350\356\235\311?\336nec\007\220\251?7\212\017`O\303\270?\032\035-Z\302R\300\277\003\367\321\343\326(\261?\223X\261;F9e?\370Z\017\340\246\237\266?\277\323\350\376\177\326\253\277\350F\036\251:\273\276\277z\3255 cj\232?\373\344\322?[\343\250\277\200\003A\035\342a\273?\266`\334\037\205q\253?\227>\232\010 Wh?\033\305j\332b\n\304?U:\362e\275\357k\277\373\251\226\031\333\220\311?\216\314\315~w\007\253\277\240\002\305gi\251\221?.\010g#W\362p?z@\023@\265j\272?d{F\205^}\321?\334^!_\201i\263\277\275^\263\277`\365\225?q\274ml\227\262\243?\n\315\340\265l)\300\277\374\235\365Bd\005\273\277\346~^#\017e\324?\321\223\353\323\025_\215\277\220\362Y\277\025\340\330?%\242\203!\267\316\260\277Z\210>\2729\336\202?tD|/\327\005\263?\333\013\324{\215Q\322?\335\370f\3357%\305?$\323\241\323\363\356\322?\035\221\020a\323\265\302\277Q\025\360\276l3\264?\350\225\241\340\030\270\272\277\220\000\250\301\270\304\302?\202\307\032\242\310\342\260?\352\331\203{+3\261\2776\211\346\246r\377\330?\326\313\025\374;}\246?\323\231\372\307\342\001\232?\006S\033<\026R\256?\3553\3026=\203\247?\346\362\325DUB\325?q[\031\\\214\344\273?s\036\343\3046\255\304\277yy\266\036\360\006\272?\013\244\233/\274\263\244\277\013\211(\344R\256\266?\345ja\237\313\227\244?r\327\032c\212\346w\277(\240G\224\017\244\275\277>\307\252\265\356\356\301?\246\371\370\276\227F\222\277WL\370\347\232\260\307?b\326\213\241\234hw\277*\264\244\212\177+\253?\035\367\030r\215K\262?{\244^C\262x\270\277\352`\346\003N+\241?\233\010\234\036t\006\277?\273^\036[du\216\277\301\343\231\2374\267\274?\302\242\321\006(Y\221\277\0231_=r\224\267\277@\241\"w\246\n\260?\014q\n\375\334h\256\277l\206\310\247\317\247\305?x\242\252]\241|\246\277xC\032\0258\331\274\2773\227\247\265a\373\303?2|~\367\022S\265\277\372cn\177\255\231\273\277\357\374&=\241\221\300?\2325%\027k\321\260\277\346n\235\240\311U\304?\3349\244\203\273\324\241\277\314\310j\004,\003\277?8\367\\H\265\277\227\277\260\353Q\227\020\034\304?\201\227\0316\312\372\310?\216\342\177\237/\305\300\277<]\0061\nay\277\267\375~sw\204\273?\215\031\227`\'+\322?$\255\257\260\013\377\204\277\2642\206\336\207(\263\277p\335\336\177uf\306?\026\201\373K\234\246\320?\341\223\370#\337\201\251?\346\001\3218y6\222\2774\345\371\302\032\235\300?\005\315|A\352\372\232\277\235\251\306\001\252n\275\277X\354\001\203<l\247?\310 \034X3\327\271?\225\315$\003\243?\331?]\027\237~\'\230\245\277R\240h\201\352]\265\277\302\233\332\276\354\303\275?\372\360\352$t\372\270?\274\242\245<\004\037\302\277\276\315,S\335m\330?\220\262\345_B:\263\277Mu\022[\213`\277\277!Q\221\330(\312\310?g\202\346\025}u\211\277+\271/\014\375\270\250\2771\333F\352\332j\263\277^\234\031y0\224\270?{Y\311}ah\314?\276K\360 R\340\232?\200|l?\327\306\235\277\027\207mj$2\306?\030\262\333\343\\\365\254\277\200\275>JWv\270?\367\331\022\003n\'\325?\271\007[\313\350p\273?o\224\013\201\233F\276\277\200b\253\236\250y\255\277OW\373dZ\325\301?3\366\312a\234d\246\2774hdg<\327h?\364g\303\212\350\021\246?Cn\312\201\014\320f\2778K,\235\3152\327?\351\035v\370\316\334\253?R\021\341>\366#\305?\266\023\241\350\354\252\307?\341\377\267\'\202\027\274?\227\ndU\010\324\261?\377k\355;\2168o\277\321\031 \352\241*\242?Q\204\256&J\240c\277\206K;\363zI\270?\253\265\315\3401\264\300?\361Ss\276z\n\261\277\n\334\025U\032\214\265\277\370\227m?\312\234\250\277\253\t?\304H\347\325?\313\037_\204!Y\253\277\360\350wH\316\025\302\277\004\310G\300%V\252?A\364 \024\306\334\246\277\373\206\323\223CU\323?2\205\'$4\252\225\277\325\030\276\317\002\376\265?S\261\316\204h\245\306?\352p\201\277\360.\265?\366\225\007\351)r\271?)\357>\"\001\376\300?\347\315\372\367\215m\266\277\370N\222\317\247e\277?hk\351v\233\334\260\277\276\225\272\236\307\254\301?\220\316+d\317\032\261\277\306@\2151f\001\276?e\204\345?\014\303\273?\207\266\020\242\204\262\273?\000\000\000\000\000\000\000\000\211\326\006\376\".\271?\234,Z%\375b\243\277\375\351\365\335c\037\274?87\\\232\021\224\320?\212Q\017\205Z\311\212?\347A0\375\001\305\263\277x\\\330\303,\356\245\277\276\333\335\177;;\307\277k\205D5\200\222\301?_\324\315I\030\233\303?u\004\347\301\032\275\272?R\257\264\274\r\222\257\277q\257\314[u\035\307?F\304\336\325\274t\302?\260\000\246\014\034\320\303?s\354\352\237\361N\327?.\316\265\273ID\325?9\2565JMq\302\277\244`\005y\357\010\234?C\223\243\204\211T\307?\215\320\210\377_h\234\277\357\332\020\251\212%\254\277\237\331\"\'\033\250\301\277\301P\352?)b\327?\247\211U\273\332\025\236?\254-\206\274/x\257\277Y\333`\035\321\201\224\277oZ\225\351<\317\240?(\262\215z\263\306\227?\331A\302\203\2503\326?`i\241\343\361T\251?\252\263\234|a\317\260\277d?\322z\324l\231\277A\233\177h\244\255\265?\365Uf\010\317\235\306\277+;\222\005+\322\264\277\240\000\304<\257\241\272?\027\247\020~\230\363\265?\311k-\345\337\233\322?\330C^\203|X\315?lO\034\202\333A\301\277m\036\335\301\265\376\251?\023U\t`\024\316\303?\205\2747\351*\233\312?NVV\344!\335\322?3)\226?\005\336\271?X\rxO\324\210\273?\005\242\253\235\366\316\303?\312\351*^\336|\271\277}\252\022~\014\312\270?2\340e\364N\006Q\277\275\354\256\036\275\202\312\277\305&*\0029\264\271?z\306[:(\331\301?\377[\250\200\244\035\246\277\276j\247\336\001;\202\277}v\363fj\230u\277\304\273ua\030\256\327?\301\";F\344\201\257?\304z\243V\230\276\277?F\354i@\352\232\267?\002\025\247\2755n\301?\375s\352-\2224\260?y\037\276\201\006\361\261?\261r\242<w\253\264\277\016LM\006pH\261\277\007\347\351\342\212\031\246\277\\\230\304\332\221J\212?\304d+\341i/\252\277\264p\037\332C\322\241?\316\351Y\340\220\345s?\027>\227\263\273c\200\2778sf\300\373\330\253\277\236\310\274#\235`\247\277\017\342V\203(F\267?\306b6)N\263\201?\370fapI\345\252\277\240l\251\007\365\302\264?\257(\343\347\330\244\275?I\351vONO\204\277\201\274\r 2\333\323?c\013 \000a\365\270\277\322\200\3224Na\206\277\035\202\364^\306\336\315??j\377B\020\231\222\277N\032\325\257\225L\221\277\356M>\003\013\334\256\277\365F\316>fR\260\277I\006\353\305q\334\301?\266o\346>\326_\313?\272\205\234a\344\021\226\277I\026I\036\374\002\343?q\241\341\203\215\241\325?\367Z\257mz\345\265\277Ar|\376\305\375\267?\322\217\322\341+\376\256?xy\235\201O\373\272?yp\361\234\237u\220?\006\023^\006\214C\303\277\t\"\305\337z=\260?c\213\356j\003\301\302\277=\032\306^\241o\214\277|\350i]\366-\261?\242\210Q\177\331\027z\277\304\010\002\340\2574\267\277U\t?\006e\371\301?\354\223_\343S0\253?\226\204\2700\332\374\242?+\"\007H\333\310\232\277\341\326\366\331u-\266?:=\255\252\260\374\301?&Y\301N5\243\262\277\036\271\240\204\272\304\232\277.\350\234#\033]\322?\325\370\371\255\245\231\261?\253\034 \271\261\260\262?\031~G\277Cr\251?\177un=\267\216\260?\r\000\260\225+\227\311?b|=\004\372\351\303\277\202E\253~\230\311\256?\226\360!4\304\251\263?\356\034j\336\350\230\210?8UW;\023e\230\277\222}\353\0364\026\327?\257\206T\351\330U\201\277QUx\002\'\374v?[\300\"\3047B\232?\275\\\233\3700\234\276\277\351\257\241\345\212\234\241\277\323v~\027\327t\236?iS\330\271\'\027\267?\237\3361\341<A\244?\221Tt^B\211\270?HI\325\227!\345\300?J\340 kW2\266? \317\323%\210_\326?W\246]!\263\200s\277\267\247\026\327\031[\305\277\006\230\\99K\261?\3422\331\005\244\371\301?;\355\235\217:S\263??D\342\237\3134\242?\242\366\002\203\t{\231?\251\010`\230\206@\301?\261c+\201\367\002\272?M\211\342]G?\320?\307\220\255x4\037\301\277\0031\277\211\327\253\256?Y+\226\377\3516\241\277\350.\230\336O\244\247\277\361RO\276W\257\231\277\250)U\344\010\300\325?}\307\327;/W\317?\005\024,\006\3665\274\277\200v\362\257\006\244\261?\245`2\372v7\317?-\377^`\017S\261?\201\365,\306\310\253\313?Y\265\265\317t@\320\277E[V\340\262\252\262\277\221\316?H\266\275\232\277\263\230\226`\212U\264\277\311|\027!\002/\327?\377\337\277\026G\'\300\277\016\n14*\262\206\277\002\260p@zk}?z\002\233R\342c\247?\340\254\230|y\"\261\277\232\210mA\245@\324?\0049\327\031\247m\220?\222\3076\035\277\177\324?u\351\326\240l \270\277)\203\027;\351\226\274?\320\022\236\257\335f\267?\361\346\272:\021N\327?:\022\334\006\275\320\300?\235\002^;X\314\230?a\\`E\374y\301?\223\303\217\200\275\001\274?\372\264\0167u\330\311\277\024\275c\343\207k\242\277\236\274\002\260\205I\270?7\002\257\236\254\373\262?f\260\024\217\254x\274?\222:CiVS\275?\033\032\211\257\372L\266\277Q\n_\0042\340\331?\236y\030\336\325@\320?\024\036\331\001|\\\232\277\342#g\003\3369\253?t(\321\377c\002\237?W\340\rd\233&\251\277\205\326SC\3149\244?7L\270\200e\337\243?\033d\365\273n\031\265?\035L\365*SH\266?\350\244,\200\177\003\250?$w;o!\227\261?\022\247\254\t\026\305\305?l\234R\000\272\237\272\277\325)\207\375;\356\326?\236\340|\231\021\246\222?\354F\006Vau\265?\034hx\222\370\005\273?E\032\252\234\325\206\272?\322\010\221g\362\250\320?@\276c\374$\014\272?-n\033~\242/\177\277\021\244\224\010;b\246?\326Q\354\240\306H\222\277E0\001\004\033\363\222?\357\321U\231\255\345\265\277\320\316\355N\014\003\275?\206\256\220.@\037\204\277\251\273x`|\250\266?8W \274n\370\260?\'\366\2570m\315\252\277p\2540\"\366.\325?V\310\205\230\205U\306\277\271:\257\232\257\336\233?u\336k\255\324\330\325?\317\177\264\244H\343\304?\350wd#E\241\227\277\370\321\333e\340\374\261?\266\367g\016b\312\264?\263#z\276\013\200\265?\2324W\027\001_\271\277\035\\\327\273\201\372\256?\316\245\2568y\352\201?\346\267,\202\246\365t\277\'\356\030!\263\350\270\277[\3220\000}\360\204\277b\345\310\261\222\342\265?5\250hrR\024\262?\322\270\344v7h\272\277y\323%\312{(\306?3\223\342\302\005I\330?\23700D\261\211\300?\325\205\016p\367(\304?x\264\305\303\350\252\216\277\233\233\343\232\n\n\300\277\272\010\235!f\300\271?9G\231\344\262\027\327?\253\311\261\307\324\365\237\277\207\"\332\027\233\031\235\27764m\030h\353\303?\364\261\324\335\351\214\233\277\030\274\236\236-\326\253?/\225\223]$E\256?\357\366[f\321n\230\277/\ta\177#K\276?\372\222\273?F\217\257\277\350 \340\367\0144\301\277\245\t%\335\340\325\302?\023\343\210\367\024\347\263?\220H\350\"\026\025\246?\313\215\262\026P\274{\277\036\215\253\340\243=\275?\027\205\227\277\306\236\260?\206\324\345{\343\367\224?H\357\327A~f\241\277\340\325\216\274U\322\243\277\337\016\261\032{\221\221\277a\234\307z\315\037\265\277\323\314j\354\330)\265?\236\205\235_\035\222\262?\032\336\254\301\373*\277?\217\006\001C\240D\275?\"_t?\310.\304?\344\247\275\375\303\332\245?\231\371\217\376\367\335\261\277\237\362\340\325\017\275\304?qb\250\300R(\212?Z\306~\375\255\360\276?\261\265)\344kK\325?d.\374\"\231\274\264?\312g\201\217$\265\264?W\244k!&\263\256\277\\1\n\037\235\374\243?H2\355\223\212c\264\277\250\n\231m\237<\273\277\246\020#\337\000\016\262?\215\212\213\345\216\345\252?\320}9\263]\241\265?L\323\261\224v\264\203\277\177h\277\335m1\177?@\355\001\004\275\001\306?\017\216\202uVj\312\277p\320^}<\264\322?\222\3708z\314\245\226?\030v{\275\271G\324?\017\224>!\371\322\260?\000\3675\305\365\205\226?\315Oy\215\300\314\263?\024B\007]\302\241\241?\217\347\257g:\001\261?\324\267\023\277>G\265?\364\342\202;iD\262?tq#~(\305\260?\206s\233\335K\373\251\277\376Af_`\363}?et\316\274\rK\246?\357\362\271\202\211\031\253\277\004Q\343\035a\312\255\277\373}\030\204f\225\326?*I\270?\000q\207?3\371\013\342\250\001\310?Q\374\243e`\301\230\277\007\222\275\276\313\016r\277 \335\276\375o[\301\277\016\31638B\355\301\277 \356M\200\037\235\320?iT\367\000\221\t\244?b\304i\201p\027\231\277\037\342A\240\343\375u?\003k\213!\357\013\254\277\262{*[\257\337\203?\350\\\376\001\336\233\304?\217\341\363\273\227\230\257\277\255g\335F\320\206\220\277\320\355lb]\351\243?(\246\361\\\366#\233?W\001c\"J \324?\265\006O\036\237[\235\277\022\303\314F\000\232\225\277\302m\235\032\220\006\225?]\235$\334\262\343\211?P_d<)\027\253?\030\2306\230]b\311\277\364\035W~tE\247?p\345}\000xb\227?Ud\007\244\343\273\227?\027\335r\334\306\262\325?p\221v\001\001\373\260\277R\261\326\365\260\274\230?<\372\224\240\025\321\270?\351\350\r?\214\014v\277\177\336\361y\007p\305?\253\233\244\\\216\225\324?\216\247\212N;!\321?\357\005\2400\254\013\231?\342\032#\002\243\205\330?,\346\352>5\233\246?i\\0\237In\266?\343\213\005\244NW\253?/\213&\243\014\315\324?\354\242\307s\246\236\266?1G\250||\000\301\277\335e\037a\241\241\250?\232\003\251\271\201\247\320\277\006\343\226E\027\212\261\277\233E\336(hI\274?)\340\350tjx\234?\237\343;\342\244\361\244?\367\342\201\204\005P\232?\261\3664\276o\267M\277>~\377~\342\024\253?\006\352*c\2276\251?\312\036><\215\254\260\27783O\255\004kQ\277YRj\006#\274\300\277\236\374H\327mL\301?\321^; \"\030\271?DG\027@\235\227\261\277@YY$\353E\234\277\321\003\037\203\025\247\271\277\234\264\231\330\266\007\306\277\200\200\224\\\356a\227?\017\343\177<\005\n\301?\322K1\254\207\324\275?\024\020#\034d\246\221\277)W\307\335_\276\253?\266bz \204\020\270?&\333ed5\002\320?\332\356\014\275?\212\240\277\037\207hD\316\232\202?\2306\230]b\362\274?x\275\260\014\334G\227?u\317\250c\017\231\244?\365\301\317\013\271J\264?\221+\365,\010\345\261\277.&O\274w\022\320?(c&\230\004\204\233\277At\000\336R\0257?\032\327\205@\2528\265?_\313\320\035i\225\330?\000\335\237\244#\255\300\277\215\245\037?\341\215\303\277\3621\246\000\033\207\246?A9\300\202\352\325\263?\033\252\246G\372\204\221\277\211\217}\000\272~\256\277C\256\324\263 \224\217?\r\337%\345\254W\310\277\231\335DA\261\224\265?4\250\r\271\337\302\311?f|\251\351\304/\266?U\376\357g\374\353\273?\332E}\004\221T\223?z\376Q\'\342\245\300\277\206\233\245\307c\304\255\277dH*`\366C\271?\261\234J\'\216\023\300?c3\307\277\275\325\252?\263\200d\225-\355\276?Z{#\343\346\216\275?h\316\331\206z\217\245\277T\001\013!f}\245?\217\220? \3516\322?\027\206\315\242\245b\240\277\214\266\021\354Kx\271?ym>\307\252\265\267\277&\235P\241\035\344\301?\227\275S\236\314\001\323?$\335\205\234\255\362\312\277\021\n\276\'\336\032\271\277q\265%\335\\\035\220\277Vw9\340K\305\272\277-\277\035\362\3408\222\277\304\340\355\203$\232\243?\305\2738\376\377\220\253?\0075\2157C;\311?\276(\273E\322\001\222\277S\250\327\177\267\246k?\036\033\036N\242V\275?\261\242\212\013\325\007\270?v\025R~R\355\302?\310\007=\233U_\325?\206\302\327?\236I\244?A\243\317\242\322c\301?,\367<^\314\277\320\277H6\013?.-\221?!\336!b\326\215\325?\270->\303\243f\325?1\006\367\177\345s\305?Sq\360@\365\363\275?\331\247N\315\006\025\263\277\262\211\243\335\256\270\210?y\331\261<\0104\230\277\246H\031\314\272\332\305\277S\361V\310\"\356\300?\272k\t\371\240g\322?\014\247\343i\255\363\211?\030\211\323\300\304\\\243?M\306\010\023\014\010\225\277\2313\323\244\261\t\324?\323\202$\247\007\351\227\277G\214\340w\272\220\313\277F$\351\036\002\\\300?\267\377\274\001Ji\257\2774{\250\206`I\304\277\314\016\320\001rW\261\277\361e\2613\326\025k\277\257;\243\316X\013\261\277\337\215\344vXv\243\277Jf\004:\344}\220\277;\202\036\341\351\322\227\277)zx\200;\021\253?\361\211m94\270\307\277^f\032E\275}\307?\362Ve\370\262a\274\277M\023\266\237\214q\311\277Nkug]\013\221\277o[B\333\275\036\300?\232\223\274\337\r\316\321\277\033\255\027\001\035\177\277?S\250K\037\352\331\242\2779\342\332\232\276\350\326?\305\310\324Uh\275\306?\252\237\324\352\355\307\272?\355\256\375\256\031*\260?\202\301\211v\202\356\214\277h7\341\373n<\320?u\357\331!\233w\325?\010\201\004\341\344`\271?\312\024\217e\243n\233?l\310\337\300[U\233?\237{jP\217\310\260\277\233\334\326\263s\334\260\277\232\204\335@\031\224\265\277\310H\017\246\325N\270?\263C\374\303\226\036\205?c~\260\204\234\224\266\277h\253l\001\234<\265\277\177\001\367\033qq\300?\3561w~h\036\246?\347s\254Z\353\356\267?\254<\036\206\230C\277?\340\020!\343\216\215\227?\354FW\235`\365\255\277\300\203U\253e!\310\277\030\214\351\300t\205\233?m\002\251\240\344\206\273?\273{\302\n\236\337\276\277\217OQ\3009\315\265?\200\364\340\375\327\n\205\277\261\375\314o\204\204\205?\"\302H\372w\'\234\277\230\336.\226J\301x?N\\\361\201\333\342\321?\237\033?\371`\276\311?\210p\304A\337i\306?"
      }
    }
  }
}
node {
  name: "normalize_element/component_5"
  op: "Const"
  device: "/device:CPU:0"
  attr {
    key: "_output_shapes"
    value {
      list {
        shape {
          dim {
            size: 749
          }
        }
      }
    }
  }
  attr {
    key: "dtype"
    value {
      type: DT_DOUBLE
    }
  }
  attr {
    key: "value"
    value {
      tensor {
        dtype: DT_DOUBLE
        tensor_shape {
          dim {
            size: 749
          }
        }
