node {
  name: "global_step/Initializer/zeros"
  op: "Const"
  attr {
    key: "_class"
    value {
      list {
        s: "loc:@global_step"
      }
    }
  }
  attr {
    key: "_output_shapes"
    value {
      list {
        shape {
        }
      }
    }
  }
  attr {
    key: "dtype"
    value {
      type: DT_INT64
    }
  }
  attr {
    key: "value"
    value {
      tensor {
        dtype: DT_INT64
        tensor_shape {
        }
        int64_val: 0
      }
    }
  }
}
node {
  name: "global_step"
  op: "VarHandleOp"
  attr {
    key: "_class"
    value {
      list {
        s: "loc:@global_step"
      }
    }
  }
  attr {
    key: "_output_shapes"
    value {
      list {
        shape {
        }
      }
    }
  }
  attr {
    key: "allowed_devices"
    value {
      list {
      }
    }
  }
  attr {
    key: "container"
    value {
      s: ""
    }
  }
  attr {
    key: "dtype"
    value {
      type: DT_INT64
    }
  }
  attr {
    key: "shape"
    value {
      shape {
      }
    }
  }
  attr {
    key: "shared_name"
    value {
      s: "global_step"
    }
  }
}
node {
  name: "global_step/IsInitialized/VarIsInitializedOp"
  op: "VarIsInitializedOp"
  input: "global_step"
  attr {
    key: "_output_shapes"
    value {
      list {
        shape {
        }
      }
    }
  }
}
node {
  name: "global_step/Assign"
  op: "AssignVariableOp"
  input: "global_step"
  input: "global_step/Initializer/zeros"
  attr {
    key: "dtype"
    value {
      type: DT_INT64
    }
  }
}
node {
  name: "global_step/Read/ReadVariableOp"
  op: "ReadVariableOp"
  input: "global_step"
  attr {
    key: "_output_shapes"
    value {
      list {
        shape {
        }
      }
    }
  }
  attr {
    key: "dtype"
    value {
      type: DT_INT64
    }
  }
}
node {
  name: "global_step/VarIsInitializedOp"
  op: "VarIsInitializedOp"
  input: "global_step"
  attr {
    key: "_output_shapes"
    value {
      list {
        shape {
        }
      }
    }
  }
}
node {
  name: "global_step/cond"
  op: "If"
  input: "global_step/VarIsInitializedOp"
  input: "global_step"
  input: "global_step/Initializer/zeros"
  attr {
    key: "Tcond"
    value {
      type: DT_BOOL
    }
  }
  attr {
    key: "Tin"
    value {
      list {
        type: DT_RESOURCE
        type: DT_INT64
      }
    }
  }
  attr {
    key: "Tout"
    value {
      list {
        type: DT_INT64
      }
    }
  }
  attr {
    key: "_lower_using_switch_merge"
    value {
      b: true
    }
  }
  attr {
    key: "_output_shapes"
    value {
      list {
        shape {
        }
      }
    }
  }
  attr {
    key: "_read_only_resource_inputs"
    value {
      list {
        i: 1
      }
    }
  }
  attr {
    key: "else_branch"
    value {
      func {
        name: "global_step_cond_false_15"
      }
    }
  }
  attr {
    key: "output_shapes"
    value {
      list {
        shape {
        }
      }
    }
  }
  attr {
    key: "then_branch"
    value {
      func {
        name: "global_step_cond_true_14"
      }
    }
  }
}
node {
  name: "global_step/cond/Identity"
  op: "Identity"
  input: "global_step/cond"
  attr {
    key: "T"
    value {
      type: DT_INT64
    }
  }
  attr {
    key: "_output_shapes"
    value {
      list {
        shape {
        }
      }
    }
  }
}
node {
  name: "global_step/add/y"
  op: "Const"
  attr {
    key: "_output_shapes"
    value {
      list {
        shape {
        }
      }
    }
  }
  attr {
    key: "dtype"
    value {
      type: DT_INT64
    }
  }
  attr {
    key: "value"
    value {
      tensor {
        dtype: DT_INT64
        tensor_shape {
        }
        int64_val: 0
      }
    }
  }
}
node {
  name: "global_step/add"
  op: "AddV2"
  input: "global_step/cond/Identity"
  input: "global_step/add/y"
  attr {
    key: "T"
    value {
      type: DT_INT64
    }
  }
  attr {
    key: "_output_shapes"
    value {
      list {
        shape {
        }
      }
    }
  }
}
node {
  name: "normalize_element/component_0"
  op: "Const"
  device: "/device:CPU:0"
  attr {
    key: "_output_shapes"
    value {
      list {
        shape {
          dim {
            size: 749
          }
        }
      }
    }
  }
  attr {
    key: "dtype"
    value {
      type: DT_DOUBLE
    }
  }
  attr {
    key: "value"
    value {
      tensor {
        dtype: DT_DOUBLE
        tensor_shape {
          dim {
            size: 749
          }
        }
        tensor_content: "\\\262C_\356Q\314?\270^.=\365#\316\277\332\240\345/\343\\\312\277\263\257<HO\221\334?\t\016\27315\360\263?\315jh\240\205\306\275\277\225\021\027\200F\351\256?q\325\320a\031v\326?F\357\022\244k\311\326?\202\300\363 wp\323?:j\226\025\324\001\307\277\036a !-\302\317\277\277\331\377c\225P\332\277\232}\375\224S\320\255?B\006v%\2279\311\2776W\356\201-\341\273?\245a\235\317%\301\275?z\254S\304m\335\325\277\254\213\374v\351\221\316?=?\224\201f\204\320?l\013\317K\305\306\305?\314\323\271\242\224P\324\277\361\300[{\372\343\303\277=\251\243\241N\322\332?\364\177X\200\000c\271?}4\350\t\234\314N?\363\216\266\236\337\377\325\277KZ\216\343\311\346\331?\300=\021\274\010p\314\277\206\317\357^bj\334?d\201\n\242I\275\322?h\260\251\363\250\370\322\277\210_V\315\030\013\344?\026\025q:\311V\326\277\361\"\331D\342u\323\277F.Q `k\307?K@\310\211\3410\311?WDM\364\371\250\332?\004f\021\314\311r\266\277\250\215\352t \353\324?g]H,\316\275\307\277\205\374}\020\023\036\276?$\016\227$\350\022\327?^\007Y\236\0305z\277\211\244\362\203\256\325\251?a\302hV\266\017\341?f\243\357E\346W\304\277\2412Y79\327\262\277\370\210\271 2\027\311\277\025$\021uz9\263\277\202u\332\"\202\324\313\277*0K\330\n\334\312\277MV\0349\230\356\317?\001}\215\352\225\256\300?.\337-\242\203\264\236\277\352\244\255\000\225`\333?8\010\337\240b\301\332?@\302\3155\016m\315?\003<\350`\235-\266?L\363\330\340\216\201\312\277|\026\337\253\261_\325?\266\323Z\301\004(\326\277\nH\240f\355\333\302\277;y\252\246\230A\316?r\\:\244 \221\316?9\231\331c\371\245\323\277\025\327\245\004\314\325\335?\335\303\322~s\230\303?]\ry\231\233N\313\277\"P?\240\032\214\321?\213\257M\225\265n\307\277N\317\273\261\240\360\341?WO\234\222b6\311\277\365\3613\242r\233\336?\353\363br\264t\324?\267\010\255\003\367n\235\2770\212\210\334\2707\234\277\326}t\250\256\225\306\277\325#\252C\260\242\333?\005tW]$\000\327?\007\326\253\247\332\027\306\277\036\177\263\336\271\301\340?\244\345\037\001\314J\275\277\035}\352]^\256\275?\377\365~a\001e\313\277\265\302\262\241\264Z\340?\261V\'F\032\205\317?\314;VB\332\363\330?\223`?\376\261\024\324\277\n\321\306\266\261\376\313\277\335\230\340\314\226I\263?\373\250+D,\007\326\277\256\217=1\2418\316?\274.\323aK0\336?\212 ;`8\206\205?\242!g\212\316l\316\277\215\301\026\375\231\250\330?\261b\237\235_V\316\277e{\343Z\243\024\340?V\275\374N\223\031\342?\234\332\235\336Z@\340?\362fh\227\3126\312?>\205\267b\332\022\337?\3719O\206\364%\321?\240V\352\274:E\321\277\243\023\266]p\337\325?\357\250s=\270X\325\277\360\307i_\253J\261?\002wf\243\357E\310?\3017M\237\035\360\303?\244\235\005g\021\006\317?\325\333\023\342\231)\321?\000v\352\241\350\307\320\277\332\001\370#\034\345\321\277\270\246/:\017\335\322\277\037\243\033\345\2115\325\277!\346\026\343\221\262\331?\351\302@\276!`\334?\t\346\"\235\005\312\304?\357U\n\005\225\006\324\277B\036\250\360\363!\267?\352#\317y\266\\\315?n\267\352[b<\335?k\037~@\230\002\324?H0Y\005\377\225\317?\311\375PaS\004\332\277b8\350\\\233\327\325\277I\005_\342\331\357\320\277\375Gl\230\035\271\304?\243\000\027\205\331\333\303\277\025o\te\206\362\323?\211\366\312\037\200\222\341?\331\256\320\007\313\330\312?\3145\026^\223\177\305?\002\222\270\340o\250\325?\231\270\270:\276\005\327\277\321\nF\004g\231\317\277\005\323\027\337\243\300\266?\254\3315\347\001\250\273\277\256\010a\342M\006\316?g\272\266;\2246\276\277srT\250M\240\315\277\303\350\274==\363\224?`6\205\276\211\333\315\277O\362\270\342\301\232\275?y\370|\336\236\361\326\277\206\017x\242\0343\310\277\217\364Px\\\026\311?>\225\221\202\300-\317\277\344\013 \2356:\306?\331LS>\343F\331\277pMp\240vn\320\277\312\000\355\232\3222\324?\256\033\000\273\344I\321\277,\240/A6^\314?\215\362i\241\246\216\234?\221\367\005O|\220\324?C\"\310\234\302\345\340?%\204I\034rf\241?L\345H\302\031\027\330?o\353U\001J\005\337?}s$<F\036\307\277\230\377\251\033\234\206\326\277\320\336\256\321Q\222\256?X$\0367\231D\300\277\336\247\r\373\373T\322?\231\346F&\032\203\313?\360\344\r\017\3454\270?\313\3022\221-\246\324\277\243\021C\335\315t\330?1\352\377\301,\331\315?77\3075\025\224\300?\213\026\003\230\360S\261\277vi\303ai\340\327?\214!\245~\203\233\324?o\302\367\335\370\203\320\277a\226\321#\241\010\340?\366\360\300[{\272\337?\"\355\322\310\337\244\306?Q\017U!\263\355\332\277\222R\226B\234\336\330?El\250\377IO\340?\361\362\225\274\021\310\324?\263\t\017\036\226\033\262?&L\275\023X%\324?\244\233/\274\263\362\316\277Y\375\021\206\001K\325\277\353\211\360\'\021~\271\277\262\273@I\201\205\317?\003\335\352{\005\320\322??E\032\204\3252\253?XIT=\323\312\340?\255(\353X!\274\314?\222\352\371\242V;\332?Q\221\267\032\341\206\325\277\370zk\036\217\262\342?LV\301\177%\035\325?\212!\367|\346O\325?\236\177\232\336\356\372\331?\351\304\365Z\226P\330?j\230\251b\215g\341?\226\337X\006\213\371\331?\"\262\274i\002\336\310?\267\366\272\034\341z\277?n\3339\305\221\244\271?\367\334\256<\355\225\276?\340*\364fy\303\314\277\357\251\275\004~\277\336?\232\3253k\306\365\264?+8\366\313\253c\267?m\205\372\247e\265\300?\255\224\022@9\243\320?\003\212\005|\206\t\330\277\344#\224\204e\350\274\277T\274\035#\321r\331?G\207\321\275\2307\333?\236\251!\273\034\300\324?\020!\256\234\2753\342?\032\263\231\0016\371\320?0x\177Y-r\313\2777\247P\345\315\304\327?C:\331Y6k\235\277\232-\223\300j\325\325?\t\267\306\261?\032\342?\2551*\241\242\307\322?\227TL)\330\024\313??\227\241\330\247\357\317?\025\276c\0353\225\342?m\371d\237\251\322\270\277\267Ya\237\245\020\323?\345n\204\003)\312\307?\226=\222],\266\250\277u\236\343i\032\220\300\277.@6$I\253\324\277\355\242C;\002\323\323\277\274\233\300\327\204r\305?#\223!\001\202=\325\277\t=\223\344V\224\306?\332\246\035\243\341\271\322?Q\344q\232\003\331\236\277\277%B\033g\360\323\277&\331\314\034\360\313\254?D;~\332n\243\317?l]\254\240P\354\325?\220\177\311:\332@\334?\307\352\373\025\327\235\344?\003#\336#c\001\234\277B\256\324\263 \024\320?\263\352\030\374\242\351\321\277\264M\330\033\010\213\316?\177\202\356?\360@\322??G\232.z]\321?\232h\021\003\275m\246\277#\233/\037\336\255\277?d\330\325\242\r\031\323\277\266h\277\275\204\255\327?e\r\254\035\244\253\333?\204\031K?~B\321?ki\207\"Q\246\330?\205\322\325%\374\265\312?J\3254\367\251\215\272\277N&M\007\333\035\312?\230u\030\366(\032\317?\360-\223~N\203\343?\'C\237\331\277\374\260\277\233\030\365\275D\204\321?\305A:#\347\320\304?7\341^\231\267\352\341?|Bv\336\306f\262?\226e>\326B\377\310?[\325\222\216r\360\340?}\325\343!\0006\340?\213&\'E\361K\273?3\323\305\2772\343\276?\307\377\025\340X\243\327?\223\017\315~\3258\332?r]c]\375T\307?h\022\253\3654\026\325?\270\177<&\030\357\316\277\267T\255\236\366H\334?\272\275\007\\\025\260\271?\023\325\370\330\237<\312?p^Z\334\230\201\322\277\246\002\223\300\213c\322\277\300\267\341^6\215\317?\246\020e\373\322\323\320?\246P\253\"\273V\223\2777\320t]\225\227\307\277\035\005\004Ju\307\314?\345j\236\002\344\364\321?\007_5\"Z\243\314?(\001\234\244\032r\303?{\310J\202&8\340?n>d\200\372\005\315\277\254\324\303\002%&\315?A\327[V\243\317\317\277;Ws\004\2312\303?w\313a9:\025\302?\276\217\335\344;!\320?\376\264r\253\367\206\267\277\t6lc\005\"\265?\271oR$\241%\304?\364\025(R/2\220\277K\\\246\252\371?\316?\"B\320\217\216\304\277?\235\344\375npX\325?\3654X\037\254\022\320\277\303\341\375\237`\022\327?\236_\224\240\277\020\321\277p\225H\036_\255\315\277W\310\001`\341\311\327?\3055\343\331\212\"\326?5?a\375]\247\323?\272I\014\002+\307\330?\"hP]\216\221\323?L\301\\\203\245\227\337?\273\020\'\007\036%\310?\227\252\264\3055>\270?\312\2172\301\364\346\330\277\304\017)a\001\247\340?\371l\333\377\031\010\327?\341\373\321&=B\324?WT\314Zmr\325?b\262#\233\314t\324\277j\244\204\344\215a\330?g ;\024\252@\277?1)>>!;\312?\227\322\310!\301X\317?\243\205x\342A\314\334?\271\016\037\"\177:\323?\302$\246U>\025\325\277\272\213\315\032\376K\315?\242\025sk-\'\320\277\0068\265\032\257\014\331\277\277\t\263@#\'\274\277\210\021_y\322\272\303?\316.\204A>\r\342?\355\277)\007\016\303\341?\004-M\337\2453\321?\322~Z\373\361\215\342?\251[\207\264\327\314\313\277\301\325K\235\221\322\305\277\022@\275[Q1\261\277\335L;\353\t\001\314\277\256I3\355\3155\263??\013\225\301I\201\315?\206\004)\004\264\245\277?\323>\244\177L\342\260\277\037\232\334\234\010\352\321?\033|\'\207\313\001\301?t\215i\202\265%\252?\244\350\334H4\\\331?\302=\350<\327\365\320?\025\345\322\370\205\327\325?\215\304x\213\217h\270?8\331i\030\374\005\276\277I>\300\244B\206\274\277mU8\240\252\344\251?wZ\310mE,\343?\307\277K\200\314\224\312?XB-\274\201\370\342\277_\333\323\274\200j\326?|\214\250?\261\204\322\277vV\250\301v\250\322?\311\001\036\305\367M\336?\326P\310\240\243\355\270?o\027\026\263\220F\266?\215\276\335\355\325\242\344?\255\2058Z\376\021\311?h\237\330T\'\261\304?\2162\013\202\001\343\321?\315Am\247\357-\300?\233\352\207\340\321\351\326\277G\367\275\227\014\021\325?\342\000\014a\273\317\215\277\016\321\021\216\223\241\277??\221\'I\327\214\340?\337\333x\240\343\335\324\277\225\246Zn\335\213\267?\275\032\2404\324\250\332?\230\306\212u\005\266\333\277b\312\227\202\373\002\340?j\345\271\031\311\371\333?\360Y\317\367\360\270\312?\256\203\270\257Y\347e?R\351P\033\017\025\335?\311\031q\236=\031\323\277\265l\316=\373\374\323\277\3478\226\373\r\250\323\277N\334C%\"\372\325?\0173\013\037\327\247\321?\353\225\252\233(\025\311?\265|\217\300@\014\333?!\302\205]\220\004\315\277\005*\014_\231\366\340?!=\342\343UN\325?\002\277\241K\223\255\335?>\264\352\316n\010\322?\347\006\032\236$~\313?U\2514\275\037R\326?\005\024,\006\3665\274?\373\026\347\271\317;\324\277\025]\223E\3142\307?\323\360\363\000\222@\316?\2153\033\236=\233\322?\241\036p\227\334,\310?e@Q4j\231\320?\216\002\206\335^/\327?\376\347Y\336\217\332\342?\327EvJ\2541\321?\210}0`19\277?\274\371W\240\'/\301?0E\034_9\n\334?\351\007\032\330\317\207\320?u\267\004C\312M\324?\020!~c\247\326\253?\341\006\276\232\352\246\324?Q\223K\251l\324\310?\021\021i\341\3238\341?\305\244\256kj\217\333?|\274\312\271\230\217\311?l\360\031\344\211\273\320?\006\225]\325\376s\323?\3213(`\\\246\335?z\356\024\335@\"\321?\2675\330\212\354\271\321\277\177%\343Z\345\360\310?e\333q\334\214\307\325?\026*\346\275\275m\335?\375TO\305\021T\324?\007\014\222>\255b\324?x\227\356\"\n5\334?K\262\253\034\234\000\325?_\001u\230i\332\313?\254\361-\007\325a\314?\210\366NX$\036\304?\213\205\245\252\236\206\304\277\220\200\336\017\320a\200\277w\273\177\250\013\343\256?c\020\263\362&\032\323?\375\330$?\342\227\326?\331#77d\013\272\277\t\375\n\241\234K\323?i\301\315\332T:\326?\231\365\275\341\231\253\276\277\317\301\361\204w\334\332?>\364\223 \022\264\336?\312\317\272\004\257/\316?7\354k\033N\262\332?M{R?\322\324\307\277\246N8\242\030,\332?\236\213\361\'K)\267?\242\201\263\357\345\231\315?\252\342|\240\313\212\321\277=\032\230&\266\314\305?\022tj\035\013\200\325?\240@\361\306\366\030\301?\200\247\177\377\2348\341?\355\266\217\005\032&\315?\210\365\343\202u\224\323?\344\360\017|\210\235\307?\257\260d\267d\217\261?\013\257\207\243i\330\307\277\'$%\177(\377\331?\200h\203\237z\234\323?\313\001\026T\257\266\275?\r\017H_\224\242\331?\023\307\r\001\270@\322?A\225\303\274\001\305\332?H\014\n\234\317-\322\277\272\030^\244\253\017\327?a\\\005\214\211\250\337?\324p\035%\247\335\305\277\342\r\243\377i\223\305?s\224\254X6\322\300\277\235H\017\307\3437\253\277Wh\265\372\311\034\300?\264\321s\352N\240\304?\177\311\327\257\205j\304?j>\235\341\274\356\324\277\022[0\247\2726\344?\365\365[\277\2116\306?%\177(\177\224\244\323\277\026c\344Uk\033\312?g<\266\n\007g\324\277R\226\245\306\031\375\313\277\223\321u\237\353\224\342?\0350z4\366\241\276?\361\243T\241\005\221\332?\362\013m\010\247h\315?\007z\311{\254K\301\277\333\035J\233G\321\333\2778\005\"Y\372/\302?\025\263V\233\234-\313?7\370g\2537\017\325\277\255\353\243\225s\020\306?\377Y5\000\002s\262?e\220\273\010S\024\340?&\377\325\333M\215\326?ah\330\234AK\307?\212\317[D-\260\326?~_z\000-\213\270?\314\204\272\243Z\037\323?g\214\305%}\320\341?\211\376\032Z\256H\325?\204\301\2200g\021\340?\035\276\361Z\256#\326\277\234\347_\375e\230\303?\017\342\271\255\343.\326?kK\333\307#\033\302?t0\254,\033\347\323?\224\201\250\240G\261\317\277P\202\243\211\034G\323\277\256\327\262\204\316N\324?V\210`\177\206\265\326?l^\223=[*\327?\361\332\204\377\235\202\247\277\t\214\026\0345\221\310?!\346q\234\004\204\332?\261\202\245\333\216\000\321?c~\260\204\234\024\334?\204\260\340\237\316\354\305?\243\tN\\\022\220\325\277:\207!(m`\324\277,\335v\004\344\t\320?\242\203\211\232C-\320\277\017\345\355\003\356K\244?\201a3\237\367o\271?\307\374\324_LF\327?\032\336I\227@B\316\277BD\244\205O\343\306?A+\017V\214\010\302?\032\334\367$\207:\333?\007\366\251t\301*\327?\036\375\355\272\320\177\326?\207\363We2\236\324?\355\"\226\336H\252\321?\007\326/\340~\243\316?\274\242J\203\221M\325\277X\327\221\270\001\376\301?\274\330(\251\033\301\312?\276\306&\340t^\330\277\347\222G\303kO\327\277\226\223\263$\376\360\322?\n\201\236\376\232\t\332?\322\271.>\375N\320?>\355\317\311{j\275?C\\\265B\303(\301?\222\022P\033\264[\314\277\350\360\224\376\363n\323?H\374i\'sA\310?\177\003\213\252\374\276\315?\205U\304\002\302\273\337?TC4\035\256\223\321?\334Sj\335\243\312\322?\252\366e@(\025\340?8<R\267\222\241\262?\336\0264FNS\314?\323\r\271\276\264\315\312?>\275\347\372\035\216\335?Bb\365&\n\035\257?e\373\261\305E \302?\327\r\004\226\226\360\315?\323\217~\342\235O\320?]\036c\325\275\241\266\277\206\321b\337\0045\343?\320\222\215(i\325\274?\231xQ\005\355\337\325?\0310/]\024\177\315\277\342\267|\177\336/\321?W\004 j\262\261\302?\231\201\312\370\367\231\305\277\315\262\345d\373\363\272\277g\235\361}q)\326\277\037\014\341=\254\\\336?$]u\0259\341\314?\007G$e\346\335\320?!\234\252\326\035&\341?,\254e|\251\351\324?\343Ai^\304-\322?\006Z\252\240\334\225\330\277\310vc\346\247\335\310\277\217\205\215W\305\300\323?\377\3751\306\352\003\305?_\277y\324\014g\271\277T\362\034WD\311\307?\321\r\250\222\\Y\315?RI\235\200&\202\324\277\354o\"]\340p\324?\361\014\277@\265f\326\277s\247l?\266\370\340?\354=\263)\371\006\202\277\305\217\224\241\350\211\315?2\207\213y\251\032\310?\001\265\244\3458\236\250?J,c\")\022\314\277P&f\244{)\304?\244Bm\002\251`\320?\305\020)\233\2540\324?\367\nf\247z\r\301\277<\207Sb\256w\305?\373\232\037^[\010\341?YS\223\277\377\177\303?(Yw\301\032\306\272\277k\023\243\276\227\010\327\277\233NW\034sC\340?\313\315\201/\2263\332?]\273\214\031\343\356\210?\367\020Ca\006\231\324?\317(D]\367\230\265\277T\330V\375[\023\316?\371=c\277$\036\271?\312\"EK\273$\261?\206\265Y>\220\221\255?I\216\350\\Y;\325\277\234\275\330 8\023\323?\346\014A\345\312f\330?\231}`\277\016\271\335?\243\017\361j\024\355\323\277\361\324D\033W\016\314\277\336?\263w\210w\310?\2037\244Q\201\023\323?\316\'\341\370\220f\341?E(:\273J1\326?q\020\000^\227H\325?\3337\265;\275u\324\277\332y\321\r\003L\300\277;g\260N:6\321?=\352T\236\345\336\321?\255\3325!\255\261\334?F\031\232\200\231\316\301?\230\034\024 L\002\333?\323\033I\335)\270\322?\370\336\337\240\275\372\240?\377$\224w;\346w?}\336\371\352O\207\310?\226A\020{\374\271\332?^C\323\206\201\266\305?\360\344\354\000\374\221\310?\327[5\225fo\272?G\'\253\037$\326\262?\017\343$\203\222\270\335?\201\217\207\337\311\376\337\277\016\261nz\037`\264\277\221\342-\241\314\320\267\277\213\245\'\260)%\260?\0137l\235\260\253\262?\005\344dE\201\374\310\277G\240,B\322\003\340?\254)\034\203F\327\327?\346Ig\232\217o\304\277\306v\316\201\253\335\327?\276\003\362\333\306\225\334?\367\037\231\016\235\236\340?.\224\230\3342$\256?a\201T/d\032\324?\3734\223\024\375F\341?\326\302\217\336.\303\327?\242\257\244\005\375?\312?\363wJb\244\262\321\277\376\355\364{I\200\321?\0107\235\215*\375\267?r\366\250\241\010\007\260\277)\021\372\374\244\230\300?H\354$l\211&\322?~a\t\326\376\357\306?\222i#\215\300\016\323?\337J\372\244\250m\321\277X\rWA\353e\265\277\3742Z?\344\312\314?\355\347=c\231\335\315\277\352\016Z\366\301\205\310?kZ\020g\321}\303\277\222\033\352\034\250\370\317\277p\3224(\232\207\310?\306EZ\317\265\324\332?BV\\\301\333\250\326?\265\324(\301n\332\325\277\272\022?\316M\376\264?\266\003d\236K\'\313?:\315#\373\367\313\320?B_z\373sQ\327?\261#a!k\264\321\277\310\341\335\333>\265\322\277\236\255(\312J8\266\277\314\377\365\0337\306\327\277;15Sk+\320?\314=\013\337N\244\334?\243\264\365\333\360\236\314?\276\351+\202\336\037\320?\352e\014Z\345\025\312?\310\r;c\312M\324?\001\223+\'gI\317?\203\265{\003\335(\304?\340\214P\"x\262\321?\0031\236{\356\210\337?\346\026\004\240\233\247\341?:\260^=\325>\305?\035\223\305\375GF\341?6\353\347\250\376\334\342?\340!\326,\341\232\321?\033t\266>\264\250\322\277\347w\365\205\353,\326?b\235l\373\005X\310?\322M(e\316\212\324?\014\335\326\341b\250f\277\360\270\362\243+b\321?\204]\332\221f\003\245?\\\263\360Po\241\323?\350qs\205\322r\333?\374\257\255~\360J\316?\354p\360\\J\243\320?\243{\020\341\343\274\331?\371\357\301k\227\266\334?Y\354\304\037$\017\316?\364F\367\275\227\314\325\277 \372A\237\300\"\327\277~\027:\237\317:\276?\200\346%_\006\354\270?\247\3158\rQ\205\325?\216\343\013\203\307q\307?\233Y\t\345\226y\333?\204\010\371\037\347\235\271?\363\266-%&\003\336?\221\030\363)\266\270\327?H\272,GD\010\271?c\233\320\3731\363\321?s\365c\223\374\210\330?\214Hw\204\221f\320?\npr\246\246\260\264?\364\240fi#.\317?_j\235\033G\352\316\277.7\030\352\260B\326?6\023\253\275\212\267\242\277\210-\373}\030\004\307\277mjE@*\252\341?\300cOm6w\240?\006  %\227{\222\277M\364;E\365\363\303\277T\203\274`h\234\327?98\246a\327z\321\277\320\021T\350\027\000\315?\365\3613\242r[\340?0{\300\3319\017\262?8\210s`{\036\323?\027\306\'\256t\210\323?\202\224\022aG\214\315?\336\360/@\252z\267\277\334g\225\231\322\372\247?"
      }
    }
  }
}
node {
  name: "normalize_element/component_1"
  op: "Const"
  device: "/device:CPU:0"
  attr {
    key: "_output_shapes"
    value {
      list {
        shape {
          dim {
            size: 749
          }
        }
      }
    }
  }
  attr {
    key: "dtype"
    value {
      type: DT_DOUBLE
    }
  }
  attr {
    key: "value"
    value {
      tensor {
        dtype: DT_DOUBLE
        tensor_shape {
          dim {
            size: 749
          }
        }
        tensor_content: "VW\262!\007>\317\277\203\021\177=\364\027\244?n\006M\205W\326\336?\240x\313^\201\253\273\277[ZO\245Mr\334?\\3\"\346\314U\300\277\351\267\257\003\347\014\334?\000\000\000\000\000\000\000\000X=\225\020\002\253\210?\275\266\351\225\323\032\310\277\352\224\252a}\313\325\277\237q\303\241\316\313~\2776APE\\\306\264?\232\213\t{$o\324?\3026\177\237\263\375\265?\253\022\033\342\016\252\344?\337\006\214`\251O\313\277[\222R\274\t?\250\277\306r\246d\224\202\323\277\352\256.\237\223\273\327?\341\t\275\376$\236\341?\005Mg\001\274\000\252\277]h\021\376\0034\262?\230z\006\242a\220\300\277\353\223\365\376\263\344\336\277\317\030\377\241\r\376\334\277:\335\303oT\270\245\2777C`\233C\210\317\277(\353\002!\003\300\246?\031IP6\304\374\272\277W\376\204\314\370k\262\277\177\020\217\345\331\274\244\277<m\350\3018\223\315\277G\371\332\027\366\322\215\277\2470P\300\3305|?O,\205z\331\372\304\277\254E<\3000l\305\277\252 /9(@\301\277\326\313Y\0319}\230?\317\261\315\327v\244\312\277\200\321\006\334\312\375\300?\377\316\366\350\r\267\343?\320\307)\370u\371\275\277+\n\005\266\224=\346\277\303\373`\317\215\337\342? \320x\246\300\227\316\277:\266\267\276\274~\326\277\320\370\031r\307\366\340?\224m\224\200\216\022\244?\377\332>\007=k\234?\232z\037?\002\\\322\277\001\363\230\232g\231\237?\201@\336\340H\366\262\277\022\233U\300\271\266\343?cl\225\036Uf\344?Xt7\304\202?\245\277Z%\201\233\3776\314\277\303Z\204{\310\010\320\277\343-\374\205\303w\346?MT%\200Q8\266\277\364\361Z\301\314\347<?\226G\372^\212E\232\277I\327\n\242\007\241\311\277q\200\rF\364\204\316\277Q2\362\337\247\235\234\277\276}F\267\230~\267\277\226w\325\003\346a\325\277\'\354\221\274)\333\343?1\010\024\000\3175\260?=k\257\354\037\227\264\277\274\226\353\310\354\207\272\277\241mN\210-{\317\277j[\014\237&\223\276?\250\"p\177\211\323\302\277\314-\r\371\360\367v?\247\204\365\271\271\374\301\277S\255\246gQ\212\315?\357\037\025C\225A\225?\n\274\366yJ\326\314\277\221\251{\227dz\220\277*\271I`\001\271\205\277\264Ke\233e \324\277@P\352\242S\035\241\277M\363\257a]G\337?\363/\366\034`\377\300?\250\2010\001\t\024\324\277\222[0D\220\373\311\277\200\337\221A\206?\260?o\305\216^\276\t\236?\000\222e\230E\356\264?\372{)<h\366\343?\310\003\241\336\013\321r?\177\"`\276\006\216\267\277\307\026.\035\006\002\221\277\303\177\272\201\002\357\340?\362/3\200x\334\251\277\255\200)\240\334x\262\277\n\373\321\313\203\317\337?\210.EE\336\352\315\277!\327\227\266\311r\325\277\306O\365\301\270o\235\277\036\336s`9\202\342?\344\020PeA\266\322\277\025\2557\305>\034\321\277\032\366%b\344A\256?\335\301\035\342\376\247\322\277\0366\221\231\013\\~\2776\301?\276\347\364\343?\016*\2639\265\320\227\277\347\007\t\254w\023\310\277\024\020\213\377\330\367\335?kJ\221\000^4\317\277*t^c\227\250\241?\205R\033\237@\r\266\277\301\204g\310\314\223\232\277\352\356\327\3606g\207?\223\204\325<m\253\250\277+\006\274\212\224\377\315\277\315;N\321\221\034\340?\253\265\315\3401\264\267\277V\227S\002b\022\340?\333\231\225/`\260\246\277\203\334E\230\242\334\322\277\312$~ \324\240\253\277\017\233e\242J\305\317\277\002*\240y\316P\260?\031]\367\271N\341\261?\276\265~\300$\021\250\277-\376&|\005U\222\277\262k\367\202\201\255\267\277\370\217\"\276UO\340?4\355I\375H\023\325\277\355\256\375\256\031*\320\277U\316j\303Yx\333?\212\010{\352\303@\271?\017\273$!{\236M?\n@\253\3451w\221?\223\356B\316Vy\345?\254\3315\347\001\250\273\277\363W\247N01\266\277\310\271s\177\372q\270\277\247hY\265s\263\267?\014zN\376\027\375\343?\230\255\212\252>\333\304?\324\r\024x\'\237\344?\242\000\354\004}\347\232?\340\340\365\033Yyj?\022\202\270\037\256d\331?\254r\302\000\231\010\273\277\310\242\237_J3\341?b|\177 \314\257\266?hL5qz0\276?\254\245g\027_\366\315?_t\201\344\000n\244?8\264m\275K\316\333?R\021\341>\366\003\344?Y\321\356\251\377 \240\277\226\360\337\027\362\343\323\277b!\204\221\250a\344?\336\032\236\17774\302\277\031\010\331\344\266\036\317\277<\317L\356\177\231\250\277\252\270\270`\205h\260\277!\275\362j\312\237\345\277Iqe\273\010\364\335\277\3311C\0355\252\270\277\302\234$\206\262*\273\277x\370\245]\320\313\344?\3165\355\336aE\237?JJQ\231(\343\315\277R\263(hj\304\315\277\270 [\226\257\213\340?;\353\t\001\257\345\344?\227\306/\274\222d\300\277\030\362\245C\351\003\255\277\345\327\254\206\006Z\274?\233h\302\274\350\'\323\277\017\232\300!\022\315\320\277\035lB>\016\241\242?\273a1\243\205\357\250?\226\216\275\007}#\257?Z\021\322\246,;\313\277\375\214$\244\342\275\320\2778d\250/\360\201\336?\200N\030\377\0048\316\277\257p\300\036{\014\230\277\302SQ>\2714j?\355\177\343\337%\000\345?ot\000\212\262\263\316\277\301\266U{\236`\307\277\336\306\352\177N\333\340?\037\371\203\201\347\336\304\277Nng\241\225\242\333?\257r)-\252\345\215\277\243\233\033\330\314O\237?\376\270\036\001\263\255\320\277\317IRF\032\344\260\277\227\230\200\302M\204\307\277\235\225\335aM\304\313\277\003\252fs(\205\247\277\203\263\010\203:\376\323\277]\233t\370\367\333\303\277\022>\306\242\n{\315\277\360+ \376\253\030\340?h\026\262\004cN\345?S\030J\334\031\034\341\277\311\305{\202\202\332\344?Jr\206\003\235 \323\277\254\366\372\244$\365\337?;.p\232\272\202\304?\267\002T\202\017\317\340?\261{\237h&\261\314\277\306\313\303 1<M\277\375\374s\250\021\300\300?E&C\002\004\373\321\277\327\202\336\033C\000\320\277g\356=6\2539\216\277L\303\021 \032\310\327\277\352\362A* \310\301\2779y6P\205\344\257?gS\020d\206\213\253\277\252o\354\033\220\353\334?9\232\002\035\326i\312\277?\360\306\274m*\323\277\3467\257^\003\252\305\277\345\367\r~\250U\315\277\254\225\"\\u\333\321?\326\241\242\003\365Z\325\277m\371d\237\251\322\270\277C\326\t\036\225Q\217?\270OTW\272\222\317\277\377\021\237\236\3539\344?\365\255\203A\241\267\265?\340\377\340\246\263Q\273\277\255e-c\025\377\221\277h6\241\246\034\347\222?\262\\\035\235F\234\272\277\001\314k\333\346|\262\2775\013r\037\322R\307?[i\255\303,O\344?\340e\271~W\212\230?<w\314\212\362\326\344?R|\223\336\353/\243\277&\020e^\375\216\311\277l\025\263\024\177\312\301\277\320\205\252\373t\372\320\277\357^\346\"[)\323\277h\266\351\327\357\354\266\277\000\000\000\000\000\000\000\000\211\227\247sE\251\321\277b4\206\224\372\r\275\277j#\t\210j\306\306\277\tG5\221>\322\345?\322$\312A}\t\344?u\273,`\341(\260?\034\361\340\376\216n\310\277U\242\r<\316\037\300\277\274\314\217C\355L\302\277[\227\267v\344@\315\277_+\253-\230\237\207\277K5y\353x\243\276?\274\325\255}\205\365\312\277\370\315\365d\233g\320\277b\n{\177(}\325\277D\241w\300\373\376\247\277Oiq\204\024\225\325\277W\306\216\337>\037\333?\273\245\213\003\236\252\324\277\317\032\264>\202\356\344?M_\031eGt\316\277\027\267U9\202\216\313\277l\304\335j\347E\320\277L\247\330E\217\347\300\277\311\301\021I\231y\312?\235\345\230}5?\222?g\301Y\204A\235\307\277r]c]\375T\307\277\355k\227\025\016\255\314?\251\333\331W\036$\326\277\001\325\005\335\332\231\271\277c\247\016\250\355U\343?\362&\277E\'K\262\277l\325\t\303\333\336\244?\265}]\300\252\376\240\277Rm\344x\r\023\317\277\375\261Z\252\034\244\304\277\223\016\377~k\346\344?\263\210\027\372\026\214\300?sK\212\023\210l\264\277$\026\306P-\246\265\2775\260\227\236\227g\320\277\234Yd\236\t\013\313?\367\314P\344bo\322\277I\352N\301+\223\242\277\367\327\341\236\235\002\323?K\001i\377\003,\265\277\253Fey\rp\340?E\253I\246\371\331\347?\307\007\206\003K\264g?\215K\260\223Ul\276?a`\014\233\267\240\343?\227\351\362A*\000\341?\013\016\212A\273>\344?V|\350\'A\244\317\277\301\351vY\300\302\307\277\355\305\243\226\336e\307\277\312\233\rC\365 \304?\003\352Q\341\2356\312\277\250o\231\323e1\263?&\3265\234*\306\300\277\266m,\351\247\206\205?\265\374\237G\265\235\314\277\272d^?\253\351\303\277\036\304k\352~F\305\277\037\212<(\254\375\303\277\277k\247\030\255\304\300\2774\032TvU{\323\277[\210\250\236\331i\277?O\267\344\237\266\231\263?\004\305\260?`\320\322\277f\030\370\003~\212\253\277\361\3021&Xw\304\277\247\203i\326!P\313?\216\213\310\202RL\207\277\337O\360\301){\245\277\245l\313_\245\213\340?o\306\335\336=Y\320\277\371\227\356\277\337\371\341?\272\227ErC\235\307\277c\270\327\325&F\312\277\370\255\2724\2347\214\277\277\370\273\332\376\223\321?\242\025sk-\'\320\277\211z3\375!\034\254?\2161\342\310$\237\273?\316`\235tlN\312\277\334x\240\343\335\360\323\277\275\302\243\t\353\261\317\277\332A\200g\326\255\321\277jyq$\310\257\324\277%\032\254Qr\373\274?\316d\346\237l\014\267\277W\360\333\020\3435\336\277\020G.j\275\000\264\2776\354R~\255F\345?\315\204\025]\315p\342?Bn\320\250\nW\343?\261\231\215\337%\342\342?\270m\204\352\213)\260\277 \231P\271p=\301\277\016\253\221\300\223\024\344?\335^\220\374\332\335\304\277\306.\264\347\360\030\231\277Ys\261\276\311\303n\277\001\250=\200\240\027\340?\334\323\027:]\263\266?\027\000\364E\214h\303\277\251\221\n!\357.\340?\342\203K\205\200\025\326\277\353\250\356\272L\207\317\277\335g\215(\212\343\261?\345Q\3647\326\002\225\277\236u\351\275\272\254n?i\307\267\276\342\205\243?\236NG:\342\024\277\277L4H\301S\250\341?\260\330p\242\247\362\342?\257\365\240\373\315\237\334\277\005h\271><\343\247\277\360K\242\0037w\341?\n.\363\251\245\261\314\277\027\n\236c\274\275\305\277\320\241\331c\214\211\223?oD\275\001\342\005\302\277\241-\010aE\330\344?\257\314\276\237\330\022\344?\332Rj\243\370\300\324\277\264\037\221\0058\374\237\277\301<\277\203\372q\311\277\205\3501F\373\n\300\277T\214Vb\\y\262?rb\376\300\013\221\323\277G\253\275\374\014\367\305\277\372\211w>\013\233\335?\327\213_\200\226\221\344?\345]7\235K\016\314\277d\316Y\275\310\246\247\277\363\026\034\031<0\202?\314\232~\247\316E\215\277\231&\360w\275\356\306\277\323\n\333hc\231\266\277P\232\274\267\330\243\311\277\312\013\372\034iz\323\277\243#5\304\343\350\302\277\264qi\241\t\271\321\277\233~\3441^N\306\277\205\321IBd\211\320\277\223\"\215eU\337\301\277\022\331\007Y\026L\317\277k\202\003\265s\365\320\277\304>\"\"\014\316\340?P\336\365\t\010\374\205\277\225m\032\272]\330\311\277\351\033\376\276r\311\245?h\326)\301\250\305\276\277!\300\216\244IN\336?0LC\340\212<\314?D\326\236\202\221Q\311\277C\325;\036+\037\326\277M7\242\336\000q\315\277\346lK.\020\016\340?\243\266\344#\357\275\333?\001%\221\277\254w\321\277F\255\223\247j\n\306\277\353m\330[o\300\307\2776\254\353H\334\000\273\277\330v\301}p\200\301\277e\246YE$o\321\277\372\\\257\341\3208\324\277q;\023\036]\272\305\277\267\2571\037x\313\270?s\332\3179\252\340\317\277\305I\355\207\320\357\244\2777tP\025\225\005\313\2777\340\024\322\361\003\271\277;\363zI\306\336\273\277\307\256\274\375\034\223\221\277\030\252j\233E\234\310\277\244s\033`(\330\320\277\r\375\246\277}n\243\277\212T\275\241\225\240\300\277\322s\311@\267z\310\277\\\377\256\317\234\365\312\277j\363\305\377\231\030\315\277OLr\033h\231\314\277\335\"\223\000\363\230\343?=\031\024\264f\267\267?m_\366\241\301<\352?\370;o\276lv\344?\206v\305\301\342\306\275\277c\353[\336\003\021\347\277XV7j\307\005\314\277\032\332uy\267\325\231\277O\212^_N\375\271\277\341-\014hT\246\225\277\377\310:=k\216\301\277k9\002~\256\262\324\277\223J\343\335\262\277\314\277\240(}\337\307j\274\277\262?\232\373\365T\261?\374f\2139B\345\270\277\243K\356f\374q\341?\334=\314\240\322o\320\277\221\252\346l\023\204\211\277\226[\377S\026\352\342?\321\317(\242\205\331b\277\373v\022\021\376E\340?\336+F\237\207\001\324\277\375\017U\235z\211\326?\034.\035A1\336?\277\313@\257\211\026j\335?%I\204\004\224\237\312?\201\006\274Hx\255\265\277\301\177\365\343\357\021\207\277\334\303\024\233E\236\322\277t\223\030\004V\016\341?\245\370\031\223\325\337\246?\001\222\237C\317\234\314\277\031\225\035\340\036\213\252\2773\312+\276>F\270?\304ep\357u\255\305\277\265\\u\236*?\261\277<\260\322\223\350\033\247?\037EB\000\025\363\341?\365\353\363\275+\'\262?\303\327\327\272\324\210\336\277\001\232\357}\375R\341?B\201o\201\241\332\342?t\253\020$)\310\331?e\356\037\340P\305\215?\244T\200\367\247\267\312\277\t\334_\3424\311\341?\312\022\000\220\321\t\266?\364\235\251!\273\034\315\277\372\255\306\247:\303\265\277\026\346\213]\2452\232\277\026X\370\341\2756\327\277\323||\337K\243\340?\361\233\343X\3567\273\277\2626\276\335/\362\316\277k\177\215B\227\022\244\277 \232\3659\251\365\263?\346\016L\202\370?\250?\264\276\365\037\241?\334?\325W\333=\016\275\200\277\242\370k\2218T\243?\277\272K^td\320?|t4X\202V\322\277\340\371J\302\263t\215\277\215\366\364\350x\022\312\277%8\232\310q\314\303\277\014\333\0059\336\323\341?\330\363\322\240\252:\300\277+\t\334\374\2679\326\277\031\035\322\240O\201\267\277\361\223\223\036\300\201\314\277\213\352\026A(V~\277\205\202\255m\345\000\340?$\352h\311\241\315\314\277\263\334\210\335-\377\340?X\345\204\0012\221\307\277\342\202,>\027\243\224?x\251\001\030\tL\237\277\346\365\263\232\246\266\251\277\365!^\215\242\275\254\277k\213\000\341\"{\304\277\263\340n\336r\324\337?\027`\304\343Ga\343?2F\325\303X%\244\277\212In\003-\323\345\277\342\026=\001^\260\300\277\2309\331\335n\217\315\277\236\341\366\231\355\351\242?j\363\353\306<\244\200\2778$\377\335LV\331?NC)as\374\224?\255}KJ\213\304\340?\312~\212\241\244Y\341?\241\r\341\024-\253\202\277=!\"\322\302\247\270?\324\341S\306\340]\303\277WI;\2402\277\340?\222\007\001}K\316\321\277\031Q\0348N\247\267\277\220\256gBr\266\250?fV\245\343 \327\317\277\356\242\340\020G\252\241?2\"0ZpT\314\277:v\234\02710\222?>\320\247\341\235\264\336?f\205\"\335\317\251\317\277\240\333Fa\351\014\214?o]\205\"Jl\250?z\242jB\372\360\242\277\231\222\027_\325U\322\277\025D\325\226\327\235\250\277\220\242\214\300q\274\333?Q\251+\002\020u\340?\3524\271\265\330\257\302?\236\3273\337\034\211\306\277 Z\022=|[\337?\212\337\373\270\211\034\316\277\272}\373\337\266\033\322\277\317\276\217\366\201\334\304\277ZBFY\"\304\300\277\002\232\010\033\236\336\321\277w\0318\177\227\342\343?\275\244\224\204\002>\333?\310zj\365\325\325\320\277r\241v\350\211\241\300\277K:o\010\3720\342?\222\336\036!V\001\334?!\370\010\312\247\246\302\277z\207\367\366\220\353d\277\266\311U\352a\201\266?\024\361\255z\206Q\331\277\313\343\304\262\364\374\340?\243\'\341\031\237\217\303\277o\350V\235\017.\325\277\213.\363F{v\317\277x\274$)D\033\337?CV\371\226 \300\311\277\305\264\251\2319M\275\277]\211\032.m\226\215\277\275\3279\233\310\253\326\277\232\334\336$\2743\345?\315\264\026\311\313X\270?\302I\334[x{\307\277v\023!\032\202\010\302\277\236\347\364ab\030\317\277\211s\036_\214\022\260?\312\377\206~\335Q\267?\345\000\272bX[w\277\374YE\342\222\341\340?T\262\013\",\014\277?\273I\210\311\206\373\310\2775O\277U\350\315\317\277-%\211-V7\217\277\347\344\240\337R\251\316\277P.\376\330ZVW?\310 \332;aQ\321\277\034\323\023\226x@\332?\303\031\221b_\266\316\277T\254\032\204\271]\312\277\367\300\330\214\035\036\344?\253,I\037l\021\276?X\352\264\311<\315\340?<-\344\266\"V\306\277\001\306\344!\024\332\272\277\255IB\300\306\371B?\001\252\023+\376J\305\277L\337\255$`\221\314\277B?\327\347\377\017\301\277;\257\302w\254c\313\277\235&\267\026\373\005\240\277\265u\252[\301\337\321\277{R\242\374\017\366\324\277\376\227k\321\002\364\343?\324\270\341\276\250\271\262\277\023p\031\201\302\352\271\2774c\362\202_\325\330?\303]\203\337\002\340\311\277\016\263\206AO9\343?\325\017\240\225j\325\340?w&\026\363\321\264\210?\331Iu\350\221\222\277\277\212\252%>\363I\304\277\204\263! \333\211\322\277\016ZuAp\241\245?\324WF\331\021=\261\277{.S\223\340\r\235\277\307?\236#\023l\301\277(\231\227!`=\274\277\330&W\251\207\005\244\277:\332\243\3750\276\303\277)i+\032^U\205\2777\027\240\351\374F\263\277\326d\031$u\251\325?\205\021\261w5\257\320\277\021\277(b\215\212\311\277\0362\'`\"\273\335?m\273\\\006\2244\240\2776\027$\"\241\022\321\277\034\251\010\201\246\217\344?\335\300\323\0329\201\344?\364\013\213^\001\335\233\277\232C\357\340i\252\330\277q\177\211\323\244o\340?\350a\010\003F\314\255\2773\370\177\376\020U\333?M!\241wtm\340?\215+\r\200\341\252\316\277\231\277\337\273\017\270\304?%\357w\203\303f\311\277M\253\266\325\213%\305?km\361[:\007\323?\177\037\006\241Y\345\343?qk\332\336\321\263\321\277H\343/\261\"8\246\277\227\301\336\345\236\005\313\277\340v\r\237\031i\300?\337\274\255\376L\340\235\277Qn\231\333\3269\325\277\311D\245l\354\355\330\277h\302@!L\233\337?\274A\264V\264\271\303\277\025\267\300\324\205\216\323\277\3173\223\373_&\300?\265\333\221^\222R\324?\324\334D\014\277\304\263\277D\233\210#\264\212\321\277\016\206\031\236\207\210\342?]%iH&\361\346?9`\272\275bU\340?\007p\006\301\333\352\303\277\271\326IC\256P\331?H0\233!\321\333\314\2771A\267\336\t\322\243\277e?\244B\351I\331?0S\254}\256\264\332?\365\\l{7\355\265?\273_\005\370n\363\314\277\256I\3303[\344\263?\216I\310\005<p\223\277\205\302V\277\210l\320\277\335w\322\343s~\316\277-\241\263\263\205s\270\277\034\n\300\273l\246\260?\022)\223;\350\351\331?\002]\342e\331\325\316\277\025&B\331J\036\322\277\336\030\201\377M\362\265\277=\343N+}\317\277\277\032\373\263\233\360}\261?I\277\221\001\037\n\260\277\256~\360\312\303|\266?\n\304\377\336\354]\272\277\266\253\241\036\354\336\321\277\254I\340\244\243{\317\277\006\320\326^\227#\330?\032\345\323BM\235\301?\322[\227uZ\222\300\277\362N\323\241\262e\317\277\204\212\201\340\267\302\300\277\333{\002r\323\260\257\277\276\007;\007\307\023\311\277\213fL^\360\253\322\277,$\005\273\006\342\343?\216\345\300\037<\342\306\2777i\277ZZ\362\325\277l\242C\236,N\305\277\216\245Y\352j<\250?i\344\024\231\220A\300\277\220YQ\336\"\213\335?\014\327\366\270gD\305\2770\3220!\213\031\345?\336\024^\233\360?\313\277\261\261\001\307T\360\343?\2259\247\243-\370\254?\026\325K!\312\366\256\277\305\227`\243r4\245?\305w\275\217\376\362\333?\017\027-\376\276\030\304\277J\333\256\206z0\320\277\000\276\004<\243\214\313\277\371\205x\240%\372\222\277\313\310V E`\253?\263d\216\345]5\343?\242\3662\274\037X\335?\301\313\251\360\251\224\277\277xZD5\241 \317\277\034\335\326PI!\275\277\357\005\354\276\361\"\220\2773FVDn\202\305\277\r\021\351\027\"0\237\277\2765\260U\202\305\336?\370\351\221i\341p\307\277\213\001\3200\316B\233\277\203\227\256\232\306z\262?\351\005D-r\364\343?\362U\372\"\004\030\330?\\\263\200E\321\216j\277O\241Fc\345~\303\277\177\337\0323\344\363\340?\2653+_\300\300\341?\261\243K\341<\372\271\277\\\332\374\001\007[\330\277\002<X\265Z\026\344?\375\'\221\332J\003\201?\343\355\265^\333\364\247\277\325\002\377\204H\300\302\277E\361Ky\204\205\306?\331\0060]o8\324\277\367;V!\314\n\340?%\302\3204r\'\274?\263\371\345\267\333:\213?\305\033\333c\320f\320\277\325\'\024}\231\303\326\277\257=Xk\315{\343\277"
      }
    }
  }
}
node {
  name: "normalize_element/component_2"
  op: "Const"
  device: "/device:CPU:0"
  attr {
    key: "_output_shapes"
    value {
      list {
        shape {
          dim {
            size: 749
          }
        }
      }
    }
  }
  attr {
    key: "dtype"
    value {
      type: DT_INT64
    }
  }
  attr {
    key: "value"
    value {
      tensor {
        dtype: DT_INT64
        tensor_shape {
          dim {
            size: 749
          }
        }
        tensor_content: "\006\000\000\000\000\000\000\000\002\000\000\000\000\000\000\000\007\000\000\000\000\000\000\000\010\000\000\000\000\000\000\000\005\000\000\000\000\000\000\000\007\000\000\000\000\000\000\000\004\000\000\000\000\000\000\000\005\000\000\000\000\000\000\000\005\000\000\000\000\000\000\000\003\000\000\000\000\000\000\000\002\000\000\000\000\000\000\000\002\000\000\000\000\000\000\000\002\000\000\000\000\000\000\000\005\000\000\000\000\000\000\000\000\000\000\000\000\000\000\000\004\000\000\000\000\000\000\000\006\000\000\000\000\000\000\000\002\000\000\000\000\000\000\000\006\000\000\000\000\000\000\000\001\000\000\000\000\000\000\000\001\000\000\000\000\000\000\000\007\000\000\000\000\000\000\000\000\000\000\000\000\000\000\000\010\000\000\000\000\000\000\000\007\000\000\000\000\000\000\000\007\000\000\000\000\000\000\000\002\000\000\000\000\000\000\000\010\000\000\000\000\000\000\000\002\000\000\000\000\000\000\000\010\000\000\000\000\000\000\000\010\000\000\000\000\000\000\000\002\000\000\000\000\000\000\000\010\000\000\000\000\000\000\000\007\000\000\000\000\000\000\000\002\000\000\000\000\000\000\000\t\000\000\000\000\000\000\000\007\000\000\000\000\000\000\000\010\000\000\000\000\000\000\000\000\000\000\000\000\000\000\000\003\000\000\000\000\000\000\000\000\000\000\000\000\000\000\000\004\000\000\000\000\000\000\000\010\000\000\000\000\000\000\000\000\000\000\000\000\000\000\000\004\000\000\000\000\000\000\000\006\000\000\000\000\000\000\000\002\000\000\000\000\000\000\000\004\000\000\000\000\000\000\000\000\000\000\000\000\000\000\000\000\000\000\000\000\000\000\000\000\000\000\000\000\000\000\000\007\000\000\000\000\000\000\000\003\000\000\000\000\000\000\000\001\000\000\000\000\000\000\000\004\000\000\000\000\000\000\000\005\000\000\000\000\000\000\000\003\000\000\000\000\000\000\000\006\000\000\000\000\000\000\000\004\000\000\000\000\000\000\000\007\000\000\000\000\000\000\000\005\000\000\000\000\000\000\000\007\000\000\000\000\000\000\000\000\000\000\000\000\000\000\000\006\000\000\000\000\000\000\000\007\000\000\000\000\000\000\000\007\000\000\000\000\000\000\000\t\000\000\000\000\000\000\000\004\000\000\000\000\000\000\000\000\000\000\000\000\000\000\000\003\000\000\000\000\000\000\000\002\000\000\000\000\000\000\000\010\000\000\000\000\000\000\000\000\000\000\000\000\000\000\000\010\000\000\000\000\000\000\000\005\000\000\000\000\000\000\000\010\000\000\000\000\000\000\000\007\000\000\000\000\000\000\000\000\000\000\000\000\000\000\000\t\000\000\000\000\000\000\000\005\000\000\000\000\000\000\000\002\000\000\000\000\000\000\000\t\000\000\000\000\000\000\000\000\000\000\000\000\000\000\000\001\000\000\000\000\000\000\000\000\000\000\000\000\000\000\000\t\000\000\000\000\000\000\000\006\000\000\000\000\000\000\000\005\000\000\000\000\000\000\000\002\000\000\000\000\000\000\000\000\000\000\000\000\000\000\000\004\000\000\000\000\000\000\000\002\000\000\000\000\000\000\000\003\000\000\000\000\000\000\000\005\000\000\000\000\000\000\000\005\000\000\000\000\000\000\000\007\000\000\000\000\000\000\000\005\000\000\000\000\000\000\000\004\000\000\000\000\000\000\000\010\000\000\000\000\000\000\000\t\000\000\000\000\000\000\000\005\000\000\000\000\000\000\000\001\000\000\000\000\000\000\000\t\000\000\000\000\000\000\000\006\000\000\000\000\000\000\000\000\000\000\000\000\000\000\000\007\000\000\000\000\000\000\000\002\000\000\000\000\000\000\000\004\000\000\000\000\000\000\000\003\000\000\000\000\000\000\000\006\000\000\000\000\000\000\000\001\000\000\000\000\000\000\000\006\000\000\000\000\000\000\000\000\000\000\000\000\000\000\000\007\000\000\000\000\000\000\000\002\000\000\000\000\000\000\000\007\000\000\000\000\000\000\000\005\000\000\000\000\000\000\000\010\000\000\000\000\000\000\000\004\000\000\000\000\000\000\000\007\000\000\000\000\000\000\000\005\000\000\000\000\000\000\000\010\000\000\000\000\000\000\000\t\000\000\000\000\000\000\000\007\000\000\000\000\000\000\000\006\000\000\000\000\000\000\000\002\000\000\000\000\000\000\000\007\000\000\000\000\000\000\000\002\000\000\000\000\000\000\000\003\000\000\000\000\000\000\000\007\000\000\000\000\000\000\000\001\000\000\000\000\000\000\000\t\000\000\000\000\000\000\000\006\000\000\000\000\000\000\000\004\000\000\000\000\000\000\000\005\000\000\000\000\000\000\000\007\000\000\000\000\000\000\000\007\000\000\000\000\000\000\000\004\000\000\000\000\000\000\000\002\000\000\000\000\000\000\000\003\000\000\000\000\000\000\000\007\000\000\000\000\000\000\000\000\000\000\000\000\000\000\000\001\000\000\000\000\000\000\000\000\000\000\000\000\000\000\000\004\000\000\000\000\000\000\000\002\000\000\000\000\000\000\000\000\000\000\000\000\000\000\000\003\000\000\000\000\000\000\000\002\000\000\000\000\000\000\000\001\000\000\000\000\000\000\000\002\000\000\000\000\000\000\000\000\000\000\000\000\000\000\000\001\000\000\000\000\000\000\000\002\000\000\000\000\000\000\000\001\000\000\000\000\000\000\000\004\000\000\000\000\000\000\000\005\000\000\000\000\000\000\000\t\000\000\000\000\000\000\000\004\000\000\000\000\000\000\000\010\000\000\000\000\000\000\000\t\000\000\000\000\000\000\000\002\000\000\000\000\000\000\000\002\000\000\000\000\000\000\000\000\000\000\000\000\000\000\000\007\000\000\000\000\000\000\000\010\000\000\000\000\000\000\000\010\000\000\000\000\000\000\000\004\000\000\000\000\000\000\000\007\000\000\000\000\000\000\000\t\000\000\000\000\000\000\000\006\000\000\000\000\000\000\000\001\000\000\000\000\000\000\000\004\000\000\000\000\000\000\000\010\000\000\000\000\000\000\000\010\000\000\000\000\000\000\000\000\000\000\000\000\000\000\000\t\000\000\000\000\000\000\000\010\000\000\000\000\000\000\000\003\000\000\000\000\000\000\000\002\000\000\000\000\000\000\000\005\000\000\000\000\000\000\000\t\000\000\000\000\000\000\000\006\000\000\000\000\000\000\000\004\000\000\000\000\000\000\000\003\000\000\000\000\000\000\000\002\000\000\000\000\000\000\000\007\000\000\000\000\000\000\000\004\000\000\000\000\000\000\000\006\000\000\000\000\000\000\000\003\000\000\000\000\000\000\000\004\000\000\000\000\000\000\000\006\000\000\000\000\000\000\000\001\000\000\000\000\000\000\000\t\000\000\000\000\000\000\000\002\000\000\000\000\000\000\000\t\000\000\000\000\000\000\000\010\000\000\000\000\000\000\000\003\000\000\000\000\000\000\000\003\000\000\000\000\000\000\000\005\000\000\000\000\000\000\000\t\000\000\000\000\000\000\000\010\000\000\000\000\000\000\000\006\000\000\000\000\000\000\000\001\000\000\000\000\000\000\000\004\000\000\000\000\000\000\000\007\000\000\000\000\000\000\000\004\000\000\000\000\000\000\000\t\000\000\000\000\000\000\000\004\000\000\000\000\000\000\000\005\000\000\000\000\000\000\000\001\000\000\000\000\000\000\000\006\000\000\000\000\000\000\000\007\000\000\000\000\000\000\000\000\000\000\000\000\000\000\000\007\000\000\000\000\000\000\000\t\000\000\000\000\000\000\000\005\000\000\000\000\000\000\000\t\000\000\000\000\000\000\000\t\000\000\000\000\000\000\000\000\000\000\000\000\000\000\000\005\000\000\000\000\000\000\000\001\000\000\000\000\000\000\000\003\000\000\000\000\000\000\000\t\000\000\000\000\000\000\000\003\000\000\000\000\000\000\000\006\000\000\000\000\000\000\000\001\000\000\000\000\000\000\000\t\000\000\000\000\000\000\000\000\000\000\000\000\000\000\000\005\000\000\000\000\000\000\000\006\000\000\000\000\000\000\000\004\000\000\000\000\000\000\000\000\000\000\000\000\000\000\000\002\000\000\000\000\000\000\000\002\000\000\000\000\000\000\000\010\000\000\000\000\000\000\000\007\000\000\000\000\000\000\000\003\000\000\000\000\000\000\000\003\000\000\000\000\000\000\000\004\000\000\000\000\000\000\000\000\000\000\000\000\000\000\000\004\000\000\000\000\000\000\000\010\000\000\000\000\000\000\000\010\000\000\000\000\000\000\000\010\000\000\000\000\000\000\000\010\000\000\000\000\000\000\000\007\000\000\000\000\000\000\000\t\000\000\000\000\000\000\000\002\000\000\000\000\000\000\000\006\000\000\000\000\000\000\000\003\000\000\000\000\000\000\000\003\000\000\000\000\000\000\000\004\000\000\000\000\000\000\000\004\000\000\000\000\000\000\000\002\000\000\000\000\000\000\000\t\000\000\000\000\000\000\000\010\000\000\000\000\000\000\000\003\000\000\000\000\000\000\000\010\000\000\000\000\000\000\000\010\000\000\000\000\000\000\000\000\000\000\000\000\000\000\000\006\000\000\000\000\000\000\000\006\000\000\000\000\000\000\000\t\000\000\000\000\000\000\000\007\000\000\000\000\000\000\000\006\000\000\000\000\000\000\000\001\000\000\000\000\000\000\000\t\000\000\000\000\000\000\000\004\000\000\000\000\000\000\000\006\000\000\000\000\000\000\000\t\000\000\000\000\000\000\000\t\000\000\000\000\000\000\000\007\000\000\000\000\000\000\000\003\000\000\000\000\000\000\000\005\000\000\000\000\000\000\000\006\000\000\000\000\000\000\000\007\000\000\000\000\000\000\000\001\000\000\000\000\000\000\000\000\000\000\000\000\000\000\000\010\000\000\000\000\000\000\000\004\000\000\000\000\000\000\000\003\000\000\000\000\000\000\000\002\000\000\000\000\000\000\000\002\000\000\000\000\000\000\000\006\000\000\000\000\000\000\000\t\000\000\000\000\000\000\000\004\000\000\000\000\000\000\000\000\000\000\000\000\000\000\000\010\000\000\000\000\000\000\000\010\000\000\000\000\000\000\000\006\000\000\000\000\000\000\000\003\000\000\000\000\000\000\000\t\000\000\000\000\000\000\000\007\000\000\000\000\000\000\000\004\000\000\000\000\000\000\000\002\000\000\000\000\000\000\000\001\000\000\000\000\000\000\000\004\000\000\000\000\000\000\000\005\000\000\000\000\000\000\000\000\000\000\000\000\000\000\000\004\000\000\000\000\000\000\000\001\000\000\000\000\000\000\000\005\000\000\000\000\000\000\000\006\000\000\000\000\000\000\000\007\000\000\000\000\000\000\000\t\000\000\000\000\000\000\000\000\000\000\000\000\000\000\000\t\000\000\000\000\000\000\000\000\000\000\000\000\000\000\000\002\000\000\000\000\000\000\000\005\000\000\000\000\000\000\000\003\000\000\000\000\000\000\000\003\000\000\000\000\000\000\000\003\000\000\000\000\000\000\000\003\000\000\000\000\000\000\000\010\000\000\000\000\000\000\000\007\000\000\000\000\000\000\000\t\000\000\000\000\000\000\000\002\000\000\000\000\000\000\000\t\000\000\000\000\000\000\000\010\000\000\000\000\000\000\000\003\000\000\000\000\000\000\000\004\000\000\000\000\000\000\000\002\000\000\000\000\000\000\000\005\000\000\000\000\000\000\000\001\000\000\000\000\000\000\000\006\000\000\000\000\000\000\000\001\000\000\000\000\000\000\000\010\000\000\000\000\000\000\000\007\000\000\000\000\000\000\000\007\000\000\000\000\000\000\000\003\000\000\000\000\000\000\000\000\000\000\000\000\000\000\000\002\000\000\000\000\000\000\000\000\000\000\000\000\000\000\000\007\000\000\000\000\000\000\000\t\000\000\000\000\000\000\000\006\000\000\000\000\000\000\000\006\000\000\000\000\000\000\000\t\000\000\000\000\000\000\000\000\000\000\000\000\000\000\000\002\000\000\000\000\000\000\000\000\000\000\000\000\000\000\000\002\000\000\000\000\000\000\000\004\000\000\000\000\000\000\000\001\000\000\000\000\000\000\000\004\000\000\000\000\000\000\000\001\000\000\000\000\000\000\000\003\000\000\000\000\000\000\000\007\000\000\000\000\000\000\000\004\000\000\000\000\000\000\000\010\000\000\000\000\000\000\000\005\000\000\000\000\000\000\000\005\000\000\000\000\000\000\000\001\000\000\000\000\000\000\000\000\000\000\000\000\000\000\000\002\000\000\000\000\000\000\000\001\000\000\000\000\000\000\000\t\000\000\000\000\000\000\000\006\000\000\000\000\000\000\000\007\000\000\000\000\000\000\000\005\000\000\000\000\000\000\000\002\000\000\000\000\000\000\000\005\000\000\000\000\000\000\000\010\000\000\000\000\000\000\000\004\000\000\000\000\000\000\000\001\000\000\000\000\000\000\000\t\000\000\000\000\000\000\000\t\000\000\000\000\000\000\000\001\000\000\000\000\000\000\000\006\000\000\000\000\000\000\000\007\000\000\000\000\000\000\000\007\000\000\000\000\000\000\000\003\000\000\000\000\000\000\000\004\000\000\000\000\000\000\000\004\000\000\000\000\000\000\000\t\000\000\000\000\000\000\000\002\000\000\000\000\000\000\000\007\000\000\000\000\000\000\000\010\000\000\000\000\000\000\000\007\000\000\000\000\000\000\000\t\000\000\000\000\000\000\000\006\000\000\000\000\000\000\000\001\000\000\000\000\000\000\000\004\000\000\000\000\000\000\000\t\000\000\000\000\000\000\000\007\000\000\000\000\000\000\000\002\000\000\000\000\000\000\000\002\000\000\000\000\000\000\000\003\000\000\000\000\000\000\000\010\000\000\000\000\000\000\000\007\000\000\000\000\000\000\000\007\000\000\000\000\000\000\000\000\000\000\000\000\000\000\000\t\000\000\000\000\000\000\000\003\000\000\000\000\000\000\000\t\000\000\000\000\000\000\000\003\000\000\000\000\000\000\000\006\000\000\000\000\000\000\000\006\000\000\000\000\000\000\000\004\000\000\000\000\000\000\000\002\000\000\000\000\000\000\000\006\000\000\000\000\000\000\000\005\000\000\000\000\000\000\000\010\000\000\000\000\000\000\000\004\000\000\000\000\000\000\000\004\000\000\000\000\000\000\000\003\000\000\000\000\000\000\000\t\000\000\000\000\000\000\000\006\000\000\000\000\000\000\000\004\000\000\000\000\000\000\000\001\000\000\000\000\000\000\000\010\000\000\000\000\000\000\000\007\000\000\000\000\000\000\000\003\000\000\000\000\000\000\000\t\000\000\000\000\000\000\000\003\000\000\000\000\000\000\000\006\000\000\000\000\000\000\000\t\000\000\000\000\000\000\000\010\000\000\000\000\000\000\000\005\000\000\000\000\000\000\000\006\000\000\000\000\000\000\000\005\000\000\000\000\000\000\000\t\000\000\000\000\000\000\000\005\000\000\000\000\000\000\000\007\000\000\000\000\000\000\000\003\000\000\000\000\000\000\000\003\000\000\000\000\000\000\000\010\000\000\000\000\000\000\000\005\000\000\000\000\000\000\000\010\000\000\000\000\000\000\000\010\000\000\000\000\000\000\000\003\000\000\000\000\000\000\000\006\000\000\000\000\000\000\000\006\000\000\000\000\000\000\000\001\000\000\000\000\000\000\000\000\000\000\000\000\000\000\000\003\000\000\000\000\000\000\000\004\000\000\000\000\000\000\000\003\000\000\000\000\000\000\000\007\000\000\000\000\000\000\000\007\000\000\000\000\000\000\000\005\000\000\000\000\000\000\000\003\000\000\000\000\000\000\000\000\000\000\000\000\000\000\000\010\000\000\000\000\000\000\000\003\000\000\000\000\000\000\000\006\000\000\000\000\000\000\000\010\000\000\000\000\000\000\000\000\000\000\000\000\000\000\000\010\000\000\000\000\000\000\000\004\000\000\000\000\000\000\000\006\000\000\000\000\000\000\000\002\000\000\000\000\000\000\000\001\000\000\000\000\000\000\000\005\000\000\000\000\000\000\000\001\000\000\000\000\000\000\000\t\000\000\000\000\000\000\000\004\000\000\000\000\000\000\000\005\000\000\000\000\000\000\000\001\000\000\000\000\000\000\000\003\000\000\000\000\000\000\000\007\000\000\000\000\000\000\000\005\000\000\000\000\000\000\000\006\000\000\000\000\000\000\000\004\000\000\000\000\000\000\000\005\000\000\000\000\000\000\000\006\000\000\000\000\000\000\000\005\000\000\000\000\000\000\000\000\000\000\000\000\000\000\000\010\000\000\000\000\000\000\000\007\000\000\000\000\000\000\000\000\000\000\000\000\000\000\000\001\000\000\000\000\000\000\000\000\000\000\000\000\000\000\000\000\000\000\000\000\000\000\000\001\000\000\000\000\000\000\000\004\000\000\000\000\000\000\000\003\000\000\000\000\000\000\000\002\000\000\000\000\000\000\000\010\000\000\000\000\000\000\000\001\000\000\000\000\000\000\000\002\000\000\000\000\000\000\000\006\000\000\000\000\000\000\000\007\000\000\000\000\000\000\000\002\000\000\000\000\000\000\000\t\000\000\000\000\000\000\000\004\000\000\000\000\000\000\000\010\000\000\000\000\000\000\000\006\000\000\000\000\000\000\000\005\000\000\000\000\000\000\000\002\000\000\000\000\000\000\000\010\000\000\000\000\000\000\000\001\000\000\000\000\000\000\000\002\000\000\000\000\000\000\000\010\000\000\000\000\000\000\000\007\000\000\000\000\000\000\000\t\000\000\000\000\000\000\000\005\000\000\000\000\000\000\000\003\000\000\000\000\000\000\000\010\000\000\000\000\000\000\000\001\000\000\000\000\000\000\000\003\000\000\000\000\000\000\000\t\000\000\000\000\000\000\000\003\000\000\000\000\000\000\000\010\000\000\000\000\000\000\000\007\000\000\000\000\000\000\000\001\000\000\000\000\000\000\000\003\000\000\000\000\000\000\000\001\000\000\000\000\000\000\000\003\000\000\000\000\000\000\000\002\000\000\000\000\000\000\000\002\000\000\000\000\000\000\000\010\000\000\000\000\000\000\000\005\000\000\000\000\000\000\000\010\000\000\000\000\000\000\000\t\000\000\000\000\000\000\000\004\000\000\000\000\000\000\000\005\000\000\000\000\000\000\000\010\000\000\000\000\000\000\000\010\000\000\000\000\000\000\000\006\000\000\000\000\000\000\000\002\000\000\000\000\000\000\000\002\000\000\000\000\000\000\000\005\000\000\000\000\000\000\000\000\000\000\000\000\000\000\000\004\000\000\000\000\000\000\000\004\000\000\000\000\000\000\000\005\000\000\000\000\000\000\000\000\000\000\000\000\000\000\000\007\000\000\000\000\000\000\000\001\000\000\000\000\000\000\000\t\000\000\000\000\000\000\000\010\000\000\000\000\000\000\000\001\000\000\000\000\000\000\000\006\000\000\000\000\000\000\000\005\000\000\000\000\000\000\000\006\000\000\000\000\000\000\000\002\000\000\000\000\000\000\000\001\000\000\000\000\000\000\000\t\000\000\000\000\000\000\000\002\000\000\000\000\000\000\000\007\000\000\000\000\000\000\000\005\000\000\000\000\000\000\000\010\000\000\000\000\000\000\000\005\000\000\000\000\000\000\000\001\000\000\000\000\000\000\000\001\000\000\000\000\000\000\000\000\000\000\000\000\000\000\000\003\000\000\000\000\000\000\000\001\000\000\000\000\000\000\000\006\000\000\000\000\000\000\000\t\000\000\000\000\000\000\000\t\000\000\000\000\000\000\000\003\000\000\000\000\000\000\000\t\000\000\000\000\000\000\000\004\000\000\000\000\000\000\000\004\000\000\000\000\000\000\000\006\000\000\000\000\000\000\000\010\000\000\000\000\000\000\000\004\000\000\000\000\000\000\000\005\000\000\000\000\000\000\000\003\000\000\000\000\000\000\000\001\000\000\000\000\000\000\000\000\000\000\000\000\000\000\000\t\000\000\000\000\000\000\000\001\000\000\000\000\000\000\000\003\000\000\000\000\000\000\000\002\000\000\000\000\000\000\000\006\000\000\000\000\000\000\000\001\000\000\000\000\000\000\000\007\000\000\000\000\000\000\000\002\000\000\000\000\000\000\000\007\000\000\000\000\000\000\000\010\000\000\000\000\000\000\000\004\000\000\000\000\000\000\000\006\000\000\000\000\000\000\000\010\000\000\000\000\000\000\000\003\000\000\000\000\000\000\000\006\000\000\000\000\000\000\000\002\000\000\000\000\000\000\000\000\000\000\000\000\000\000\000\005\000\000\000\000\000\000\000\001\000\000\000\000\000\000\000\000\000\000\000\000\000\000\000\006\000\000\000\000\000\000\000\006\000\000\000\000\000\000\000\002\000\000\000\000\000\000\000\006\000\000\000\000\000\000\000\002\000\000\000\000\000\000\000\t\000\000\000\000\000\000\000\010\000\000\000\000\000\000\000\006\000\000\000\000\000\000\000\007\000\000\000\000\000\000\000\004\000\000\000\000\000\000\000\000\000\000\000\000\000\000\000\004\000\000\000\000\000\000\000\003\000\000\000\000\000\000\000\010\000\000\000\000\000\000\000\000\000\000\000\000\000\000\000\007\000\000\000\000\000\000\000\010\000\000\000\000\000\000\000\007\000\000\000\000\000\000\000\002\000\000\000\000\000\000\000\007\000\000\000\000\000\000\000\t\000\000\000\000\000\000\000\005\000\000\000\000\000\000\000\004\000\000\000\000\000\000\000\005\000\000\000\000\000\000\000\000\000\000\000\000\000\000\000\001\000\000\000\000\000\000\000\007\000\000\000\000\000\000\000\004\000\000\000\000\000\000\000\004\000\000\000\000\000\000\000\002\000\000\000\000\000\000\000\005\000\000\000\000\000\000\000\010\000\000\000\000\000\000\000\t\000\000\000\000\000\000\000\007\000\000\000\000\000\000\000\000\000\000\000\000\000\000\000\010\000\000\000\000\000\000\000\003\000\000\000\000\000\000\000\006\000\000\000\000\000\000\000\005\000\000\000\000\000\000\000\003\000\000\000\000\000\000\000\002\000\000\000\000\000\000\000\000\000\000\000\000\000\000\000\001\000\000\000\000\000\000\000\006\000\000\000\000\000\000\000\t\000\000\000\000\000\000\000\001\000\000\000\000\000\000\000\005\000\000\000\000\000\000\000\006\000\000\000\000\000\000\000\004\000\000\000\000\000\000\000\004\000\000\000\000\000\000\000\010\000\000\000\000\000\000\000\010\000\000\000\000\000\000\000\001\000\000\000\000\000\000\000\003\000\000\000\000\000\000\000\005\000\000\000\000\000\000\000\004\000\000\000\000\000\000\000\t\000\000\000\000\000\000\000\007\000\000\000\000\000\000\000\002\000\000\000\000\000\000\000\000\000\000\000\000\000\000\000\005\000\000\000\000\000\000\000\004\000\000\000\000\000\000\000\002\000\000\000\000\000\000\000\005\000\000\000\000\000\000\000\t\000\000\000\000\000\000\000\000\000\000\000\000\000\000\000\005\000\000\000\000\000\000\000\t\000\000\000\000\000\000\000\010\000\000\000\000\000\000\000\005\000\000\000\000\000\000\000\006\000\000\000\000\000\000\000\t\000\000\000\000\000\000\000\005\000\000\000\000\000\000\000\001\000\000\000\000\000\000\000\002\000\000\000\000\000\000\000\006\000\000\000\000\000\000\000\004\000\000\000\000\000\000\000\004\000\000\000\000\000\000\000\001\000\000\000\000\000\000\000\003\000\000\000\000\000\000\000\001\000\000\000\000\000\000\000\006\000\000\000\000\000\000\000\002\000\000\000\000\000\000\000\007\000\000\000\000\000\000\000\001\000\000\000\000\000\000\000\000\000\000\000\000\000\000\000\006\000\000\000\000\000\000\000\000\000\000\000\000\000\000\000\002\000\000\000\000\000\000\000\006\000\000\000\000\000\000\000\t\000\000\000\000\000\000\000\010\000\000\000\000\000\000\000\007\000\000\000\000\000\000\000\004\000\000\000\000\000\000\000\006\000\000\000\000\000\000\000\006\000\000\000\000\000\000\000\005\000\000\000\000\000\000\000\007\000\000\000\000\000\000\000\000\000\000\000\000\000\000\000\000\000\000\000\000\000\000\000\002\000\000\000\000\000\000\000\001\000\000\000\000\000\000\000\t\000\000\000\000\000\000\000\006\000\000\000\000\000\000\000\001\000\000\000\000\000\000\000\003\000\000\000\000\000\000\000\003\000\000\000\000\000\000\000\006\000\000\000\000\000\000\000\007\000\000\000\000\000\000\000\001\000\000\000\000\000\000\000\010\000\000\000\000\000\000\000\t\000\000\000\000\000\000\000\004\000\000\000\000\000\000\000\005\000\000\000\000\000\000\000\t\000\000\000\000\000\000\000\003\000\000\000\000\000\000\000\000\000\000\000\000\000\000\000\t\000\000\000\000\000\000\000\001\000\000\000\000\000\000\000\003\000\000\000\000\000\000\000\004\000\000\000\000\000\000\000\t\000\000\000\000\000\000\000\004\000\000\000\000\000\000\000\001\000\000\000\000\000\000\000\005\000\000\000\000\000\000\000\003\000\000\000\000\000\000\000\004\000\000\000\000\000\000\000\010\000\000\000\000\000\000\000\t\000\000\000\000\000\000\000\006\000\000\000\000\000\000\000\007\000\000\000\000\000\000\000\007\000\000\000\000\000\000\000\003\000\000\000\000\000\000\000\001\000\000\000\000\000\000\000\010\000\000\000\000\000\000\000\006\000\000\000\000\000\000\000\010\000\000\000\000\000\000\000\000\000\000\000\000\000\000\000\010\000\000\000\000\000\000\000\005\000\000\000\000\000\000\000\001\000\000\000\000\000\000\000\003\000\000\000\000\000\000\000\010\000\000\000\000\000\000\000\005\000\000\000\000\000\000\000\004\000\000\000\000\000\000\000\001\000\000\000\000\000\000\000\002\000\000\000\000\000\000\000\003\000\000\000\000\000\000\000\010\000\000\000\000\000\000\000\004\000\000\000\000\000\000\000\006\000\000\000\000\000\000\000\007\000\000\000\000\000\000\000\005\000\000\000\000\000\000\000\000\000\000\000\000\000\000\000\005\000\000\000\000\000\000\000\000\000\000\000\000\000\000\000\005\000\000\000\000\000\000\000\005\000\000\000\000\000\000\000\005\000\000\000\000\000\000\000\001\000\000\000\000\000\000\000\010\000\000\000\000\000\000\000\006\000\000\000\000\000\000\000\000\000\000\000\000\000\000\000\000\000\000\000\000\000\000\000"
      }
    }
  }
}
node {
  name: "TensorSliceDataset"
  op: "TensorSliceDataset"
  input: "normalize_element/component_0"
  input: "normalize_element/component_1"
  input: "normalize_element/component_2"
  device: "/device:CPU:0"
  attr {
    key: "Toutput_types"
    value {
      list {
        type: DT_DOUBLE
        type: DT_DOUBLE
        type: DT_INT64
      }
    }
  }
  attr {
    key: "_output_shapes"
    value {
      list {
        shape {
        }
      }
    }
  }
  attr {
    key: "output_shapes"
    value {
      list {
        shape {
        }
        shape {
        }
        shape {
        }
      }
    }
  }
}
node {
  name: "buffer_size"
  op: "Const"
  device: "/device:CPU:0"
  attr {
    key: "_output_shapes"
    value {
      list {
        shape {
        }
      }
    }
  }
  attr {
    key: "dtype"
    value {
      type: DT_INT64
    }
  }
  attr {
    key: "value"
    value {
      tensor {
        dtype: DT_INT64
        tensor_shape {
        }
        int64_val: 1000
      }
    }
  }
}
node {
  name: "seed"
  op: "Const"
  device: "/device:CPU:0"
  attr {
    key: "_output_shapes"
    value {
      list {
        shape {
        }
      }
    }
  }
  attr {
    key: "dtype"
    value {
      type: DT_INT64
    }
  }
  attr {
    key: "value"
    value {
      tensor {
        dtype: DT_INT64
        tensor_shape {
        }
        int64_val: 0
      }
    }
  }
}
node {
  name: "seed2"
  op: "Const"
  device: "/device:CPU:0"
  attr {
    key: "_output_shapes"
    value {
      list {
        shape {
        }
      }
    }
  }
  attr {
    key: "dtype"
    value {
      type: DT_INT64
    }
  }
  attr {
    key: "value"
    value {
      tensor {
        dtype: DT_INT64
        tensor_shape {
        }
        int64_val: 0
      }
    }
  }
}
node {
  name: "ShuffleDataset"
  op: "ShuffleDataset"
  input: "TensorSliceDataset"
  input: "buffer_size"
  input: "seed"
  input: "seed2"
  device: "/device:CPU:0"
  attr {
    key: "_output_shapes"
    value {
      list {
        shape {
        }
      }
    }
  }
  attr {
    key: "output_shapes"
    value {
      list {
        shape {
        }
        shape {
        }
        shape {
        }
      }
    }
  }
  attr {
    key: "output_types"
    value {
      list {
        type: DT_DOUBLE
        type: DT_DOUBLE
        type: DT_INT64
      }
    }
  }
  attr {
    key: "reshuffle_each_iteration"
    value {
      b: true
    }
  }
}
node {
  name: "count"
  op: "Const"
  device: "/device:CPU:0"
  attr {
    key: "_output_shapes"
    value {
      list {
        shape {
        }
      }
    }
  }
  attr {
    key: "dtype"
    value {
      type: DT_INT64
    }
  }
  attr {
    key: "value"
    value {
      tensor {
        dtype: DT_INT64
        tensor_shape {
        }
        int64_val: -1
      }
    }
  }
}
node {
  name: "RepeatDataset"
  op: "RepeatDataset"
  input: "ShuffleDataset"
  input: "count"
  device: "/device:CPU:0"
  attr {
    key: "_output_shapes"
    value {
      list {
        shape {
        }
      }
    }
  }
  attr {
    key: "output_shapes"
    value {
      list {
        shape {
        }
        shape {
        }
        shape {
        }
      }
    }
  }
  attr {
    key: "output_types"
    value {
      list {
        type: DT_DOUBLE
        type: DT_DOUBLE
        type: DT_INT64
      }
    }
  }
}
node {
  name: "batch_size"
  op: "Const"
  device: "/device:CPU:0"
  attr {
    key: "_output_shapes"
    value {
      list {
        shape {
        }
      }
    }
  }
  attr {
    key: "dtype"
    value {
      type: DT_INT64
    }
  }
  attr {
    key: "value"
    value {
      tensor {
        dtype: DT_INT64
        tensor_shape {
        }
        int64_val: 256
      }
    }
  }
}
node {
  name: "drop_remainder"
  op: "Const"
  device: "/device:CPU:0"
  attr {
    key: "_output_shapes"
    value {
      list {
        shape {
        }
      }
    }
  }
  attr {
    key: "dtype"
    value {
      type: DT_BOOL
    }
  }
  attr {
    key: "value"
    value {
      tensor {
        dtype: DT_BOOL
        tensor_shape {
        }
        bool_val: false
      }
    }
  }
}
node {
  name: "BatchDatasetV2"
  op: "BatchDatasetV2"
  input: "RepeatDataset"
  input: "batch_size"
  input: "drop_remainder"
  device: "/device:CPU:0"
  attr {
    key: "_output_shapes"
    value {
      list {
        shape {
        }
      }
    }
  }
  attr {
    key: "output_shapes"
    value {
      list {
        shape {
          dim {
            size: -1
          }
        }
        shape {
          dim {
            size: -1
          }
        }
        shape {
          dim {
            size: -1
          }
        }
      }
    }
  }
  attr {
    key: "output_types"
    value {
      list {
        type: DT_DOUBLE
        type: DT_DOUBLE
        type: DT_INT64
      }
    }
  }
  attr {
    key: "parallel_copy"
    value {
      b: false
    }
  }
}
node {
  name: "IteratorV2"
  op: "IteratorV2"
  device: "/device:CPU:0"
  attr {
    key: "_class"
    value {
      list {
        s: "loc:@BatchDatasetV2"
      }
    }
  }
  attr {
    key: "_output_shapes"
    value {
      list {
        shape {
        }
      }
    }
  }
  attr {
    key: "container"
    value {
      s: ""
    }
  }
  attr {
    key: "output_shapes"
    value {
      list {
        shape {
          dim {
            size: -1
          }
        }
        shape {
          dim {
            size: -1
          }
        }
        shape {
          dim {
            size: -1
          }
        }
      }
    }
  }
  attr {
    key: "output_types"
    value {
      list {
        type: DT_DOUBLE
        type: DT_DOUBLE
        type: DT_INT64
      }
    }
  }
  attr {
    key: "shared_name"
    value {
      s: ""
    }
  }
}
node {
  name: "MakeIterator"
  op: "MakeIterator"
  input: "BatchDatasetV2"
  input: "IteratorV2"
  device: "/device:CPU:0"
  attr {
    key: "_class"
    value {
      list {
        s: "loc:@BatchDatasetV2"
      }
    }
  }
}
node {
  name: "IteratorToStringHandle"
  op: "IteratorToStringHandle"
  input: "IteratorV2"
  device: "/device:CPU:0"
  attr {
    key: "_class"
    value {
      list {
        s: "loc:@BatchDatasetV2"
      }
    }
  }
  attr {
    key: "_output_shapes"
    value {
      list {
        shape {
        }
      }
    }
  }
}
node {
  name: "IteratorGetNext"
  op: "IteratorGetNext"
  input: "IteratorV2"
  device: "/device:CPU:0"
  attr {
    key: "_class"
    value {
      list {
        s: "loc:@BatchDatasetV2"
      }
    }
  }
  attr {
    key: "_output_shapes"
    value {
      list {
        shape {
          dim {
            size: -1
          }
        }
        shape {
          dim {
            size: -1
          }
        }
        shape {
          dim {
            size: -1
          }
        }
      }
    }
  }
  attr {
    key: "output_shapes"
    value {
      list {
        shape {
          dim {
            size: -1
          }
        }
        shape {
          dim {
            size: -1
          }
        }
        shape {
          dim {
            size: -1
          }
        }
      }
    }
  }
  attr {
    key: "output_types"
    value {
      list {
        type: DT_DOUBLE
        type: DT_DOUBLE
        type: DT_INT64
      }
    }
  }
}
node {
  name: "dnn/Cast"
  op: "Cast"
  input: "IteratorGetNext"
  attr {
    key: "DstT"
    value {
      type: DT_FLOAT
    }
  }
  attr {
    key: "SrcT"
    value {
      type: DT_DOUBLE
    }
  }
  attr {
    key: "Truncate"
    value {
      b: false
    }
  }
  attr {
    key: "_output_shapes"
    value {
      list {
        shape {
          dim {
            size: -1
          }
        }
      }
    }
  }
}
node {
  name: "dnn/Cast_1"
  op: "Cast"
  input: "IteratorGetNext:1"
  attr {
    key: "DstT"
    value {
      type: DT_FLOAT
    }
  }
  attr {
    key: "SrcT"
    value {
      type: DT_DOUBLE
    }
  }
  attr {
    key: "Truncate"
    value {
      b: false
    }
  }
  attr {
    key: "_output_shapes"
    value {
      list {
        shape {
          dim {
            size: -1
          }
        }
      }
    }
  }
}
node {
  name: "dnn/input_from_feature_columns/input_layer/INDEX_FINGER_PIP_Y_1/ExpandDims/dim"
  op: "Const"
  attr {
    key: "_output_shapes"
    value {
      list {
        shape {
        }
      }
    }
  }
  attr {
    key: "dtype"
    value {
      type: DT_INT32
    }
  }
  attr {
    key: "value"
    value {
      tensor {
        dtype: DT_INT32
        tensor_shape {
        }
        int_val: -1
      }
    }
  }
}
node {
  name: "dnn/input_from_feature_columns/input_layer/INDEX_FINGER_PIP_Y_1/ExpandDims"
  op: "ExpandDims"
  input: "dnn/Cast"
  input: "dnn/input_from_feature_columns/input_layer/INDEX_FINGER_PIP_Y_1/ExpandDims/dim"
  attr {
    key: "T"
    value {
      type: DT_FLOAT
    }
  }
  attr {
    key: "Tdim"
    value {
      type: DT_INT32
    }
  }
  attr {
    key: "_output_shapes"
    value {
      list {
        shape {
          dim {
            size: -1
          }
          dim {
            size: 1
          }
        }
      }
    }
  }
}
node {
  name: "dnn/input_from_feature_columns/input_layer/INDEX_FINGER_PIP_Y_1/Shape"
  op: "Shape"
  input: "dnn/input_from_feature_columns/input_layer/INDEX_FINGER_PIP_Y_1/ExpandDims"
  attr {
    key: "T"
    value {
      type: DT_FLOAT
    }
  }
  attr {
    key: "_output_shapes"
    value {
      list {
        shape {
          dim {
            size: 2
          }
        }
      }
    }
  }
  attr {
    key: "out_type"
    value {
      type: DT_INT32
    }
  }
}
node {
  name: "dnn/input_from_feature_columns/input_layer/INDEX_FINGER_PIP_Y_1/strided_slice/stack"
  op: "Const"
  attr {
    key: "_output_shapes"
    value {
      list {
        shape {
          dim {
            size: 1
          }
        }
      }
    }
  }
  attr {
    key: "dtype"
    value {
      type: DT_INT32
    }
  }
  attr {
    key: "value"
    value {
      tensor {
        dtype: DT_INT32
        tensor_shape {
          dim {
            size: 1
          }
        }
        int_val: 0
      }
    }
  }
}
node {
  name: "dnn/input_from_feature_columns/input_layer/INDEX_FINGER_PIP_Y_1/strided_slice/stack_1"
  op: "Const"
  attr {
    key: "_output_shapes"
    value {
      list {
        shape {
          dim {
            size: 1
          }
        }
      }
    }
  }
  attr {
    key: "dtype"
    value {
      type: DT_INT32
    }
  }
  attr {
    key: "value"
    value {
      tensor {
        dtype: DT_INT32
        tensor_shape {
          dim {
            size: 1
          }
        }
        int_val: 1
      }
    }
  }
}
node {
  name: "dnn/input_from_feature_columns/input_layer/INDEX_FINGER_PIP_Y_1/strided_slice/stack_2"
  op: "Const"
  attr {
    key: "_output_shapes"
    value {
      list {
        shape {
          dim {
            size: 1
          }
        }
      }
    }
  }
  attr {
    key: "dtype"
    value {
      type: DT_INT32
    }
  }
  attr {
    key: "value"
    value {
      tensor {
        dtype: DT_INT32
        tensor_shape {
          dim {
            size: 1
          }
        }
        int_val: 1
      }
    }
  }
}
node {
  name: "dnn/input_from_feature_columns/input_layer/INDEX_FINGER_PIP_Y_1/strided_slice"
  op: "StridedSlice"
  input: "dnn/input_from_feature_columns/input_layer/INDEX_FINGER_PIP_Y_1/Shape"
  input: "dnn/input_from_feature_columns/input_layer/INDEX_FINGER_PIP_Y_1/strided_slice/stack"
  input: "dnn/input_from_feature_columns/input_layer/INDEX_FINGER_PIP_Y_1/strided_slice/stack_1"
  input: "dnn/input_from_feature_columns/input_layer/INDEX_FINGER_PIP_Y_1/strided_slice/stack_2"
  attr {
    key: "Index"
    value {
      type: DT_INT32
    }
  }
  attr {
    key: "T"
    value {
      type: DT_INT32
    }
  }
  attr {
    key: "_output_shapes"
    value {
      list {
        shape {
        }
      }
    }
  }
  attr {
    key: "begin_mask"
    value {
      i: 0
    }
  }
  attr {
    key: "ellipsis_mask"
    value {
      i: 0
    }
  }
  attr {
    key: "end_mask"
    value {
      i: 0
    }
  }
  attr {
    key: "new_axis_mask"
    value {
      i: 0
    }
  }
  attr {
    key: "shrink_axis_mask"
    value {
      i: 1
    }
  }
}
node {
  name: "dnn/input_from_feature_columns/input_layer/INDEX_FINGER_PIP_Y_1/Reshape/shape/1"
  op: "Const"
  attr {
    key: "_output_shapes"
    value {
      list {
        shape {
        }
      }
    }
  }
  attr {
    key: "dtype"
    value {
      type: DT_INT32
    }
  }
  attr {
    key: "value"
    value {
      tensor {
        dtype: DT_INT32
        tensor_shape {
        }
        int_val: 1
      }
    }
  }
}
node {
  name: "dnn/input_from_feature_columns/input_layer/INDEX_FINGER_PIP_Y_1/Reshape/shape"
  op: "Pack"
  input: "dnn/input_from_feature_columns/input_layer/INDEX_FINGER_PIP_Y_1/strided_slice"
  input: "dnn/input_from_feature_columns/input_layer/INDEX_FINGER_PIP_Y_1/Reshape/shape/1"
  attr {
    key: "N"
    value {
      i: 2
    }
  }
  attr {
    key: "T"
    value {
      type: DT_INT32
    }
  }
  attr {
    key: "_output_shapes"
    value {
      list {
        shape {
          dim {
            size: 2
          }
        }
      }
    }
  }
  attr {
    key: "axis"
    value {
      i: 0
    }
  }
}
node {
  name: "dnn/input_from_feature_columns/input_layer/INDEX_FINGER_PIP_Y_1/Reshape"
  op: "Reshape"
  input: "dnn/input_from_feature_columns/input_layer/INDEX_FINGER_PIP_Y_1/ExpandDims"
  input: "dnn/input_from_feature_columns/input_layer/INDEX_FINGER_PIP_Y_1/Reshape/shape"
  attr {
    key: "T"
    value {
      type: DT_FLOAT
    }
  }
  attr {
    key: "Tshape"
    value {
      type: DT_INT32
    }
  }
  attr {
    key: "_output_shapes"
    value {
      list {
        shape {
          dim {
            size: -1
          }
          dim {
            size: 1
          }
        }
      }
    }
  }
}
node {
  name: "dnn/input_from_feature_columns/input_layer/RING_FINGER_TIP_Y_1/ExpandDims/dim"
  op: "Const"
  attr {
    key: "_output_shapes"
    value {
      list {
        shape {
        }
      }
    }
  }
  attr {
    key: "dtype"
    value {
      type: DT_INT32
    }
  }
  attr {
    key: "value"
    value {
      tensor {
        dtype: DT_INT32
        tensor_shape {
        }
        int_val: -1
      }
    }
  }
}
node {
  name: "dnn/input_from_feature_columns/input_layer/RING_FINGER_TIP_Y_1/ExpandDims"
  op: "ExpandDims"
  input: "dnn/Cast_1"
  input: "dnn/input_from_feature_columns/input_layer/RING_FINGER_TIP_Y_1/ExpandDims/dim"
  attr {
    key: "T"
    value {
      type: DT_FLOAT
    }
  }
  attr {
    key: "Tdim"
    value {
      type: DT_INT32
    }
  }
  attr {
    key: "_output_shapes"
    value {
      list {
        shape {
          dim {
            size: -1
          }
          dim {
            size: 1
          }
        }
      }
    }
  }
}
node {
  name: "dnn/input_from_feature_columns/input_layer/RING_FINGER_TIP_Y_1/Shape"
  op: "Shape"
  input: "dnn/input_from_feature_columns/input_layer/RING_FINGER_TIP_Y_1/ExpandDims"
  attr {
    key: "T"
    value {
      type: DT_FLOAT
    }
  }
  attr {
    key: "_output_shapes"
    value {
      list {
        shape {
          dim {
            size: 2
          }
        }
      }
    }
  }
  attr {
    key: "out_type"
    value {
      type: DT_INT32
    }
  }
}
node {
  name: "dnn/input_from_feature_columns/input_layer/RING_FINGER_TIP_Y_1/strided_slice/stack"
  op: "Const"
  attr {
    key: "_output_shapes"
    value {
      list {
        shape {
          dim {
            size: 1
          }
        }
      }
    }
  }
  attr {
    key: "dtype"
    value {
      type: DT_INT32
    }
  }
  attr {
    key: "value"
    value {
      tensor {
        dtype: DT_INT32
        tensor_shape {
          dim {
            size: 1
          }
        }
        int_val: 0
      }
    }
  }
}
node {
  name: "dnn/input_from_feature_columns/input_layer/RING_FINGER_TIP_Y_1/strided_slice/stack_1"
  op: "Const"
  attr {
    key: "_output_shapes"
    value {
      list {
        shape {
          dim {
            size: 1
          }
        }
      }
    }
  }
  attr {
    key: "dtype"
    value {
      type: DT_INT32
    }
  }
  attr {
    key: "value"
    value {
      tensor {
        dtype: DT_INT32
        tensor_shape {
          dim {
            size: 1
          }
        }
        int_val: 1
      }
    }
  }
}
node {
  name: "dnn/input_from_feature_columns/input_layer/RING_FINGER_TIP_Y_1/strided_slice/stack_2"
  op: "Const"
  attr {
    key: "_output_shapes"
    value {
      list {
        shape {
          dim {
            size: 1
          }
        }
      }
    }
  }
  attr {
    key: "dtype"
    value {
      type: DT_INT32
    }
  }
  attr {
    key: "value"
    value {
      tensor {
        dtype: DT_INT32
        tensor_shape {
          dim {
            size: 1
          }
        }
        int_val: 1
      }
    }
  }
}
node {
  name: "dnn/input_from_feature_columns/input_layer/RING_FINGER_TIP_Y_1/strided_slice"
  op: "StridedSlice"
  input: "dnn/input_from_feature_columns/input_layer/RING_FINGER_TIP_Y_1/Shape"
  input: "dnn/input_from_feature_columns/input_layer/RING_FINGER_TIP_Y_1/strided_slice/stack"
  input: "dnn/input_from_feature_columns/input_layer/RING_FINGER_TIP_Y_1/strided_slice/stack_1"
  input: "dnn/input_from_feature_columns/input_layer/RING_FINGER_TIP_Y_1/strided_slice/stack_2"
  attr {
    key: "Index"
    value {
      type: DT_INT32
    }
  }
  attr {
    key: "T"
    value {
      type: DT_INT32
    }
  }
  attr {
    key: "_output_shapes"
    value {
      list {
        shape {
        }
      }
    }
  }
  attr {
    key: "begin_mask"
    value {
      i: 0
    }
  }
  attr {
    key: "ellipsis_mask"
    value {
      i: 0
    }
  }
  attr {
    key: "end_mask"
    value {
      i: 0
    }
  }
  attr {
    key: "new_axis_mask"
    value {
      i: 0
    }
  }
  attr {
    key: "shrink_axis_mask"
    value {
      i: 1
    }
  }
}
node {
  name: "dnn/input_from_feature_columns/input_layer/RING_FINGER_TIP_Y_1/Reshape/shape/1"
  op: "Const"
  attr {
    key: "_output_shapes"
    value {
      list {
        shape {
        }
      }
    }
  }
  attr {
    key: "dtype"
    value {
      type: DT_INT32
    }
  }
  attr {
    key: "value"
    value {
      tensor {
        dtype: DT_INT32
        tensor_shape {
        }
        int_val: 1
      }
    }
  }
}
node {
  name: "dnn/input_from_feature_columns/input_layer/RING_FINGER_TIP_Y_1/Reshape/shape"
  op: "Pack"
  input: "dnn/input_from_feature_columns/input_layer/RING_FINGER_TIP_Y_1/strided_slice"
  input: "dnn/input_from_feature_columns/input_layer/RING_FINGER_TIP_Y_1/Reshape/shape/1"
  attr {
    key: "N"
    value {
      i: 2
    }
  }
  attr {
    key: "T"
    value {
      type: DT_INT32
    }
  }
  attr {
    key: "_output_shapes"
    value {
      list {
        shape {
          dim {
            size: 2
          }
        }
      }
    }
  }
  attr {
    key: "axis"
    value {
      i: 0
    }
  }
}
node {
  name: "dnn/input_from_feature_columns/input_layer/RING_FINGER_TIP_Y_1/Reshape"
  op: "Reshape"
  input: "dnn/input_from_feature_columns/input_layer/RING_FINGER_TIP_Y_1/ExpandDims"
  input: "dnn/input_from_feature_columns/input_layer/RING_FINGER_TIP_Y_1/Reshape/shape"
  attr {
    key: "T"
    value {
      type: DT_FLOAT
    }
  }
  attr {
    key: "Tshape"
    value {
      type: DT_INT32
    }
  }
  attr {
    key: "_output_shapes"
    value {
      list {
        shape {
          dim {
            size: -1
          }
          dim {
            size: 1
          }
        }
      }
    }
  }
}
node {
  name: "dnn/input_from_feature_columns/input_layer/concat/axis"
  op: "Const"
  attr {
    key: "_output_shapes"
    value {
      list {
        shape {
        }
      }
    }
  }
  attr {
    key: "dtype"
    value {
      type: DT_INT32
    }
  }
  attr {
    key: "value"
    value {
      tensor {
        dtype: DT_INT32
        tensor_shape {
        }
        int_val: -1
      }
    }
  }
}
node {
  name: "dnn/input_from_feature_columns/input_layer/concat"
  op: "ConcatV2"
  input: "dnn/input_from_feature_columns/input_layer/INDEX_FINGER_PIP_Y_1/Reshape"
  input: "dnn/input_from_feature_columns/input_layer/RING_FINGER_TIP_Y_1/Reshape"
  input: "dnn/input_from_feature_columns/input_layer/concat/axis"
  attr {
    key: "N"
    value {
      i: 2
    }
  }
  attr {
    key: "T"
    value {
      type: DT_FLOAT
    }
  }
  attr {
    key: "Tidx"
    value {
      type: DT_INT32
    }
  }
  attr {
    key: "_output_shapes"
    value {
      list {
        shape {
          dim {
            size: -1
          }
          dim {
            size: 2
          }
        }
      }
    }
  }
}
node {
  name: "dnn/hiddenlayer_0/kernel/Initializer/random_uniform/shape"
  op: "Const"
  attr {
    key: "_class"
    value {
      list {
        s: "loc:@dnn/hiddenlayer_0/kernel"
      }
    }
  }
  attr {
    key: "_output_shapes"
    value {
      list {
        shape {
          dim {
            size: 2
          }
        }
      }
    }
  }
  attr {
    key: "dtype"
    value {
      type: DT_INT32
    }
  }
  attr {
    key: "value"
    value {
      tensor {
        dtype: DT_INT32
        tensor_shape {
          dim {
            size: 2
          }
        }
        tensor_content: "\002\000\000\000\036\000\000\000"
      }
    }
  }
}
node {
  name: "dnn/hiddenlayer_0/kernel/Initializer/random_uniform/min"
  op: "Const"
  attr {
    key: "_class"
    value {
      list {
        s: "loc:@dnn/hiddenlayer_0/kernel"
      }
    }
  }
  attr {
    key: "_output_shapes"
    value {
      list {
        shape {
        }
      }
    }
  }
  attr {
    key: "dtype"
    value {
      type: DT_FLOAT
    }
  }
  attr {
    key: "value"
    value {
      tensor {
        dtype: DT_FLOAT
        tensor_shape {
        }
        float_val: -0.4330126941204071
      }
    }
  }
}
node {
  name: "dnn/hiddenlayer_0/kernel/Initializer/random_uniform/max"
  op: "Const"
  attr {
    key: "_class"
    value {
      list {
        s: "loc:@dnn/hiddenlayer_0/kernel"
      }
    }
  }
  attr {
    key: "_output_shapes"
    value {
      list {
        shape {
        }
      }
    }
  }
  attr {
    key: "dtype"
    value {
      type: DT_FLOAT
    }
  }
  attr {
    key: "value"
    value {
      tensor {
        dtype: DT_FLOAT
        tensor_shape {
        }
        float_val: 0.4330126941204071
      }
    }
  }
}
node {
  name: "dnn/hiddenlayer_0/kernel/Initializer/random_uniform/RandomUniform"
  op: "RandomUniform"
  input: "dnn/hiddenlayer_0/kernel/Initializer/random_uniform/shape"
  attr {
    key: "T"
    value {
      type: DT_INT32
    }
  }
  attr {
    key: "_class"
    value {
      list {
        s: "loc:@dnn/hiddenlayer_0/kernel"
      }
    }
  }
  attr {
    key: "_output_shapes"
    value {
      list {
        shape {
          dim {
            size: 2
          }
          dim {
            size: 30
          }
        }
      }
    }
  }
  attr {
    key: "dtype"
    value {
      type: DT_FLOAT
    }
  }
  attr {
    key: "seed"
    value {
      i: 0
    }
  }
  attr {
    key: "seed2"
    value {
      i: 0
    }
  }
}
node {
  name: "dnn/hiddenlayer_0/kernel/Initializer/random_uniform/sub"
  op: "Sub"
  input: "dnn/hiddenlayer_0/kernel/Initializer/random_uniform/max"
  input: "dnn/hiddenlayer_0/kernel/Initializer/random_uniform/min"
  attr {
    key: "T"
    value {
      type: DT_FLOAT
    }
  }
  attr {
    key: "_class"
    value {
      list {
        s: "loc:@dnn/hiddenlayer_0/kernel"
      }
    }
  }
  attr {
    key: "_output_shapes"
    value {
      list {
        shape {
        }
      }
    }
  }
}
node {
  name: "dnn/hiddenlayer_0/kernel/Initializer/random_uniform/mul"
  op: "Mul"
  input: "dnn/hiddenlayer_0/kernel/Initializer/random_uniform/RandomUniform"
  input: "dnn/hiddenlayer_0/kernel/Initializer/random_uniform/sub"
  attr {
    key: "T"
    value {
      type: DT_FLOAT
    }
  }
  attr {
    key: "_class"
    value {
      list {
        s: "loc:@dnn/hiddenlayer_0/kernel"
      }
    }
  }
  attr {
    key: "_output_shapes"
    value {
      list {
        shape {
          dim {
            size: 2
          }
          dim {
            size: 30
          }
        }
      }
    }
  }
}
node {
  name: "dnn/hiddenlayer_0/kernel/Initializer/random_uniform"
  op: "AddV2"
  input: "dnn/hiddenlayer_0/kernel/Initializer/random_uniform/mul"
  input: "dnn/hiddenlayer_0/kernel/Initializer/random_uniform/min"
  attr {
    key: "T"
    value {
      type: DT_FLOAT
    }
  }
  attr {
    key: "_class"
    value {
      list {
        s: "loc:@dnn/hiddenlayer_0/kernel"
      }
    }
  }
  attr {
    key: "_output_shapes"
    value {
      list {
        shape {
          dim {
            size: 2
          }
          dim {
            size: 30
          }
        }
      }
    }
  }
}
node {
  name: "dnn/hiddenlayer_0/kernel"
  op: "VarHandleOp"
  attr {
    key: "_class"
    value {
      list {
        s: "loc:@dnn/hiddenlayer_0/kernel"
      }
    }
  }
  attr {
    key: "_output_shapes"
    value {
      list {
        shape {
        }
      }
    }
  }
  attr {
    key: "allowed_devices"
    value {
      list {
      }
    }
  }
  attr {
    key: "container"
    value {
      s: ""
    }
  }
  attr {
    key: "dtype"
    value {
      type: DT_FLOAT
    }
  }
  attr {
    key: "shape"
    value {
      shape {
        dim {
          size: 2
        }
        dim {
          size: 30
        }
      }
    }
  }
  attr {
    key: "shared_name"
    value {
      s: "dnn/hiddenlayer_0/kernel"
    }
  }
}
node {
  name: "dnn/hiddenlayer_0/kernel/IsInitialized/VarIsInitializedOp"
  op: "VarIsInitializedOp"
  input: "dnn/hiddenlayer_0/kernel"
  attr {
    key: "_output_shapes"
    value {
      list {
        shape {
        }
      }
    }
  }
}
node {
  name: "dnn/hiddenlayer_0/kernel/Assign"
  op: "AssignVariableOp"
  input: "dnn/hiddenlayer_0/kernel"
  input: "dnn/hiddenlayer_0/kernel/Initializer/random_uniform"
  attr {
    key: "dtype"
    value {
      type: DT_FLOAT
    }
  }
}
node {
  name: "dnn/hiddenlayer_0/kernel/Read/ReadVariableOp"
  op: "ReadVariableOp"
  input: "dnn/hiddenlayer_0/kernel"
  attr {
    key: "_output_shapes"
    value {
      list {
        shape {
          dim {
            size: 2
          }
          dim {
            size: 30
          }
        }
      }
    }
  }
  attr {
    key: "dtype"
    value {
      type: DT_FLOAT
    }
  }
}
node {
  name: "dnn/hiddenlayer_0/bias/Initializer/zeros"
  op: "Const"
  attr {
    key: "_class"
    value {
      list {
        s: "loc:@dnn/hiddenlayer_0/bias"
      }
    }
  }
  attr {
    key: "_output_shapes"
    value {
      list {
        shape {
          dim {
            size: 30
          }
        }
      }
    }
  }
  attr {
    key: "dtype"
    value {
      type: DT_FLOAT
    }
  }
  attr {
    key: "value"
    value {
      tensor {
        dtype: DT_FLOAT
        tensor_shape {
          dim {
            size: 30
          }
        }
        float_val: 0.0
      }
    }
  }
}
node {
  name: "dnn/hiddenlayer_0/bias"
  op: "VarHandleOp"
  attr {
    key: "_class"
    value {
      list {
        s: "loc:@dnn/hiddenlayer_0/bias"
      }
    }
  }
  attr {
    key: "_output_shapes"
    value {
      list {
        shape {
        }
      }
    }
  }
  attr {
    key: "allowed_devices"
    value {
      list {
      }
    }
  }
  attr {
    key: "container"
    value {
      s: ""
    }
  }
  attr {
    key: "dtype"
    value {
      type: DT_FLOAT
    }
  }
  attr {
    key: "shape"
    value {
      shape {
        dim {
          size: 30
        }
      }
    }
  }
  attr {
    key: "shared_name"
    value {
      s: "dnn/hiddenlayer_0/bias"
    }
  }
}
node {
  name: "dnn/hiddenlayer_0/bias/IsInitialized/VarIsInitializedOp"
  op: "VarIsInitializedOp"
  input: "dnn/hiddenlayer_0/bias"
  attr {
    key: "_output_shapes"
    value {
      list {
        shape {
        }
      }
    }
  }
}
node {
  name: "dnn/hiddenlayer_0/bias/Assign"
  op: "AssignVariableOp"
  input: "dnn/hiddenlayer_0/bias"
  input: "dnn/hiddenlayer_0/bias/Initializer/zeros"
  attr {
    key: "dtype"
    value {
      type: DT_FLOAT
    }
  }
}
node {
  name: "dnn/hiddenlayer_0/bias/Read/ReadVariableOp"
  op: "ReadVariableOp"
  input: "dnn/hiddenlayer_0/bias"
  attr {
    key: "_output_shapes"
    value {
      list {
        shape {
          dim {
            size: 30
          }
        }
      }
    }
  }
  attr {
    key: "dtype"
    value {
      type: DT_FLOAT
    }
  }
}
node {
  name: "dnn/hiddenlayer_0/MatMul/ReadVariableOp"
  op: "ReadVariableOp"
  input: "dnn/hiddenlayer_0/kernel"
  attr {
    key: "_output_shapes"
    value {
      list {
        shape {
          dim {
            size: 2
          }
          dim {
            size: 30
          }
        }
      }
    }
  }
  attr {
    key: "dtype"
    value {
      type: DT_FLOAT
    }
  }
}
node {
  name: "dnn/hiddenlayer_0/MatMul"
  op: "MatMul"
  input: "dnn/input_from_feature_columns/input_layer/concat"
  input: "dnn/hiddenlayer_0/MatMul/ReadVariableOp"
  attr {
    key: "T"
    value {
      type: DT_FLOAT
    }
  }
  attr {
    key: "_output_shapes"
    value {
      list {
        shape {
          dim {
            size: -1
          }
          dim {
            size: 30
          }
        }
      }
    }
  }
  attr {
    key: "transpose_a"
    value {
      b: false
    }
  }
  attr {
    key: "transpose_b"
    value {
      b: false
    }
  }
}
node {
  name: "dnn/hiddenlayer_0/BiasAdd/ReadVariableOp"
  op: "ReadVariableOp"
  input: "dnn/hiddenlayer_0/bias"
  attr {
    key: "_output_shapes"
    value {
      list {
        shape {
          dim {
            size: 30
          }
        }
      }
    }
  }
  attr {
    key: "dtype"
    value {
      type: DT_FLOAT
    }
  }
}
node {
  name: "dnn/hiddenlayer_0/BiasAdd"
  op: "BiasAdd"
  input: "dnn/hiddenlayer_0/MatMul"
  input: "dnn/hiddenlayer_0/BiasAdd/ReadVariableOp"
  attr {
    key: "T"
    value {
      type: DT_FLOAT
    }
  }
  attr {
    key: "_output_shapes"
    value {
      list {
        shape {
          dim {
            size: -1
          }
          dim {
            size: 30
          }
        }
      }
    }
  }
  attr {
    key: "data_format"
    value {
      s: "NHWC"
    }
  }
}
node {
  name: "dnn/hiddenlayer_0/LeakyRelu"
  op: "LeakyRelu"
  input: "dnn/hiddenlayer_0/BiasAdd"
  attr {
    key: "T"
    value {
      type: DT_FLOAT
    }
  }
  attr {
    key: "_output_shapes"
    value {
      list {
        shape {
          dim {
            size: -1
          }
          dim {
            size: 30
          }
        }
      }
    }
  }
  attr {
    key: "alpha"
    value {
      f: 0.009999999776482582
    }
  }
}
node {
  name: "dnn/zero_fraction/Size"
  op: "Size"
  input: "dnn/hiddenlayer_0/LeakyRelu"
  attr {
    key: "T"
    value {
      type: DT_FLOAT
    }
  }
  attr {
    key: "_output_shapes"
    value {
      list {
        shape {
        }
      }
    }
  }
  attr {
    key: "out_type"
    value {
      type: DT_INT64
    }
  }
}
node {
  name: "dnn/zero_fraction/LessEqual/y"
  op: "Const"
  attr {
    key: "_output_shapes"
    value {
      list {
        shape {
        }
      }
    }
  }
  attr {
    key: "dtype"
    value {
      type: DT_INT64
    }
  }
  attr {
    key: "value"
    value {
      tensor {
        dtype: DT_INT64
        tensor_shape {
        }
        int64_val: 2147483647
      }
    }
  }
}
node {
  name: "dnn/zero_fraction/LessEqual"
  op: "LessEqual"
  input: "dnn/zero_fraction/Size"
  input: "dnn/zero_fraction/LessEqual/y"
  attr {
    key: "T"
    value {
      type: DT_INT64
    }
  }
  attr {
    key: "_output_shapes"
    value {
      list {
        shape {
        }
      }
    }
  }
}
node {
  name: "dnn/zero_fraction/cond"
  op: "StatelessIf"
  input: "dnn/zero_fraction/LessEqual"
  input: "dnn/hiddenlayer_0/LeakyRelu"
  attr {
    key: "Tcond"
    value {
      type: DT_BOOL
    }
  }
  attr {
    key: "Tin"
    value {
      list {
        type: DT_FLOAT
      }
    }
  }
  attr {
    key: "Tout"
    value {
      list {
        type: DT_INT64
        type: DT_VARIANT
        type: DT_VARIANT
        type: DT_VARIANT
        type: DT_VARIANT
        type: DT_VARIANT
      }
    }
  }
  attr {
    key: "_lower_using_switch_merge"
    value {
      b: true
    }
  }
  attr {
    key: "_output_shapes"
    value {
      list {
        shape {
        }
        shape {
        }
        shape {
        }
        shape {
        }
        shape {
        }
        shape {
        }
      }
    }
  }
  attr {
    key: "_read_only_resource_inputs"
    value {
      list {
      }
    }
  }
  attr {
    key: "else_branch"
    value {
      func {
        name: "dnn_zero_fraction_cond_false_93"
      }
    }
  }
  attr {
    key: "output_shapes"
    value {
      list {
        shape {
        }
        shape {
        }
        shape {
        }
        shape {
        }
        shape {
        }
        shape {
        }
      }
    }
  }
  attr {
    key: "then_branch"
    value {
      func {
        name: "dnn_zero_fraction_cond_true_92"
      }
    }
  }
}
node {
  name: "dnn/zero_fraction/cond/Identity"
  op: "Identity"
  input: "dnn/zero_fraction/cond"
  attr {
    key: "T"
    value {
      type: DT_INT64
    }
  }
  attr {
    key: "_output_shapes"
    value {
      list {
        shape {
        }
      }
    }
  }
}
node {
  name: "dnn/zero_fraction/cond/Identity_1"
  op: "Identity"
  input: "dnn/zero_fraction/cond:1"
  attr {
    key: "T"
    value {
      type: DT_VARIANT
    }
  }
  attr {
    key: "_output_shapes"
    value {
      list {
        shape {
        }
      }
    }
  }
}
node {
  name: "dnn/zero_fraction/cond/Identity_2"
  op: "Identity"
  input: "dnn/zero_fraction/cond:2"
  attr {
    key: "T"
    value {
      type: DT_VARIANT
    }
  }
  attr {
    key: "_output_shapes"
    value {
      list {
        shape {
        }
      }
    }
  }
}
node {
  name: "dnn/zero_fraction/cond/Identity_3"
  op: "Identity"
  input: "dnn/zero_fraction/cond:3"
  attr {
    key: "T"
    value {
      type: DT_VARIANT
    }
  }
  attr {
    key: "_output_shapes"
    value {
      list {
        shape {
        }
      }
    }
  }
}
node {
  name: "dnn/zero_fraction/cond/Identity_4"
  op: "Identity"
  input: "dnn/zero_fraction/cond:4"
  attr {
    key: "T"
    value {
      type: DT_VARIANT
    }
  }
  attr {
    key: "_output_shapes"
    value {
      list {
        shape {
        }
      }
    }
  }
}
node {
  name: "dnn/zero_fraction/cond/Identity_5"
  op: "Identity"
  input: "dnn/zero_fraction/cond:5"
  attr {
    key: "T"
    value {
      type: DT_VARIANT
    }
  }
  attr {
    key: "_output_shapes"
    value {
      list {
        shape {
        }
      }
    }
  }
}
node {
  name: "dnn/zero_fraction/counts_to_fraction/sub"
  op: "Sub"
  input: "dnn/zero_fraction/Size"
