node {
  name: "global_step/Initializer/zeros"
  op: "Const"
  attr {
    key: "_class"
    value {
      list {
        s: "loc:@global_step"
      }
    }
  }
  attr {
    key: "_output_shapes"
    value {
      list {
        shape {
        }
      }
    }
  }
  attr {
    key: "dtype"
    value {
      type: DT_INT64
    }
  }
  attr {
    key: "value"
    value {
      tensor {
        dtype: DT_INT64
        tensor_shape {
        }
        int64_val: 0
      }
    }
  }
}
node {
  name: "global_step"
  op: "VarHandleOp"
  attr {
    key: "_class"
    value {
      list {
        s: "loc:@global_step"
      }
    }
  }
  attr {
    key: "_output_shapes"
    value {
      list {
        shape {
        }
      }
    }
  }
  attr {
    key: "allowed_devices"
    value {
      list {
      }
    }
  }
  attr {
    key: "container"
    value {
      s: ""
    }
  }
  attr {
    key: "dtype"
    value {
      type: DT_INT64
    }
  }
  attr {
    key: "shape"
    value {
      shape {
      }
    }
  }
  attr {
    key: "shared_name"
    value {
      s: "global_step"
    }
  }
}
node {
  name: "global_step/IsInitialized/VarIsInitializedOp"
  op: "VarIsInitializedOp"
  input: "global_step"
  attr {
    key: "_output_shapes"
    value {
      list {
        shape {
        }
      }
    }
  }
}
node {
  name: "global_step/Assign"
  op: "AssignVariableOp"
  input: "global_step"
  input: "global_step/Initializer/zeros"
  attr {
    key: "dtype"
    value {
      type: DT_INT64
    }
  }
}
node {
  name: "global_step/Read/ReadVariableOp"
  op: "ReadVariableOp"
  input: "global_step"
  attr {
    key: "_output_shapes"
    value {
      list {
        shape {
        }
      }
    }
  }
  attr {
    key: "dtype"
    value {
      type: DT_INT64
    }
  }
}
node {
  name: "global_step/VarIsInitializedOp"
  op: "VarIsInitializedOp"
  input: "global_step"
  attr {
    key: "_output_shapes"
    value {
      list {
        shape {
        }
      }
    }
  }
}
node {
  name: "global_step/cond"
  op: "If"
  input: "global_step/VarIsInitializedOp"
  input: "global_step"
  input: "global_step/Initializer/zeros"
  attr {
    key: "Tcond"
    value {
      type: DT_BOOL
    }
  }
  attr {
    key: "Tin"
    value {
      list {
        type: DT_RESOURCE
        type: DT_INT64
      }
    }
  }
  attr {
    key: "Tout"
    value {
      list {
        type: DT_INT64
      }
    }
  }
  attr {
    key: "_lower_using_switch_merge"
    value {
      b: true
    }
  }
  attr {
    key: "_output_shapes"
    value {
      list {
        shape {
        }
      }
    }
  }
  attr {
    key: "_read_only_resource_inputs"
    value {
      list {
        i: 1
      }
    }
  }
  attr {
    key: "else_branch"
    value {
      func {
        name: "global_step_cond_false_15"
      }
    }
  }
  attr {
    key: "output_shapes"
    value {
      list {
        shape {
        }
      }
    }
  }
  attr {
    key: "then_branch"
    value {
      func {
        name: "global_step_cond_true_14"
      }
    }
  }
}
node {
  name: "global_step/cond/Identity"
  op: "Identity"
  input: "global_step/cond"
  attr {
    key: "T"
    value {
      type: DT_INT64
    }
  }
  attr {
    key: "_output_shapes"
    value {
      list {
        shape {
        }
      }
    }
  }
}
node {
  name: "global_step/add/y"
  op: "Const"
  attr {
    key: "_output_shapes"
    value {
      list {
        shape {
        }
      }
    }
  }
  attr {
    key: "dtype"
    value {
      type: DT_INT64
    }
  }
  attr {
    key: "value"
    value {
      tensor {
        dtype: DT_INT64
        tensor_shape {
        }
        int64_val: 0
      }
    }
  }
}
node {
  name: "global_step/add"
  op: "AddV2"
  input: "global_step/cond/Identity"
  input: "global_step/add/y"
  attr {
    key: "T"
    value {
      type: DT_INT64
    }
  }
  attr {
    key: "_output_shapes"
    value {
      list {
        shape {
        }
      }
    }
  }
}
node {
  name: "normalize_element/component_0"
  op: "Const"
  device: "/device:CPU:0"
  attr {
    key: "_output_shapes"
    value {
      list {
        shape {
          dim {
            size: 63
          }
        }
      }
    }
  }
  attr {
    key: "dtype"
    value {
      type: DT_DOUBLE
    }
  }
  attr {
    key: "value"
    value {
      tensor {
        dtype: DT_DOUBLE
        tensor_shape {
          dim {
            size: 63
          }
        }
        tensor_content: "v\271#\304\336\211\226?\346\220\212\376\315]|?\256\260\350\357\010\033\265?\354d}\276\276\272\245\277\224Q\300\321\351\324\301\277\036A\"TF\257\265?|Y\003)\353\026\221\277i\236h\306\276>\204?\214\341E\272\372\014\302?(w\0178a\256\224\277\1777Yz\237p\266?\241\356\207\310~P\301\277_f3\342]\211\252\277iq\3060\'h\332?\346\325\272\206y\214\207\277I\302\370H\3162\302?\014}\311)\256\350\264\277\373\230`Os\246\214?\344\225\303\245e\317\230?\205\2312G\301\031\275?u\r\310\230\232\010\306?:\002\312<xA\226?\2570^\242c\317\246\277\250\326N\326\240\226\305?t\336s\036\035p\300?\231\343\306A\312\316\243\277v\332\"\202\324\232\326?\023\277\275\306\211\212\331?\225\256\274\241T\210G?\265\265t\273Mn\222?9\031\250\316\233q\253?P\370\021d\251\232\225\277|}\255K\215\320\227?r\233H\347\376\025\224?\243\035\334B\374h\263\277\234\005n])D~\27704\365\277\376\031\253\277\305\273\373\232\347\263\220\277Q\273\343=\234z\326?\246&zFF\372\201?\224\367\372%\245J\227\277\017\363\255[y\323\201?T\300\342\025-\345\265\277%a\327\335\331\252\307\277rk[_\347P\253?\002\010\352W\344\036\233\277\251W\200\245\251T\324?\221C\243\277\300\301\325?\346\262,\363\261\026\301?\327k\361^\362\225\267?}\3527\227\013*\250?Y\000\256\277\200\271\241?n\265\216w5\343\212?k\230l\377tJ\230\277/\006\305E\244\\\276\277\327<\036e\212Z\314?H:\034\300\317v\234\277K\330m\006n\223\324?\335:\346\3318$\307?\370K0A\262%\320?\315s`\023{c\212\277h]\304\363)2\261?\364\326\351\325:P\261\277"
      }
    }
  }
}
node {
  name: "normalize_element/component_1"
  op: "Const"
  device: "/device:CPU:0"
  attr {
    key: "_output_shapes"
    value {
      list {
        shape {
          dim {
            size: 63
          }
        }
      }
    }
  }
  attr {
    key: "dtype"
    value {
      type: DT_DOUBLE
    }
  }
  attr {
    key: "value"
    value {
      tensor {
        dtype: DT_DOUBLE
        tensor_shape {
          dim {
            size: 63
          }
        }
        tensor_content: "\354L\302\001\004\376\357\277\300\254\222\300\315\377\357\277\200\022]\037\357\370\354\277\366\353Nw\236\370\357\277\364.\203\326h^\336\277UuE\337\223\235\353\277\007\310\341\335\333\376\357\277\333,\003s\231\377\357\277N4\037B\"\256\357\277\205\206\264|\0239\345\277g9\032\321\207\270\350\277\242\276\300\007\nW\350\277\234\210~m\375\364\357\277Pzt]\3273\301\277\356,\325`u\377\357\277\265\004\360\201\343\363\355\277;q\367A\257\342\355\277\201tV\2602\377\357\277\262\316!>\352.\346\277\231\023\017\203Te\354\277]\356\3350\033\356\342\277\231RM\377H\347\356\277zi/G4\246\354\277:$\020\n\245\212\357\277\346|\014\261U\335\345\277iX\010\2022s\340\277/\345\266\\\201\021\270\277\304\030\303b\365\303\307\277\263\246&\177\377\377\357\277\350-\303$\001O\345\277\246\2125\236\000\361\357\277\3717\036\"$\301\355\277\371\025k\270\310\375\357\277fa\364\201\211\204\350\277\224\035\362\001G\303\355\277(\275-`\033T\354\277\037\341\213a\024\005\357\277M\241\261\376\350\376\357\277uo\352\250\017I\306\277\224JxB\257\377\357\277G>\257x\352Q\355\277\325\251\227\204\260\377\357\277\307Yd}\373\341\357\277n<\361\377W\333\344\277\026wr<U\364\357\277=\037\257Q \375\357\277\302BZ!\264\267\351\277\270_\231\022\244m\351\277W,v\342\017R\346\277\213|M\305|o\350\277@\204\270r\366\016\353\277&\212\220\272\235=\347\277\356gg\207\256\272\355\277\301\323\0329\301\255\343\277\017\032n~\313u\332\277\352\300\203\260d\030\351\277\233\0104;\377t\321\277\251\0329\342\373\210\352\2773\377\246\177bG\357\277\033\306\366\275\372\366\356\277\240\334\266\357Q\377\357\277\302\247\367\\\277\303\325\277\220\023&\214f\345\356\277"
      }
    }
  }
}
node {
  name: "normalize_element/component_2"
  op: "Const"
  device: "/device:CPU:0"
  attr {
    key: "_output_shapes"
    value {
      list {
        shape {
          dim {
            size: 63
          }
        }
      }
    }
  }
  attr {
    key: "dtype"
    value {
      type: DT_DOUBLE
    }
  }
  attr {
    key: "value"
    value {
      tensor {
        dtype: DT_DOUBLE
        tensor_shape {
          dim {
            size: 63
          }
        }
        tensor_content: "+\200R\2028\356\322?LB\226\303\366,\322?\321\326\332^\177\220\340\277\211\355\356\001\272\257\272?^\010\3365\215\222\326?\326\223\226\035$\274\340\277\347\216\274{\231\213\301?\314\014\372V\024\304\314?&!\313a{\326\312?\033K\021F\327x\237?\245iqB\370\202\323\2772X\017\245\037\020m?\316W$\201aT\310?\377\247,THC\321\277\251\302\237\341\315\032\305?G\262\242a\214#\305?\323\243g\202\3729\321?\327\024\247\336CW\317?\213VI\277\330\326\307\277/\260}\267/\326\340\277>\251\335L\330\300\267?\313W\331\251\1771\306\277\305\317\373\326\271/\260\277\341\010R)v\264\311?\006\\\241Y#\314\312?\220Z\366^[\303\323?\372\005\242\304:\327\327\277\'7\202;\355\374\326\277\210\240j\364j\200\265?\re\260\373\361\013\332\277\246\013\220\354:\351\261?o\227\344\0353\222\320?\301 D\215\235K\262?9\360j\2713\223\302\277F;\321\"\231\035\325?\354\363\3369\020i\260\277\033Y\"\345a\200\322?\316a)X\004{\310?\036\327L\337\347\317\330\277{F\205^=\366\314?F\364\306\244\032Q\316?3,-\300\312\343\257?5|\352\334\335\030\322?)b*`\257\356\321?\204P\367dr(\320?B\235\311i\025\036\314?4\374\002\325\232A\330\277Ft\266\035\246?\326\277\262\024\250I\031\206\317?j\020I\241\352\337\326\277\343\275\356\235f\273\314\277\177\020n\327\360\031\332\277RRX\220\003\002\237\277[^\373\372\010\231\320?\217\267\205|\n_\327?\231\211;A\017\263\320?m\r\370>MT\321\277\257\206\233\276d\004\244?\342\302\313\035G\375\324?l\340\305\375r&\256?\3416dMv}\311?A\245\245M0\367\331\277\316|\336\277?\306\320?"
      }
    }
  }
}
node {
  name: "normalize_element/component_3"
  op: "Const"
  device: "/device:CPU:0"
  attr {
    key: "_output_shapes"
    value {
      list {
        shape {
          dim {
            size: 63
          }
        }
      }
    }
  }
  attr {
    key: "dtype"
    value {
      type: DT_DOUBLE
    }
  }
  attr {
    key: "value"
    value {
      tensor {
        dtype: DT_DOUBLE
        tensor_shape {
          dim {
            size: 63
          }
        }
        tensor_content: "\301\364j>\266\376\263\277\322t\030\3016J\263\277\227\202\240i\252\243\252?\010\310\365\301\302\341\272\277\347n\363\240\202\276\275?-\026\022r\326\216\247?\005\204{\n%\270\310\277\374z2\275\314\t\322\277\364T\003\244h\253\300?\376\325\241\242\003\365\332?3\364\364\266>Q\275?\203RrV]\352\302?\231\224\212\337w\200\305\277m\0035\204|\263\315?\222\315v\001\006\264\304\277\220T:\263\270Z\267?\202\331\353z\3653\315\277\017C\355\257\005Z\270\277$\301L\302\"\022\251?h(j@\357S\331?\323\202\274\303\222\227\307?\317\216\nR\337h\336?!\240\014\237\276\257\314?\352\211:\265+\333\272?\016c\271B\253U\313?\254\251M\030\244K\273\277\350Ov\216\\\222\322?\214\017X\336\372\325\310?\017\313\260\233c\212\276\277*|l\201\363X\325?\364\024{`\256\"\323\277\214\006\247@\221\347\243\277\013yga\r\037\270\277\205CN\343\007|\251\277\032\335\312\335\252\225\251\277?W?\\\2202\240?\375a\346c\300W\245\277xt\310r\267\220\305\277\371p\177\344\214\027\324?C8\207\347|\343\301\277\345\r\017\3454\331\253\277Z\357\232\004-\354\320\277+\270\345D7R\312\277.#/JT\030\303?\325\227\320\035\367\277\253\277/A\374\262j\306\230\277\270\361@\307\273a\311\277T\331\177\2668\327\311\277\222\225_\006c\304\312?\263\307Uv\013n\272?D,jI\252c\272?&f]\246\235\317\237?\264\262\267s\345\334\263?\254\253(|\273\307\231\277\364\003p\026\243l\273?\364k-\304\321\362\265?e\022\036\002\201-\322?\037\000\326\202\225E\254?2\355h\n\007\274\204\277\270\255-</\025\262\277\013\002.?\245\207\240\277.\222\241#\354\355\244?\321\343\234}\212\210\315\277"
      }
    }
  }
}
node {
  name: "normalize_element/component_4"
  op: "Const"
  device: "/device:CPU:0"
  attr {
    key: "_output_shapes"
    value {
      list {
        shape {
          dim {
            size: 63
          }
        }
      }
    }
  }
  attr {
    key: "dtype"
    value {
      type: DT_DOUBLE
    }
  }
  attr {
    key: "value"
    value {
      tensor {
        dtype: DT_DOUBLE
        tensor_shape {
          dim {
            size: 63
          }
        }
        tensor_content: "\\\356\'\2765K\330?4\362\375\375\367\232\326?\225!\335\273E\341\244\277\352d\241\2046\214\277?. r\002\354\206\336?\242\216\226\034\332t\220\277M-:\335\242\341\301\277\233E E:\317\322?\253Vy\326\273%\\?\201\n\242I\275\202\306?\3716X\223\002f\266\277\026_\342\377\366\213\256?,J\246\226\357\221\316?zK\336\245yl\342\277J.Z\333o\310\306?\351m\001\333\240z\252?\374~ /Z6\321?G\031\263\035:\332\321?\340\273\356)\020\250\302\277\327\r\200]\362\344\305? \3574\035*[\226\277)\237\324M\030\003\322?2|~\367\022S\253\277\002\374K9\374\301\226?>\373\217!\007\362\242?z\204\201\204\264\010\326?\317yt\300\001o\343\277c\270:\000\342\216\343\277\333\241\202?\323\375\267?\251G}\006\222\377\317?\004\037\244#\220\375\300?\340\022\200\177J\325\325?\300\017%_\2532\270?\300\355d\313M/\275\277\364\344\263\2379\351\332?\340?i\352m\032\300\277\260\267\305\343?p\327?\365\323\342\000\270a\315?a\366xB+\247\342\277\363\\:A\366\025\324?\346\036\022\276\367w\326?\353g\373\241\343\264\274?\257\301\261\035B\213\322?B\2471ks\255\326?\037\315\242\301\267\272\322?\345YQ\234\006\271\322?\270\221\262E\322\256\342\277\276\247\315\223\306C\342\277\347Q\301F1\367\233?*W\236^.\204\267\277\325\007/MS\374\270\277\014\212\017\201]\254\267\277\263\\WH\320\312\302\277E\360\340\243\325{\322?!\363\330\001\235\n\340?*+\372\001\027}\307?\217\275b6\226j\316?\276f\332z]\361\312\277\331=\036\2375$\322?W\300o\t\341\315\301\277I+\276\241\360\231\322?\226\023f:q\302w\277\374\253CE\007j\320?"
      }
    }
  }
}
node {
  name: "normalize_element/component_5"
  op: "Const"
  device: "/device:CPU:0"
  attr {
    key: "_output_shapes"
    value {
      list {
        shape {
          dim {
            size: 63
          }
        }
      }
    }
  }
  attr {
    key: "dtype"
    value {
      type: DT_DOUBLE
    }
  }
  attr {
    key: "value"
    value {
      tensor {
        dtype: DT_DOUBLE
        tensor_shape {
          dim {
            size: 63
          }
        }
        tensor_content: "X\016\241\010\261\314\314?\254\236@\226\r\204\315?\263j\204<\212L\337?\332$\273\251\263\240\317?\263\301x\274\177\242\333?\203_\227\237#\013\335?\236\267-\241\355>\340?R\270N\276\001\257\242?,\315\265\201\236z\340?\342\335\333>\365Y\324?\212\360\345\364\253\357\325?\272v\263P|F\341?\005\032K\334S\007\305?\255\266I\3428\262\316?\367\355=\277\234\027\306?\201\020\301\037\033\024\342?[\221B\240\315\206\266?H\222\326\316\346\'\310?\032\024rJ\345\222\330?\213@\355\236\331\201\343?\213\241A\257\344O\342?\260\366\301Cb\314\335?N\202\222]\304R\334?\204`\372\003\212\375\340?B\n\371\373 f\342?\355{\273\302\016%\302?\345\016\233\310\314\205\320?\376\271\005\236\275+\312?\375\374\265\304\343\005\316?\317|\265@\016\214\334?\277\274[\264[&\272?\254\006\274\'j\304\330?ul\251(\003\254\317?\027\345%A\260\221\333?\227\260\323\233\223\317\325?H&3 s\314\331?\007\272\223\3338\032\326?[S($\374\377\306?-\276Wc\277\335\323?\224\240\277\320#F\302?w\020\032E\377\031\327?\007P\332\273\t5h\277\310\014\257\1772\241\312?\241)\340C.]\337?\373\254\225}\025h\320?3\271b\220\005\026\332?\222\241\327]\250\025\276?\363\032\247`\0164\265?\023M\373A\270\235\341?\177\014g\310\302\241\326?\341 \347\036\216\005\330?\t\003\246>V\021\333?\3224\315\340\224^\332?\026(\357\004ww\314?\306/\037\275\237\242\334?\347\276A <\177\335?9\204\"\3042\311\325?\346\025\231\312\354=\333?\214\232\267\003\330\364\332?\300\260_$rI\322?Ir\361\236\240\340\326?\3106\272\224\004r\332?\\5tX\206\335\300?"
      }
    }
  }
}
node {
  name: "normalize_element/component_6"
  op: "Const"
  device: "/device:CPU:0"
  attr {
    key: "_output_shapes"
    value {
      list {
        shape {
          dim {
            size: 63
          }
        }
      }
    }
  }
  attr {
    key: "dtype"
    value {
      type: DT_DOUBLE
    }
  }
  attr {
    key: "value"
    value {
      tensor {
        dtype: DT_DOUBLE
        tensor_shape {
          dim {
            size: 63
          }
        }
        tensor_content: ";\251\314 \200L\332?\354\355C\234V\243\327?\332\341\366\236\246\243\244?\036\201\344B\212&\303?P\217m\031p\226\337?\374\037\327\273|A\253?r\362*\2048\203\325\277\326\333,\177:u\326?`Z\324\'\271C\301\2775<\305\303\336\270\315?\270\270\344\275\014\364\246\277\317\244M\325=\262\271?|\033\254I\0013\320?\321\252\371\236Ol\351\277\004\306~?\312\302\310?$FGa;yt\277\3661\223f\373\251\310?\n\316*}2\020\322?\331\274`&@\003\311\277K\353\312\3022\021\321?\215\2216\237\204c\265\277\033\036N\242V?\326?8xp\301c\t\313\277MZ\375\200#[\273\277\3467\257^\003*\270\277\010\221\312\034\344X\326?h\354K6\036\354\351\277\325\003\346!S^\352\277\254\003{\247]\247\300?\261\246\364D\276(\320?\312\337{\207\364>\313?\3173Q\337\215\340\330?g\023\273\021q\316\302?3Z?\344\312\254\307\277Y\225\320\237.9\335?\302\323T\344J\034\315\277r\006\230\\99\332?\3605_\200\330\255\316?\313ud\366\303\031\351\277+qx\234\375\\\327?\004\345ta\275t\332?R21D\3534\310?3\324r\261\2632\320?\374\265H\034\252\020\327?\256\344\031\352f5\323?X\236Q\004\202\212\324?\3702Q\204\324-\347\2774\271\275Ix\247\347\277\212\027\023\264,\014\275\277uq\317~\232\026\205\277Y\253\326\277t%\275\277\016\273RC\331c\247\277\020\332a\002ma\316\277W\253~\276\220\302\325?\272\202m\304\223\335\340?\312\330\371L0{\277?\201gs\203>d\307?\200\274\364\202\221\317\327\277\265GV\033\357P\314?\327\026\\{\270G\316\277K\021l\236\033\201\325?lDj\271\267K\222\277\362\017\2663\247&\313?"
      }
    }
  }
}
node {
  name: "normalize_element/component_7"
  op: "Const"
  device: "/device:CPU:0"
  attr {
    key: "_output_shapes"
    value {
      list {
        shape {
          dim {
            size: 63
          }
        }
      }
    }
  }
  attr {
    key: "dtype"
    value {
      type: DT_DOUBLE
    }
  }
  attr {
    key: "value"
    value {
      tensor {
        dtype: DT_DOUBLE
        tensor_shape {
          dim {
            size: 63
          }
        }
        tensor_content: "iG\273\033UW\332??\2063d\341\220\332?r:\003\002!\002\322?\306\361l$Cm\336?\2216D\313p\362\344?\315\232q}\314\005\321?\206?\036U\250\311\316?\247\373k?:\361\320?K\032H\274\341\243\347?\2174\227\237D\031\260?\235\304\030?*Q\310?]#8\344U\014\351?R0\276\303H\312\327?j\264\207\203\2456\313?:\251\263\203\337@\327?\r\211{,}\250\351?\327\223m\236\362\201\323?\361\217k\001\251&\330?\223\266\310\250\370\340\313?\274\201\372}\234\374\323?\024\367\355^\315\245\351?O{\245\207\374\016\302?\260\035J\274U\272\320?=@\234,Ze\350?\376O\264a\003\030\351?\004\017\302\222a\313\314?\272\031\311yZ\331\310?\274{\035\304\0201\305?:\234\257H\002\303\334?\200\270\016\202L:\320? \364\246\001\007\335\325?\205\330\364\373Y\007\345?1\331\323i8@\335?i\275J\004\313\r\321?\002\035\367\367c\344\343?\353$2\336\034\317\316?\264\335NlO\332\343?\266\207\234B\327S\331?\365\024\224\375N\356\320?I6O\\+-\326?\235H0\325\314\332\344?]UQ\027\204\315\305?\231ULc\203\236\334?\371\257\275`\201\371\346?\005\361\313\252\031c\335?\004\007\017.x\254\345?\nZ\222M\003\320\326?\301\326\327\200)\177\323?U@\220r\346\315\350?\013%rER\240\310?\335zn\035\363\354\315?i.\201\245\004\216\317?\351\020\027\004\177\215\316?\265\247\344\234\330\003\324?\216\256\220\301\243p\345?\322&\177\336\361\271\350?\233\331[\210\335\220\317?\335\340U \304\277\345?\324\323G\340\017?\350?v\273\003\341\257N\340?\033%\267?z\367\343?\r\013\3773\224$\326?s\034pD\224B\327?"
      }
    }
  }
}
node {
  name: "normalize_element/component_8"
  op: "Const"
  device: "/device:CPU:0"
  attr {
    key: "_output_shapes"
    value {
      list {
        shape {
          dim {
            size: 63
          }
        }
      }
    }
  }
  attr {
    key: "dtype"
    value {
      type: DT_DOUBLE
    }
  }
  attr {
    key: "value"
    value {
      tensor {
        dtype: DT_DOUBLE
        tensor_shape {
          dim {
            size: 63
          }
        }
        tensor_content: "\354\201=\303\'\337\332?6\331\365\301\350\350\327?e\354\370\355\3631\263\277\267qr\\\031\026\305?\255\356`\335\333\341\337?\016\375\217#\010\035\263\277\303.H\002&\323\322\277\304\244\256kj\017\331?\332\277\374_\2771\320\277\207\203\214\231\247\347\310?t;\003<\314\013\277\277q\025rBtJ\276?\312\027\027\273;z\320?\304\356;\206\307~\357\277E\303\030G\233\231\311?\231F\264\231\032\323\261\277\225\260\333\014\334&\272?D\273\257o\314W\321?V\275\231$\3300\314\277\224\320\310\255j\305\277?\360\327*\342\360\331\304\277\315c\346e\301\002\312?\004\341\320|J%\320\277\272H\004W7\346\314\277=\3630\274\253\001\312\277\363\241\270\2411,\325?\317\213n\030`\272\357\277\277K\004\0059\303\357\277|\005/\033\031\273\301?\341\356\315\353_\304\260?\301\201\332\271z_\322?\243P\375 \036\213\332?24\307\207\023w\314?Q1\214\303\262\374\311\277\364\253R\335\320\222\335?\035\263G\003\323\004\320\277lz/B\2413\333?g\206\205A6\034\320?*%\272\035\320(\357\277\251\223\277\275c\037\331?n\276\266#A\035\335?\234\253 \345\253\r\320?\351\312\220\370O\226\312?\275-`\033T\317\326?\343\322B\023ro\323?\372\340)\242.+\326?_\032\320\034\243\306\352\277\205\345t\376\222\031\354\277\232\246:\252\273\256\316\277*W\236^.\204\267\277N\004\026e\333\216\305\277\r\026o\340\345T\302\277\020u\243\270x\262\315\277\352\250\223\001\3325\330? \225\007\216p\277\340?#\276\023\263^\014\263?\262B,\303\001\362\216?Q\335\032\340\233I\340\277\310x\326fJ\210\307?c\226\342O\371\374\324\277`q\233\035g\342\327?\243\235h\221\314n\275\277\267\310$\300<\246\302?"
      }
    }
  }
}
node {
  name: "normalize_element/component_9"
  op: "Const"
  device: "/device:CPU:0"
  attr {
    key: "_output_shapes"
    value {
      list {
        shape {
          dim {
            size: 63
          }
        }
      }
    }
  }
  attr {
    key: "dtype"
    value {
      type: DT_DOUBLE
    }
  }
  attr {
    key: "value"
    value {
      tensor {
        dtype: DT_DOUBLE
        tensor_shape {
          dim {
            size: 63
          }
        }
        tensor_content: "]R\265\335\004\277\342?{{!.J\232\342?\2714\341\013Q\215\277?\306\250J\337\224g\345?\260_\013\325(\277\353?=\374\014\332q\344\276?=\213\265*OA\252\277\000\253#G:\003\336?C\226\375\2416}\354?]aZ\210PTV?z*z\274\2358\256?*\301\207\267s\306\357?\253J\021\317\310\226\341?\212\245\222K-\245\306?\\e\\\'\344\371\340?\235\321\373k\036\354\357?v/\275\036\310\321\336?\311\271\240\000\202\340\340?\"\2324\236\354\214\245?\254\n&aS\245\271?8\032\033\025\223\222\357?\036!\252\300.b~\277\"wKQ\262\305\271?q<\237\001\365F\356?*8\274 \"U\357?\006\342L~Q#\321?Q\302\310\242\033\247\300?8\023\364\223A \277?\205\001\360\364\357_\344?\211\007\224M\271\302\277?\334\336\311\002\201\351\340?\236RoW\371\257\354?\260\2544)\005\335\344?\272\n\316\2056\245\264?\262\024$\021uz\353?\336A\271[\374\347\253?\271\377\310t\3504\353?\337N\"\302\277\010\343?\247\026\0316-%\315?\345\302y\037\344\210\340?F\214\205\276G\177\354?\375\313\244<\251%\324?\270dn!<\330\344?S\307\256\335\013\346\355?\326^\372M\027\230\343?\321\023\205L\350\244\355?\2272\025\207\330\205\341?s[l\244\266\236\336?\243\301u\336)\021\357?\006\027\036@.\215\255?\262AO\230jE\270?\332W?\262\220\353\271?\250\341\356\273\010\244\247?\320\036\232?\307C\332?}\033\007\003tD\353?\214\024%|J\351\357?\330 \233\375\344\034\303?\223\301\3668x\213\353?\246,\236\325]t\357?Z)\251\270\026\222\345?X,\217\177\260=\353?\360\r\317\\\361\036\317?\361\304b\212(\234\341?"
      }
    }
  }
}
node {
  name: "normalize_element/component_10"
  op: "Const"
  device: "/device:CPU:0"
  attr {
    key: "_output_shapes"
    value {
      list {
        shape {
          dim {
            size: 63
          }
        }
      }
    }
  }
  attr {
    key: "dtype"
    value {
      type: DT_DOUBLE
    }
  }
  attr {
    key: "value"
    value {
      tensor {
        dtype: DT_DOUBLE
        tensor_shape {
          dim {
            size: 63
          }
        }
        tensor_content: "\024\000gR\330\177\260?\267\265C\313\323\034\247?\222\234\247\225\235Y\325\277\333\207\037\020\2460\263\277\207\362\354\217\203T\226?|\323W\004\275\277\325\277?2\004\235\234#\335?M\000G\000\014\013\255\277F\255m\340\307\376\215?V\336D\343?\023\316\277L\036hh\260g\264\277\267\034\226\243S\031\314\277a\017\033\234\360a\202\277z\233Hzb\347\324\277\037R\t\330\331S\222\277c\010B\252\017\301\234\277\372\323\210\221\014\326\261?\277\003\006\300\255\370\256?\260\245\354\231\312G\275?\277\376\332\260\\e\343\277\017HC?\263!\263\277\222\205\236\203\035\265\334\277^\301O\177jz\315?\335\022\273\3417\270f?\264\234\r{V`l\277\203Hr8t,\237?\020\330\213W\017N\335\277\353N^\001\330B\331\277\236\205\322Q\355W\263\277\214\026\177_L\310\336\277@\\\244\026k\264\303\277\226\240\330m\304Q\211\277}\341\351#]$\242\277\320\372k\344\200~\300?\263\2059\244\305\327\254?>\205\216\343\250\330\312?6\nA\365\254\367\235?\305\273\373\232\347\263\220\277\351&\326N9\013\340\277\204\'x38\204\205?\224\367\372%\245J\227\277\355\341?\233$\257\270\277\367\334\002<{\304\242?\223r\035\001\341\345\242\277Hk\353+8Q\247?\025\255y\341\020\242\243\277\270\257E\003_n\324\277\300\377^#\254\372\322\277\222\330\021.\264\330\211?J`\020\344\342 \300\277\0375\327}\210\214\240?\253Yg|_\334\304\277>\321\320\232z\270\316?_E\270\\\014\004\220?\241\362\022\020QT\243?o\024\335Z\255je?\016\230M\241ob\325\277+\333\207\274\345\352\267\277\337M\250\301\343\304\247?He\263\2709t\262\277]h\021\376\003\264\244\277\260x$=\220\345\316\277\333\n\302^&_\254?"
      }
    }
  }
}
node {
  name: "normalize_element/component_11"
  op: "Const"
  device: "/device:CPU:0"
  attr {
    key: "_output_shapes"
    value {
      list {
        shape {
          dim {
            size: 63
          }
        }
      }
    }
  }
  attr {
    key: "dtype"
    value {
      type: DT_DOUBLE
    }
  }
  attr {
    key: "value"
    value {
      tensor {
        dtype: DT_DOUBLE
        tensor_shape {
          dim {
            size: 63
          }
        }
        tensor_content: "UJ2\037\316K\262\277\216<6 G\025\260\277m\306\355\300\316\207\251\277\370yBe\262n\267\277_O\t\302\364\301\307?]\221\363Y\371\300\255\277\001\300\363\203\241+\300\277\264\241\3157\303\211\315\277\235\233\"\377M\241\253?\211\271\377#.\033\327?\200\221y\337VL\266?tA\304\240(\335\263?\332\211\232\001\221r\301\277?.\007\000\342<\243\277\2340\304^\346\303\302\277\371\370^%\032\002\222?F\314O\036\324\315\275\277\200&%\261b\300\265\277EZu!\207\335{\277\216\265\267B\365b\302?j\313\220\225%[\266?\234\277\215\275\254\303\325?U\372\307J\345P\270?H\376e\231s`\231?F\266\261\341\0023\300?\ti\244\335\234\325\250\277m#\221\302d\306\223\277Kw\370\347y\242\275\277-7\033\242?q\274\277\237\240Y\201=\000\272?4\261\310\310\274\202\316\277wQuA\335=\246\277\244\035\263\303\312.\305\277\276j\002\230t\214\272\277\334y\207\200\350\356\225\277P\n\263\003\300\016\220\277\274\010\021xy\235\211\277\356\346-G]%\304\277\\\316\366\377\251l\217\277EF\213\\\005k\274\277\345\r\017\3454\331\253\277\204l0?\375\010\310\277\213\313+\266\315\375\312\277\356\254@\241\\\242\310?A,\027\001\200)\254\277\256\332\266\241\302\016\257\277\177\373\031b\345\345\324\277\221\000\177B\207J\324\277qW\257\"\243\003\300?\225\354}OQ\232\264?o\365\355;\276q\251?\035u2@\273\246\260\277\013$\375\375/\305\235?\337\205\025\275?\035\251\277\316\354\210}\341\231\307?8/U\177\271\234w\277)\367?_zDc\277\371q\345\000\202\270\260\277\240\016\022?R\006\266\277\343\'@\332 \017\300\277F+R\274%\224\253\277\210\244P\365\257U\315\277+c\350}\210\262\302\277"
      }
    }
  }
}
node {
  name: "normalize_element/component_12"
  op: "Const"
  device: "/device:CPU:0"
  attr {
    key: "_output_shapes"
    value {
      list {
        shape {
          dim {
            size: 63
          }
        }
      }
    }
  }
  attr {
    key: "dtype"
    value {
      type: DT_DOUBLE
    }
  }
  attr {
    key: "value"
    value {
      tensor {
        dtype: DT_DOUBLE
        tensor_shape {
          dim {
            size: 63
          }
        }
        tensor_content: "eX\203\377\306\001\320?\260\003\010\233\021\220\316?\024[ \305)\010\311\277y\017\351\032\332>\317?0\203\316\367\225\177\301?#\266`Num\305\277i\212\245\355\004 \335\277\332\302\230\231>`\336?\222=!\277\247\007\334?A.\314\235\364\231\324?h\002\013\201\330)\320\277\356\330!a\214\206\273?\303y\335\307v\343\321?\274\204\371\341\326\023\330?\033\215S\337\277\032\322?\247\001(\353\334Y\327?(~J\235\231C\305?\310\004\343}\250\366\315?R\225[\377S\026\325\277|\227\367\335\031\222\314?\265\261\n\202dM\326?`\"\336:\377\366\327?\345,G#\372\220\334\277\232\177\221#\337\235\332?W%\221}\220\245\326?\235u\031@\360_\321?\323?\261\343\371\353\325?\',3\235\204/\326?>\302Y\337\372\017\321?\321\026&?!\274\264?\017ll\341?\376\333?\237 o\301k\372\316?.\033\235\363S\034\320?_7\370\004\201\274\323\277\277\002\240\243\270\327\306?\373\260\275\232,\203\327\2777\306Nx\t\316\313?[{<\200\207Z\323?\205\240Y\310\022\214\324?\307\001\211`\373\315\324?\221\007\246\303\330\374\314?\027\272\022\201\352\237\331?e\262\321\234i\000\325?\223\351\351\206\032C\301?\307\210\237Z\330\256\322?[\232\031\005\332\000\321?\202\361_b$b\312?b#\275f\301]\317?\307\354\321\3004\261\331?b\272\265\361\314p\320\277\020+\324\201I\275\324\277\364\364\031i\014g\317\277\356@\235\362\350F\326\277K\207\230\\\326\016\325?)\020\2605\3371\303?\262qP\004i-\335?\252\266\335\374m\354\215?\021&{:\r\207\341?I\264\354b\375\023\337?\224\206\032\205$s\337?\312|Q\314\213]\320?\276)\264\305\230\350\302\277m\337\006)6n\312?"
      }
    }
  }
}
node {
  name: "normalize_element/component_13"
  op: "Const"
  device: "/device:CPU:0"
  attr {
    key: "_output_shapes"
    value {
      list {
        shape {
          dim {
            size: 63
          }
        }
      }
    }
  }
  attr {
    key: "dtype"
    value {
      type: DT_DOUBLE
    }
  }
  attr {
    key: "value"
    value {
      tensor {
        dtype: DT_DOUBLE
        tensor_shape {
          dim {
            size: 63
          }
        }
        tensor_content: "\021\337.\240\2744\255?\325J\334\273\352\'\245?\032\024rJ\345\222\312?\301%[\270\007|\276\2773I\260a\033+\252\277\237\263\242Y\033[\312?\032G\325D\331:\261? \355)\200\374\201\256\277\223\342\302\005\311\320\300\277\021\3422\275\260t\246\277\215\027\301\265\311\227\277?\036N`:\255\333\312\277\351\267\332\203C\201\220\277\303f_\375\310\302\307\277\254Ao\\\214\242\241\277\"+\t\232\340\345\273\277\235\024\372!\265\327\242?\023\201\250\003r\354\252?\365k\360`\271\025\275?|\227\367\335\031\222\314?\205\201B\2306w\301\277\017\323\271\000\006\022\263?\365\247\307\225\376\316\305?\034XT\345\367\r\272\2775\260A\236\336>\276\277\213\255\211\315\023D\213?)\031\306\376.C\300\277t.A\035\301\323\313\277\300\256\252\207\375\330\267\277\307\226\2122\300*\323?}\235\253\030tc\302\277\345\330\252\277\206)\227\277\205\322\332\336\265\036\261\277\007\036c\027\332s\274?10\213\206\0259\217?I\234\272\227\240\253\300?\375\374\001S)\035\200?\364\322\010\216\257c\216\277\266A7E\221\377\273\277\'\006\372\244\020Qg\277\224\367\372%\245J\227\277\273\017\335?X>\274\277B\265\313\373[\251\203?\340\377\345_m\272\272\277\241P\252\330\363\220|?\n\211\024\000l\013\260\277\361\247\337\350\327\224\305\277 \237\312HA`\306\277/\211\365><\350\277\277\342\\\370\376\\\355\274?\277,\246\377\320\277\271?\"\312rm\003\322\304?y\006\211\304o\320\270?\177\004\271\034\223\353\250\277\206h\310\006?b\231\2772\254$\252\236i\264\277Iz\377\274\374\320\322?n\221\315\270\035\330\304\277\023c\333\232[\276\260\277\246\250\310[\215p\300\277>k\n\246\222\350\260\277\316\240\210\342\341\177\313?\003\266*Y\263m\227?"
      }
    }
  }
}
node {
  name: "normalize_element/component_14"
  op: "Const"
  device: "/device:CPU:0"
  attr {
    key: "_output_shapes"
    value {
      list {
        shape {
          dim {
            size: 63
          }
        }
      }
    }
  }
  attr {
    key: "dtype"
    value {
      type: DT_DOUBLE
    }
  }
  attr {
    key: "value"
    value {
      tensor {
        dtype: DT_DOUBLE
        tensor_shape {
          dim {
            size: 63
          }
        }
        tensor_content: "\361v\316`\235\364\321?\225\343\302?t\232\322?\352x\016]7\002\335?\313Au\0308\305\325?\267\270!!%\361\341?\332\"\243\342\203G\332?\242\375\376\203\3768\342?\252\023\351\341x|\301?\234G\254b}\305\324?\275R\330=`\273\300?(\007\273zx\303\322?\242/\326\232Z4\335?\310\035\333\327&\272\316?i\251\233\017\370\221\231?A\224\365\274\227R\317?8Za<{\225\323?A0\242HR\255\317?a\221\231\352M\265\306?\237\323\342B\3243\326?%\234qu[\375\325?\245\263\335NlO\320?\242\357\260\201[T\322?|\231(B\352\366\320?V\214F\200\313\312\323?\3205\202C^\305\320?\341\n\007\306\352\244\310?m#\221\302d\306\223\2770\240\271|[\030\234?\240\343@\233^\032\323?\0234\034\205\332\245\310?\324\203aD\313\317\317?\334\353I\005\272\233\334?:\374\034\274\002\223\312?B\270\237\3379\214\327?\214\256\034k\220\223\334?#x\317\303\001\333\326?\212\3734\223\024\375\334?j(\336\226\0021\313?\205N\337\235B\317b?\213Wrx\265\232\315?\254\'\251\002\244l\332?\234CB)\224\344\303?y\275\311\251|\323\305?X\247o>\032s\341?cLvC\2050\322?4\010\275H\262X\333?t\325\227\000W\r\312?_\350\327\367]h\312?;\201\372\340\306\367\320?\003\t\314;54\324?\270\035\032\026\243\256\322?\326\266Y\243\273w\330?ZH\002\005\305,\326?\003\227\205~\277{\307?\366u\307\377p\331\341?`\230\247\316\376\033\326?C\253\2233\024w\242?\363\314&\033j/\321?\311\016\"\000\325\313\326?\343|\240\313\212\027\322?O\215]\303\210T\332?\010:{\343{\261\321?\200\371}b\021\301\320?"
      }
    }
  }
}
node {
  name: "normalize_element/component_15"
  op: "Const"
  device: "/device:CPU:0"
  attr {
    key: "_output_shapes"
    value {
      list {
        shape {
          dim {
            size: 63
          }
        }
      }
    }
  }
  attr {
    key: "dtype"
    value {
      type: DT_DOUBLE
    }
  }
  attr {
    key: "value"
    value {
      tensor {
        dtype: DT_DOUBLE
        tensor_shape {
          dim {
            size: 63
          }
        }
        tensor_content: "G\332I!\351\003\232?9O\271\345\312p\225?\315\266\252WW\246\314?}0V\277\305\317\262\277\001\342K4\212\335\275\277\242y\306\337r\314\314?\002AFa\223\214\274\277b\327T\350Lr\231\277\256\232\347\210|\227\226?,\353\202\352\264\250\246?\226\263\024\034\240\254\302?\316u\267>\356S\304\277\260\326\254\332\005\350\234\277)\303#\267Gk\306?\010\270H#d\365\232\277i\323U\335\312\342\253?\250\210,\002\376Q\223\277\031rg\204\211\317\221?\345\377\002\377c:\244?l\033-\244O-\320?,\032\000\344c\373\260?CH\314\242f\376\305?\313&\254\314\025W\205\277y\246<_X#\262?\010\366\300\0207|\216?$Odv\256\331\206\277\325\377A=\340.\316?\362\330\205\325\016\265\301?\340XaD\354]\235\277\355jMNH\306\313?z\321\313\346y\211\244\277\206\3246\303\342w\220\277\365y,\200\240\021\241\277\3044\200u$\260\230?D\356\361[\327\334\242\277\021nN\377;\235\213?\357\234&f\317\373\227\277\3047\325\331\027p\201\277\"\376aK\217\246\314?w\337\255\003R(l?\r\014\213\027,Q\211\277B\177\272\344,\252\253\277+\005\271\230ZG\237\277\010mb\026\024e\303\277\262\343p\372;Z\207?\263a\'\236\256L\245\277\326\302\260\354\027&\277?5;9\340F\214\276?X&\325\035X\305\\?\237n$\371\337\004\305?\301\207\226e\035\310\264?\300\027.\304M\272\303?\314\366\216\302\310^}?l\037U\301f\210\242\277\tJU\003bL\267\277\035z\346@j\356\265?\324\033 ^\370=\306?M\214\300\263\2303\301?dS\225S\216\013\253?\300\217\017\037}\270\274?\300\r\207^\254\223\243\277\315J\007\251\343\312\306?I\000\302}\240\271\221\277"
      }
    }
  }
}
node {
  name: "normalize_element/component_16"
  op: "Const"
  device: "/device:CPU:0"
  attr {
    key: "_output_shapes"
    value {
      list {
        shape {
          dim {
            size: 63
          }
        }
      }
    }
  }
  attr {
    key: "dtype"
    value {
      type: DT_DOUBLE
    }
  }
  attr {
    key: "value"
    value {
      tensor {
        dtype: DT_DOUBLE
        tensor_shape {
          dim {
            size: 63
          }
        }
        tensor_content: "\377K\245\341\214\310\337?\006\345\307\251\347\356\337?-\177\031\347\312\373\313?\233\034>\351D\202\343?L\203G\300\215y\347?\\\260\257\320b\204\311?\367D\360\"\300g\324?\366\000\'%N8\331?\353\251\366e@(\275?\203\313:N\227\346\274\277I\255\305\341\253\241\302?\274\252X\241\355=\347?C\341\324\203Y\323\336?\0036\020`\313\n\266?\261Ap\246S\350\334?o+{\032I\345\261?=G\344\273\224\372\336?\340\246X\2302.\315?%\307\2045!o\311?\2617\311@\262A\253?\336\245\323_j\204K\277s}}\177\023\242\243\277\335n\223\233\362\262\302?\000\023\237\330\226C\264?\351\354\275(\334S\207\277d\220`O\340\302\323?H\232\252A\271\351\260?\371\362\206$H\337\301?X\262\276\334\202\300\341?Y:\313\236\227\231\226?v:\353\256G<\341?\252\016w\375\233\372\347?g\250@\034\332\266\334?\356\'\2765\013\017\316?\343\375\270\375\362I\350?\005\253\003\203\030\246\315?\261`,\035\275+\350?\245\314\027\305\274\230\335?\244\034i\374\004H\257?Y\302\332\030;a\335?\035s\236\261/\331\346?\264z\003\243\375U\330?\001\313B\"\n9\333?U\352H\344qG\350?\261\322\356\241\216\330\312?\0104}\033\007\003\347?\335#\233\253\346\271\325?I\0017\305\302\024\330?\201\005\375\274ZKh\277Dy\223\235\206A\304?\303n\022b\262\341\305?\326\330N)\351@\312?\020U[^w\302\313?C\'|\235q\355\322?H\201\252v\362\216\346?\215Zik\247Z\273?CX%B7\274\221\277-\231\337@\2631\304?\234\302\347\332Y\254\322?\316n\014\205\370U\316?w\365K@##\346?\347\244\275\342%\017\303?\023\334\243\222\225z\340?"
      }
    }
  }
}
node {
  name: "normalize_element/component_17"
  op: "Const"
  device: "/device:CPU:0"
  attr {
    key: "_output_shapes"
    value {
      list {
        shape {
          dim {
            size: 63
          }
        }
      }
    }
  }
  attr {
    key: "dtype"
    value {
      type: DT_DOUBLE
    }
  }
  attr {
    key: "value"
    value {
      tensor {
        dtype: DT_DOUBLE
        tensor_shape {
          dim {
            size: 63
          }
        }
        tensor_content: "v\271#\304\336\211\226?\346\220\212\376\315]|?\256\260\350\357\010\033\265?\354d}\276\276\272\245\277\224Q\300\321\351\324\301\277\036A\"TF\257\265?|Y\003)\353\026\221\277i\236h\306\276>\204?\214\341E\272\372\014\302?(w\0178a\256\224\277\1777Yz\237p\266?\241\356\207\310~P\301\277_f3\342]\211\252\277iq\3060\'h\332?\346\325\272\206y\214\207\277I\302\370H\3162\302?\014}\311)\256\350\264\277\373\230`Os\246\214?\344\225\303\245e\317\230?\205\2312G\301\031\275?u\r\310\230\232\010\306?:\002\312<xA\226?\2570^\242c\317\246\277\250\326N\326\240\226\305?t\336s\036\035p\300?\231\343\306A\312\316\243\277v\332\"\202\324\232\326?\023\277\275\306\211\212\331?\225\256\274\241T\210G?\265\265t\273Mn\222?9\031\250\316\233q\253?P\370\021d\251\232\225\277|}\255K\215\320\227?r\233H\347\376\025\224?\243\035\334B\374h\263\277\234\005n])D~\27704\365\277\376\031\253\277\305\273\373\232\347\263\220\277Q\273\343=\234z\326?\246&zFF\372\201?\224\367\372%\245J\227\277\017\363\255[y\323\201?T\300\342\025-\345\265\277%a\327\335\331\252\307\277rk[_\347P\253?\002\010\352W\344\036\233\277\251W\200\245\251T\324?\221C\243\277\300\301\325?\346\262,\363\261\026\301?\327k\361^\362\225\267?}\3527\227\013*\250?Y\000\256\277\200\271\241?n\265\216w5\343\212?k\230l\377tJ\230\277/\006\305E\244\\\276\277\327<\036e\212Z\314?H:\034\300\317v\234\277K\330m\006n\223\324?\335:\346\3318$\307?\370K0A\262%\320?\315s`\023{c\212\277h]\304\363)2\261?\364\326\351\325:P\261\277"
      }
    }
  }
}
node {
  name: "normalize_element/component_18"
  op: "Const"
  device: "/device:CPU:0"
  attr {
    key: "_output_shapes"
    value {
      list {
        shape {
          dim {
            size: 63
          }
        }
      }
    }
  }
  attr {
    key: "dtype"
    value {
      type: DT_DOUBLE
    }
  }
  attr {
    key: "value"
    value {
      tensor {
        dtype: DT_DOUBLE
        tensor_shape {
          dim {
            size: 63
          }
        }
        tensor_content: "x\251\"&\362.\346?\244\353x\202\263\252\345?{\t\217\342\216\312\256?8\307o\300\235\032\352?\310(\215\240J0\354?\tP2\275\355\327\253?\216\337%\202\202\234\263?SXN\347/\331\344?\304h\346aR\220\264\277\367\313\'+\206\253\271\277\352vB$M\000\223?+\312[d\361\221\355?>E\006\240\356\317\345?\t\327\253\341\205\241\277?G2P\276E\014\344?)*U\201\336\304\301\277\341\357\027\263%k\346?\335\352\336/\013\222\310?\375\r\301\016\357{\250?\212\230\n\330\253\033\300\277\'\270\273{>R\314\277{q\332:\325\255\274\277\234\344`\231+A\240?\217\277z\375\305C\300\277\326}S\232\305r\311\277\203\253U\036Q\337\327?Q\302\310\242\033\247\300?\006L\340\326\335<\315?\311A\001\302$h\350?{\037\036\3642\253\262\277}%\220\022\273\266\347?\351\203\002B-\376\357?\023\tK\341\346\231\345?\340\035\256\017\312\177\262?\261{<>k\350\357?k\004\311\330\\w\262?\253 \253\000\204\364\357?e\346]P:\354\345?k\"\032z\0271\276?\243\376\376\275\251\342\344?\177\032R\240\252}\356?Z\275\303\355\3200\342?\203,\260l\213W\344?\037\315\344\335\211\300\355?JW\227\360\327\246\260?O\236G\377\252\007\357?\005/~Cv\030\327?H95#\305\270\333?\221\021i~\251\335\305\277\275\247B\241=\025\232?\005J\320\200\366\372\241?\237\327\n`\353\316\250?\r\253\025\3717`\256?\261,\177[\003\035\332?\301q|a\360\370\351?\023\332\322\240\361\017\273\277\263AL\340\333\226\261\277.\231\307\177\030\030r?[k\3775\346\026\300?\032\277\360J\222\347\264?\024\254\324`\330)\355?\006\365y\001\000D\225?N\030\203=\334\244\347?"
      }
    }
  }
}
node {
  name: "normalize_element/component_19"
  op: "Const"
  device: "/device:CPU:0"
  attr {
    key: "_output_shapes"
    value {
      list {
        shape {
          dim {
            size: 63
          }
        }
      }
    }
  }
  attr {
    key: "dtype"
    value {
      type: DT_DOUBLE
    }
  }
  attr {
    key: "value"
    value {
      tensor {
        dtype: DT_DOUBLE
        tensor_shape {
          dim {
            size: 63
          }
        }
        tensor_content: "[\3220\000}\360\303\277\361\274\361A\021\003\304\277{n>\001V?\262\277\n\203\021\177=\364\316\277E\007\013\304>\203\321\277L\234\344`\231+\270\277\363\375y\277v\025\344?\270\227\217\377]\272\323\277^\311\002\344S\031\303\277\203C\271~\013<\334\277_N\001\027\001\241\303?\267\230\237\033\232\362\327\277\227\231\312\211\023\353\310\277I\236\353\373p\020\320\277Y#\016\033]\014\310\277\034z\315\243\311b\312\277G\321^\330\365f\267\277\275\340\025\271\216\016\301\277\031\357}`}\262\326?\026\250 \232\324\253\341\277=I\025 e\237\313\277\223\253X\374\2460\344\277\001OZ\270\254\302\333?7\237!\271\210\261\307\277R\223\246b\337%\306\277\266f+/\371\237\311\277:\372\251;`(\327\277R\364]\235\245\234\321\277B4g;\256_\314\277\367F\245\2774\030\334\277\352\215A\304Y\223\323\277\025\004\352(b\354\315\277\301\004\311\226@%\301\277\275V\000[w\326\325?=_\365x\010\200\305\277\233\240\227\233\271Q\333?\242t\320\302\361>\312\277\262Ku}\366\216\313\277\214\242\305!4%\333\277w\267\231\247\306\215\312\277\365\2424\2438*\314\277\021\304X*\230F\312\277\335k\2247\270[\311\277%y\256\357\303\301\324\277n\217Z8{\255\305\277\337\247\211\302W\211\317\277\2501\347:\t\374\301\277G\304Z\235\030\351\300\277\301\267<\030\251\336\304\277\270~U\211\rq\274?\334\177\307d/c\321?x\374\213^\025\301\267?\373\217\216\243 \225\333?{~\275g\311\010\311\277`5;\367\303\364\316\277C\213\256\003\316\357\315\277\251MZ\300\035\013\324\2777\333\201\337+\337\313\277l\204\227C\377B\316\277\330;Pe h\311\277\244\314\335\0313\252\317\277\033\263\262\236\326D\247\277\217\262\016\337st\276\277"
      }
    }
  }
}
node {
  name: "normalize_element/component_20"
  op: "Const"
  device: "/device:CPU:0"
  attr {
    key: "_output_shapes"
    value {
      list {
        shape {
          dim {
            size: 63
          }
        }
      }
    }
  }
  attr {
    key: "dtype"
    value {
      type: DT_DOUBLE
    }
  }
  attr {
    key: "value"
    value {
      tensor {
        dtype: DT_DOUBLE
        tensor_shape {
          dim {
            size: 63
          }
        }
        tensor_content: "\312\242U\322/\266\305\277\032\001\221U|\211\303\277\307\375\375\030)J\303\277#\212E\343\273Z\304\277\007C>d\241\210\300?\256\226\"\226 e\303\277\223a\252\323`\236\264\277@$\256)\261\347\317\277w\317hHh\r\267\277H\273v\016\n\357\311?\323\310&z\222\324\227?,I\277\371\344\223\274\277\n\035K\212U\244\310\277\n\267\276@\367\202\321\277B\377\251]\270\030\313\277A\020\343\337\2561\274\277-\245W\230\370\202\271\277\205\341L\341{^\301\277\205=q)|\360\267\277\303H/j\367\253\305\277\2645\307^\224E\262\277d\034\247\021\310_\274?\244\025\252^(\247\272\277\020\030V\267\233\\\272\277\016\254H$\210\365\201\277##\220\340\200\365\260\277\2510\266\020\344\240\321\277\336R\265z\332#\327\277z\375\213\230\300J\304\277.\214\231\351\003n\305\277UL\347\273B\274\317\277\343\2768e,\242\303\277kX\337\002\001\331\323\277\035\032\232\333R\301\306\277s\367\224\367\314\355\272\277\216\014\356\336\274~\272\277\345\241\347\375\034\362\267\277|\317\016\331\274\201\314\277\002\247o\2006\005\323\277J\355\250\336\330\273\304\277j\221\006\032\340@\304\277\304\0219\267\350\350\304\277n\236\362\001\344x\323\2779\350\032\177\005]\276?\265\234\225\376o6\301\277(5jt\275#\310\277}\235\016C/L\333\277\311\315\313\274\260\020\332\277-&\207f\326\006b\277\203\340m\265\271\367\235?$\030*\246\242\026\234\277#Rp\004\3530\303\277\331\260q\300X&\253\277\203\215\251\303#T\303\277q\217\306\035F\363\301?@0h\235\310~\301\277 \264\036\276LT\321\2771\031;\237\t\346\312\277\205\232\3378Bi\313\277%\201\274\r 2\312\277\370\350\303iw\376\304\277OR\005H\331G\333\277\020\3066F>\361\302\277"
      }
    }
  }
}
node {
  name: "normalize_element/component_21"
  op: "Const"
  device: "/device:CPU:0"
  attr {
    key: "_output_shapes"
    value {
      list {
        shape {
          dim {
            size: 63
          }
        }
      }
    }
  }
  attr {
    key: "dtype"
    value {
      type: DT_DOUBLE
    }
  }
  attr {
    key: "value"
    value {
      tensor {
        dtype: DT_DOUBLE
        tensor_shape {
          dim {
            size: 63
          }
        }
        tensor_content: "\342\236:\230E\217\315\277\213\250\005\006{Y\313\277c\340ojV\354\331?\357\266\177#\211w\311\277S\234\376G\001}\316\277Qo\343\242\234\340\330?\342<\234\300t\332\320?`\r\006\215O\267\326\277\203\360\323~\214\265\323\277DvR\035z$\317\277\222\277\305\324\247\346\323?CA=>\240\272\254\277\257\006\007\377Kg\316\277\336\364\'$\253\270\257\2778\376\237\0366l\315\277-\346k\277Jx\321\277\201Q\325Fm\311\300\277cu\222J\004\354\304\277\304\':\036ul\324?\3319\264eL\003\313?\026\263\322b\370\241\320\277.`<bx\225\302\277\3619\207\235\357\310\326?N(D\300!\224\320\277\273\334\273a6\234\320\277\274\217\006dm\233\322\2773\200\"\334\205b\263?\006qK\036\251\230\021\277\263\214\375\372[a\311\277\242\320\221\3406h\321?]KmN\312I\326\277{\025\031\035\220\204\322\277\002\026u\275\237\340\313\277\027\0238e\260\232\324?\"\367\031\274T\021\320\277\006=\345\342\271\210\325?w\230\233\024\213\004\321\277\2636\225^\3767\320\277>\351\334\2364\225\267?*$\364\216\256-\317\277\363\215\215\345\002\274\322\277\314H\030a\345+\323\277p<eVk\270\316\277\331#\365\032\222\305\314\277~\302]\346\t>\315\277\313\217\360\244\"!\323\277\365\265;_D\277\241?\265D\333\357X\205\244?\255\217^?\212[\322\277\261\014\2739\2468\324?\214\333h\000o\201\323?mi\240\277\361\261\330?\275F\375\273_\201\323?Qs\013\300\263\373\324\277\353#KA\022\021\320\2774?H`\275\233\330\2775\364G\377h\313\321?\257o/\202)7\326\277\037\220\031\3427\211\331\277<\017\223\025h\034\324\277B\324\226\235\362&\322\277\363t\360D\367\311\327?\211\020\262\207Q\353\304\277"
      }
    }
  }
}
node {
  name: "normalize_element/component_22"
  op: "Const"
  device: "/device:CPU:0"
  attr {
    key: "_output_shapes"
    value {
      list {
        shape {
          dim {
            size: 63
          }
        }
      }
    }
  }
  attr {
    key: "dtype"
    value {
      type: DT_DOUBLE
    }
  }
  attr {
    key: "value"
    value {
      tensor {
        dtype: DT_DOUBLE
        tensor_shape {
          dim {
            size: 63
          }
        }
        tensor_content: "\305\306\376\252\n\252\272?z&\207\221Vc\276?\'\267\324\3363\324\324?*\326>W:#\313?\343\261\000]\244&k?\366:\261\240\223\322\322?\257\246\374\265\006\300\341?P\013\031 \265\257\265?\357l\362\010,\210\306?Y\221\243\311]5\213\277\272\371%f\346\027\314?]\253\005B\'\216\242\277\205\340#(\237\232\302?\214\3463f3\003\314\277\373\353\221\3357\004\302?\213\214\253\035\007\326\304?\243\324w\341{}\320?x\2308\352\317\033\277?\'M\305\276KF\316?m\2364\036\266>\243?\013\363# T\031\264?\016g]\'\036\345\261?r\244T>\333U\271?\3478\267\t\367\312\306?\026\356\205\227\032\200\266?\317#\322x\032\227\305?\361\213\"\326\250(\317\277\351tjx\304\262\313\277\347a6;1o\305?\247\227\035\204\256\264\257\277L\330\206\243\016\037\305?\312\2627c^\350\305?\374-%\276\037&\240?\324\312\316\354\004E\321?\201$.\370\033\n\303?\036\304J\334\225#\317?\027\221\264]\231\236\312?\270\324\030\337\335\353\275?rx\265\232}7\317\277v\265hC\366(\307?\034\032?\"\340\357\310?N|9\334\334R\306?\260\273C\001\020\264\240?\313Z\r\000\212\316\261\277fr\203\0049\346\304?$\257sx\255\251\306?i_\016\365\232\242\266?\246\267?\027\r\031\266?\271\200~|\225\276\266?\013\217\303\201\014t\316?\273\355\245\235X/\311?\370\2522\337\003,\320?\001\224\226\374\025S\315?\317\277l!\031\211\252?\241\271\266\006\242f\221?\306\n\351\266e<\306?H\034pe\242k\312\277\347\303\222\366/\336\273?H|\274\312\271\030\305?\017\321\307\000yD\311?\233`\315;-\303\311?V\340\330q\313`\261?w\240o\207]F\317?"
      }
    }
  }
}
node {
  name: "normalize_element/component_23"
  op: "Const"
  device: "/device:CPU:0"
  attr {
    key: "_output_shapes"
    value {
      list {
        shape {
          dim {
            size: 63
          }
        }
      }
    }
  }
  attr {
    key: "dtype"
    value {
      type: DT_DOUBLE
    }
  }
  attr {
    key: "value"
    value {
      tensor {
        dtype: DT_DOUBLE
        tensor_shape {
          dim {
            size: 63
          }
        }
        tensor_content: "\324\211\272\305\262\317\342\277\364\214\032\237\013\233\344\277_\001\226\246R}\343\2778\236\317\200z\263\350\277\006|#_\256\352\340\277[\365oMp\340\341\2774uh\242\031\025\352\277\220\322\225\235\270[\350\277/S\356\231\200\372\344\277\t\354\275:\277\217\330\277\256\253U\375B\266\340\277q\227y\202/\262\342\277N\362#~\305\232\353\277~\376\336\032\226\016\263?\r1\003:8\375\351\277R;O~\203\335\343\277\330\354\355;+\216\357\277\014i\236m\1778\344\277Lj\252\037\202G\340\277\217xh\016\377\237\322\277[\262*\302M\206\336\277\314\250\246\342\316\336\334\277\000\367\341\305g\327\340\277\324t\207^\220\036\345\277\213\311v\031YM\340\277k\357\266\177#\t\342\277\263h2\312\320\004\302?\323\252L\347y&\250?t\240=M\034/\347\277;m\317$\230\007\307\277\350\311N\242\322\306\354\277\242\260\315\276\331C\352\277\241\203p\375\242!\346\277\361\022\234\372@\262\340\277\346:\256\302=\241\352\277\300\214\316\236p\273\341\277\356C9,h5\353\277\354gV[VF\353\277\246\261b]\201\r\301?<\t\266[\334\020\346\277\036\341\264\340E\377\351\277A\325K\000\274\r\351\277f\375\177\377Z\234\346\277q`\315\\;l\342\277\207\034\266\210\203\337\343\277\0073\\\323r\226\351\277\357>\"\001\376D\335\2779\346e\342\220l\335\277\241{ \303t\353\337\277\245!\231\304\017\204\341\277\271\031n\300\347G\341\277\232D\275\340\323\334\337\277\253\372\246\372\337\233\342\277\002j\346\240\266S\336\277f\301\304\037E\035\340\277\006[6\204t\002\346\277p\325\320a\031\366\263?A7\352\327\214\302\343\277\0042\001\340T\233\352\277\241b\203\"i\371\344\277;~^\247GI\351\277FS\214\337S\272\245\2770\254\321atO\357\277"
      }
    }
  }
}
node {
  name: "normalize_element/component_24"
  op: "Const"
  device: "/device:CPU:0"
  attr {
    key: "_output_shapes"
    value {
      list {
        shape {
          dim {
            size: 63
          }
        }
      }
    }
  }
  attr {
    key: "dtype"
    value {
      type: DT_DOUBLE
    }
  }
  attr {
    key: "value"
    value {
      tensor {
        dtype: DT_DOUBLE
        tensor_shape {
          dim {
            size: 63
          }
        }
        tensor_content: "+\214\312\331}?\303\277\365\253\316\244,\307\300\27773]\374+\363\332?u]\220\336\204\003\241\277\250Gdi\361s\300\277\324\275\251\243>\344\332?\2066\204S\264\254\274?(y\032\325\216\007\326\277\267\347\231a\032\273\274\277<\337\2118!\035\303\277L\013\250\2010\201\324?%\023\"\246e\240\303?\220\301\006\033\tz\317\277\016\244\213M+\205\315?\024\225\rk*\213\314\277w\265\201\340\226\264\267\277GD\010\372\321\021\307\277_d]7\000v\306\277\362u\000a3\202\317?\227\331\357\242\022\313\314?%\315\037\323\3324\244\277\372\331\232=h\'\227\277\345\334?y\314\376\311?\336I\227@B\373\262\277\315B\226`\314q\266\277\305c\365\375\212+\326\277\0244\271Z\037=\325?\204b+hZ\342\322?\000_\237s\226\335\240\277;]P\276$\276\307?0\022\373\200\027h\321\277EE \207Va\304\277\3246\325\3053\211\312\277\037U\301f\210\374\316?\244\224ke\035i\310\277&\274\353\t\236\204\315?\255\027C9\321\256\304\277_\316\317\201\243,\320\277\354\204\331\374\246M\326?\247\323\364\270\363\355\276\277\327\207\365F\2550\304\277l|\344\336\025\344\321\277\253\rg\341_B\321\277\372\210\014i\\Q\245\277\n\366\200\365\217p\310\277\016V\224\371\344\264\277\277x\262@`\212\227\321?\233\023\305\3659\210\322?\362\022\326\245\312 \273\277\225\353\320]\320\n\326?\274\033\260P\020\341\321?\304\306\304\377\200\273\326?\025\037~\202\264\224\313?C\207\310\002\211\232\330\277\3563\272\305\364k\307\277B\006v%\2279\314\277|@f\210\337\244\301?\267\034\255?\311\352\242\277\322\227\367\233\375\177\322\277R\247\260\020%s\257\277\360\267f\300\223u\300\277\371(\351\202v^\324?&u\300}6\325\311\277"
      }
    }
  }
}
node {
  name: "normalize_element/component_25"
  op: "Const"
  device: "/device:CPU:0"
  attr {
    key: "_output_shapes"
    value {
      list {
        shape {
          dim {
            size: 63
          }
        }
      }
    }
  }
  attr {
    key: "dtype"
    value {
      type: DT_DOUBLE
    }
  }
  attr {
    key: "value"
    value {
      tensor {
        dtype: DT_DOUBLE
        tensor_shape {
          dim {
            size: 63
          }
        }
        tensor_content: "\017R\374\207\0201\225\277!\000\240\331a\213\232?\020\2556{w\226\272?J>F\336\021\314\223?\265\207\336^\251\031\325\2771\344}\301\023\037\265?\324\311c\027V;\327?\327<\273:\317\361\326?{\354\202O\340\216\211\277\005\337\362`\244z\312\2772\013\006:\007\215\266?\327\301\301\336\304\020\314\277\254\3005\034;\215\327?\t\267\347\277(=\277\277\037\245+;q7\324?\204\024\234\367\210c\236\277 \317.\337\3720\337?\226#\246<\241\364\302?\002o\026i\301\017\275?\376\'\342!J\003\313\277\0236\217\005}\320\277\277#\370\000Y_\017\313\277\300\345[f\253\247\233?\231\227\034\247\203\035\232\277\304\261O|\214$\304\277\220\201\341\001\nZ\322?\266~]\372U\210\275\277m\277B\007\331\211\255\277\263\332\250\300\\\232\213?\231d\303\036\003G\314\277p\010Uj\366\300\334?\243\357\250\020\023\375\264\277\240N\036\273\260\032\320?\347\357s\266_\302\303?\377\353y\212^>\300\277,\364=\372\221h\302?\267\321\000\336\002\t\260\277\337hlTL\312\325?\014\360\366\203.\237\276\277\032\236\342ao\034\266?\3059\013\367\241=\263\277\375=g\301z\022\332?\233\327\307\371Q\303\316?\207\3743\203\370\300\327\277\240@\257\252$\323\267?!C\"\310\234\302\261\277QE\032\252\234\325\305?\273\374^u\252\035\307?\300hf\230\240\247\301\277g\037\022[\315|\270?\247\356\343\313\270g\266?\320\2149`;>\263?\375\355\374\354\221\027\300?ro<\247r\275\306?\027\317E\350\014\261\324\277\277\255\235#P\317\231?\210\202|}ko\320\277\317V:,\310\'\200?\231\311\242v\340\230\301?I\312\340\237\207\027\275??\360\306\274m*\242\277\207\331.\341\216?\263\277O[e\236C\366\336?"
      }
    }
  }
}
node {
  name: "normalize_element/component_26"
  op: "Const"
  device: "/device:CPU:0"
  attr {
    key: "_output_shapes"
    value {
      list {
        shape {
          dim {
            size: 63
          }
        }
      }
    }
  }
  attr {
    key: "dtype"
    value {
      type: DT_DOUBLE
    }
  }
  attr {
    key: "value"
    value {
      tensor {
        dtype: DT_DOUBLE
        tensor_shape {
          dim {
            size: 63
          }
        }
        tensor_content: "\261\222\243\301\354\354\256\277:\231\307\200==\252\277OZ\270\254\302\346\321?K0\237#\'P\246?\221b\205\375\314\220\224\277X\336]\200\340\036\321?\267\373,\001\276|\311?\327\242G\204-\023\325\277\371\367\201\372\202U\224?\311-\234Zl\311\307\277^W\376B\260\246\320?\200|*#\005\201\313?V\0021\"\264\222\320\277\222M\003P\3269\332?\246\312\275\341\272\271\312\277\272\345G]\"\207N\277\031\343&\027!D\316\277y\255c\340\251\225\304\277o\024r\010\311\300\317?U\226S\310\266\210\265?t\376\232j5=\263?\257}\001\275p\347\302\277\325\216fU\031\000\304?\302\202O\001\235:\230?j_\'\222;\256\240?c\232\247BU/\331\277j\372\252d\031\005\332?\350\237\"\177\027S\340?\227\246\357\322\331\013\260?\261\205\305M\262z\204\277J\206\261\277\313\020\310\277\337b\367}5\220\264\277\3715/\332%\242\304\277\273\354\031\272\300\202\316?\304\264\220\374\230A\277\277e\323\000\224u\356\312?\231\002%G2\222\266\277\243+\307\032\344\344\317\277\341z5\2740\004\332?\236\262\266\003Wt\247\277!\364\374\001\300\305\265\277\356\023\366\243\227\207\316\277\3606\312U\207\267\323\277z\245MQ\005\016\272?\205u\312@\361\245\275\277\317=\264\'2\207\225\277\342f\310\343/N\333?D\251\030B)\365\334?\304oO\377uH\252?6\222F\375\334m\321?\276\210S9/\306\317?\337\244\355\210\330\232\317?\247b:\337\025b\314?\354\366\335\235J\300\332\277\tJU\003bL\267\277\345\264\206\326\263\265\261\277\231\275\377\236>S\256\277\274G\r\330\233\271\305?N\345\3764\377\371\301\277\t \250_\221{\266?\353\375A\202\264\217\245\2776\307\177\242.\251\311?\016;\000\240\222\014\317\277"
      }
    }
  }
}
node {
  name: "normalize_element/component_27"
  op: "Const"
  device: "/device:CPU:0"
  attr {
    key: "_output_shapes"
    value {
      list {
        shape {
          dim {
            size: 63
          }
        }
      }
    }
  }
  attr {
    key: "dtype"
    value {
      type: DT_DOUBLE
    }
  }
  attr {
    key: "value"
    value {
      tensor {
        dtype: DT_DOUBLE
        tensor_shape {
          dim {
            size: 63
          }
        }
        tensor_content: "S\377\305\330\256u\303\277_\271\030\342\334O\267\277\364\252.\335\255\367\253\277\006\205A\231F\223\310\277\2113u\r\351\346\340\277\264\241\261\342\223\317\257\277\001\241\026\377N\305\302?\030 \023!\\\036\342?\377\213\261]\353\234\314\277\207N2\346l\t\306\277\177\010\3419\252\206\236\277s\201\r\200\237\316\326\277=\253\026\"\361\274\341?\005;^~0\273\255\277B\345\343\003\320b\336?\335\257e\246r\342\313\277\364\340\213\202\"N\346?9\360\370cKp\241?Y\227\307Xuo\236\277\360u\347\303\222\366\325\277\002\371m\343\252\315\323\277\021 \\d\257u\321\277\271&Q\355\333b\265\277\213\227<\330A\251\315\277\036\036>\300\305P\324\277\203\253U\036Q\337\327?\245\354\265\037w\261\201\277\205X[\203\207\001\250?\275\017r\244T>\307\277\362\247\327w\217}\322\277\367\000\335\2273\233\344?\370\330D\003\004\265\322\277\273\231\260\201\2350\336?q0;\216\2268o?F\271\2177Tg\327\277n\201]}\327\310{\277]\312\320\343\275\213\322\277\256%\211\312+<\341?\035\205\n_v\207\224\277;/\374}R/\266\277\236\241\217d\034\304\322\277\211\240\244\237\364N\343?f\264\033\236\332p\332?\341?\202\207\016&\342\277\330W\252M\224k\261\277*\000\347AQ\213\323\277\030z\006\005\214\313\300?[\317\357\177p\323\304?\224*\264 R\333\321\277K^\266\000\341\001\243\277@\340D\236k2\244\277[\310\n\033\361\246\267\277\313)\241\276\334\\\215\2771\217\241\010N\"\323?8ag\257\343\244\340\277\350\260o\345\364\216\304\277\013\"\265\375\351\316\321\277\003\017\343\240J\356\305\277\334\033S\342\000\033\260\277;ie\353\256&\267\277\035s\001\334\352\201\320\277;p\020\245\244\244\313\277hB\356}\005\004\346?"
      }
    }
  }
}
node {
  name: "normalize_element/component_28"
  op: "Const"
  device: "/device:CPU:0"
  attr {
    key: "_output_shapes"
    value {
      list {
        shape {
          dim {
            size: 63
          }
        }
      }
    }
  }
  attr {
    key: "dtype"
    value {
      type: DT_DOUBLE
    }
  }
  attr {
    key: "value"
    value {
      tensor {
        dtype: DT_DOUBLE
        tensor_shape {
          dim {
            size: 63
          }
        }
        tensor_content: "\334\266\020`h\340\327\277\230v\336\204Ju\327\277\207\361\201\272\324\312\313?P\334\226mLt\331\277\22545\277P\226\340\277\263\270\234\236\271\177\306?\030\006,\271\212\005\346?\224\332\213h;\346\340\277\253\336+\004\203u\323\277\030\272+\036\213\253\343\277a.N!\374\260\327?\243\024\000%6\206\335\277\343\225\332A\333\240\327\277G\016\246\233\243\022\274\277\206]o\366b\203\326\277)\206X\273\3653\327\277C U\034 ;\320\277o\240\300;\371\264\324\277$T\272\005\\!\341?T\001\265 \255T\333\277\201O\377\233\017\266\325\277\340\333O!\262\243\347\277<@\244\235\242<\342?\001\332\271\335\211!\326\277z\217\320\"\035V\323\277\360\"\002\304\023p\332\277\222p\306\325mu\310\277\322\020\237\205N\031\266\277\2542:\275\336\377\327\277\226=\256\262[p\325\277\254\277N\1770\317\332\277\n+x~\017\346\333\277\200\366\341(\222\022\313\277\024\316n-\223a\340?g;\360{\345K\327\277\273\355c\201\206I\342?\345]7\235K\016\332\277\351%)]\270{\331\277\276\240\205\004\214.\320\277%\316\212\250\211\276\334\277\'\372\370[m\013\332\277\'d\255\302\342\307\322\277\005\300\374>\261\010\333\277\261\374\371\266`\251\341\277Zi\357\337\376\224\330\277\2553[\005s\254\333\277\304\232b\277;\272\265?\251\020\321\340\235\031\264?\254\265\346}\322\277\322\277\225\353\320]\320\n\326?\020\203\361\272\033\327\336?\036\372Q\201QQ\326?\0202=\037m5\342?\366%\033\017\266\330\327\277\0362\345CP\365\335\277\027!#=\230V\335\277\204\233\2558\254[\315\2778\261\321\203\314\037\327\277\221\360\275\277A{\340\277:\202\n\375\002\360\326\277P[<\037\022|\333\277!\346\324\306\277l\306?\373\365\371\336\225\023\323\277"
      }
    }
  }
}
node {
  name: "normalize_element/component_29"
  op: "Const"
  device: "/device:CPU:0"
  attr {
    key: "_output_shapes"
    value {
      list {
        shape {
          dim {
            size: 63
          }
        }
      }
    }
  }
  attr {
    key: "dtype"
    value {
      type: DT_DOUBLE
    }
  }
  attr {
    key: "value"
    value {
      tensor {
        dtype: DT_DOUBLE
        tensor_shape {
          dim {
            size: 63
          }
        }
        tensor_content: "7\252\323\201\254\'\322\277,\n\375DL\246\321\277\372\001\027}h\023\320\277\334J\320\333\257m\320\277n\202\256G\241\250\\?\203a\310\003\364o\317\277Q\317\367]U\031\255\277\2366\262D\312\303\324\277\354\326\031|\355\233\320\277w\005)\030\230\214\224?\314\203.\300\302r\253\277\204M\266\344e\213\327\277\316uu\"\034\216\323\277\002\207\253^\331\240\336\277\361V\310\"n\312\324\2772\212\212\335\343\361\321\277r$\002\233\224~\301\277\230\331\255\206@\005\315\277wWMB\257\340\310\277\211\037k_\243\031\340\277IM\026R\331\213\321\277\357(\204\304,j\302\277X\377\010?H\001\323\277 \212\270\357\007\362\320\277\220i\216(\304\016\307\277p\236$<%\220\301\277\317\006\r\273\367I\337\277\263\270\234\236\271\277\341\277\212 \316\303\t\314\316\277\337x-\327\221\331\335\277\031j\271\330Y\231\323\277\343\023\272d\177\215\325\277\246J\357v\030n\340\277W\177\235\376`\036\317\277\224\342\333\242i\334\317\2770T\264(\242\025\312\277.\236\356\372\324\312\320\277\331\225\371\2735\270\326\277\364v\276~\014\346\340\277\214\325(\034(\215\317\277q\37760^\030\324\277\033\266\363\036\343a\310\277-:a\333\005w\334\277\337\036\3379\357Z\243\277=\337G\034OW\320\277*\032\255\2339\201\330\277\214t\263\3753\\\340\277>\250\325\241\344\237\337\277\252F\257\006(\215\306\277\265\341\321B\331\306\252\277\037X\237\274\3310\301\277\275\353CI\016y\317\277\255Z\210\304\363\210\304\277\354&B4\004\021\323\277\252\310\301\335{\356\177?\251+\341\001L\266\326\277\301\t;{\035\347\340\277\376X\322\233\233@\332\277u\231\263\241\017\324\332\277rj\014\337g\201\324\277\tGV\237\'u\326\277@\213\000\0021\004\342\277\016D\036\332*5\314\277"
      }
    }
  }
}
node {
  name: "normalize_element/component_30"
  op: "Const"
  device: "/device:CPU:0"
  attr {
    key: "_output_shapes"
    value {
      list {
        shape {
          dim {
            size: 63
          }
        }
      }
    }
  }
  attr {
    key: "dtype"
    value {
      type: DT_DOUBLE
    }
  }
  attr {
    key: "value"
    value {
      tensor {
        dtype: DT_DOUBLE
        tensor_shape {
          dim {
            size: 63
          }
        }
        tensor_content: "\025\017\275\377n\205\333\277\322\261\336\003\317X\331\277T\230\214\235\317\244\341?\n\335\200*\311\225\323\277$\320\303}\242\372\334\277\177r\312\222\357\010\341?\266qY\277x\n\333?\210t\2114;\234\345\277g}\3121Y\334\332\277\214\267\327zm\323\334\277h\200E]\357\'\336?J\300\236e\314\023\274\277#\200@\014\031\264\336\277!N\016<Jg\240?\346\177M1bz\333\277g`h\236\3617\334\277E\"~\017\250H\323\277\273y.|\022\222\327\277\224\017\244\377\243~\340?/\205#\"\3365\274?(\210\364\272\311\030\331\277ez\272\241\306\220\326\277\221\321Ce\252\275\337?\316\325^]x\322\334\277\266\323Z\301\004\250\327\277e!\225\275\0006\342\277\306\314\364\0017A\303?\274\000=\005\247\333\275?^TA\373G\025\326\277\300\271\226\373\252\375\304?\300fo\337YQ\342\277h\023\026\313\343\237\333\277_\225\260\333\014\034\324\277\341qY\236j!\337?\001\205\335$\304d\331\277e\202\310\277\"\301\340?8Xj\2034_\333\277\322\206&\375{\270\337\277\027\202=\242\031v\301?\342\0226\362/\270\335\277\021\251\314A\216\265\332\277H\230\263\210r\263\333\277\206\313\307AKO\340\277\3733j[ C\334\2776^W\037QY\334\277s,\316\234\036)\330\277\205\322\223\t*p\312?\223\002\311C\370z\311?(8\253\364\311@\330\277\275y`\266S\251\336?\206\037\275]\006\316\337?\315p\250\204\314\272\341?\333\210\'\273\231\221\336?\036\331\001|\\\200\343\277V\3237a\251\213\334\277\215b\271\245\325\020\345\277\364|\027\000\364\305\304?\177\032R\240\252\035\340\277\352\373x\001Y\274\346\277[\234\316\241Nq\336\277\241\006\333\241\304\233\330\277\324\262\367\332\032\356\335?\304\r\266\340^|\327\277"
      }
    }
  }
}
node {
  name: "normalize_element/component_31"
  op: "Const"
  device: "/device:CPU:0"
  attr {
    key: "_output_shapes"
    value {
      list {
        shape {
          dim {
            size: 63
          }
        }
      }
    }
  }
  attr {
    key: "dtype"
    value {
      type: DT_DOUBLE
    }
  }
  attr {
    key: "value"
    value {
      tensor {
        dtype: DT_DOUBLE
        tensor_shape {
          dim {
            size: 63
          }
        }
        tensor_content: "\311\271\342\034Tf\260\277\335\244]\335\225\203\257\277\367\206-\003\357`\276?\262\372<\251\243\241\242?ke>\367P\350\305\277\033\275\371\221K\261\272?\226\3775\305\210)\335?\355$\350P\002r\254\277\353\202\304\355\005\243\214\277`\376m\303\346k\301\277\310\233\272\372\312\346\301?M|\336\"j\201\327\277\212\345\371\200\376J\260\277\017\027-\376\276\330\333\277)\257\363A_\022\261\277B\347\261\206\0045P\277\230\310\036\004\221\203\304?\256.\201=!\231\200\277\22406!k\025\274?\365M7\334\211J\322\277I\213L#\332L\273\277\307\332\235\275L\367\305\277\\\341\341f\206\307\264\277\263\335e\010\305+\224?G\256\274`GN\253\277\261\215\262]%H\251?\232\362|a\215\216\334\277U\202\007\376\2365\334\277/\342\262?\215\321\242?\021\255\262B\323\n\326\277\302\034\310p\370\201\214\277\374snf6\300\301\277|\351\365@\216\032\322\277\356\257\201!i\277\273?!\211\207\305\342\026\260\277K4\307@>\353\274?NNM\177\177\025\262\277\201\262\010I\217t\271\277\213G\322\003Y.\335\277Z\264\361A~\037\234?\227\354\216{\251\216\270\277\345\007\360\016\327\007\267?\2563\031\351\240\246\311\277\030\267,\272P\324\314\277UN\030 \023!\224\277nt\306\336(\005\303\277\373|\316\274\240\256\266\277\004Jz\200=\022\265\277wz\330\035\350\'\254\2779\362\3359\326\275\304?Xj\346^\232\001\300?\372\371\010_\014\243\271?\223=\337\242\325\301\274?\213\027M_\266:\310\277\003]\271\346\247\233\311\277P\006\036Jz9\275\277i\356\370aJ\305\333\277\010\374\247<6\331\271\277K\034\273<\204\016\300\277XR\017M\260j\242?OW\373dZU\301\277\307\304\234V\300s\314\277\300\272\001\321Y\207\267?"
      }
    }
  }
}
node {
  name: "normalize_element/component_32"
  op: "Const"
  device: "/device:CPU:0"
  attr {
    key: "_output_shapes"
    value {
      list {
        shape {
          dim {
            size: 63
          }
        }
      }
    }
  }
  attr {
    key: "dtype"
    value {
      type: DT_DOUBLE
    }
  }
  attr {
    key: "value"
    value {
      tensor {
        dtype: DT_DOUBLE
        tensor_shape {
          dim {
            size: 63
          }
        }
        tensor_content: "/GvB;\351\325\277Y\306\341\'i\331\324\277\376\207\252N\275\344\340?\006<\233\033\364!\304\277\3173Q\337\215\340\324\277\325\227\000W\r\335\340?f \205\241\304\035\323?\273\346<\0005\267\347\277&\306\360\340@\253\320\277\217cw\303\256\024\325\277\346\247\202\233\326w\335?V\303\227\354L_\243?\'qo\341\355?\341\277l\310&\226\347\203\316?\007}\310\337\346\"\335\277\343\013I\034ht\322\277\3171\336^\353u\326\277\230\210T\244\004\365\327\2775Q\225\000F\341\333?X\237z\275^\216\302?=I\025 e\237\313\277\366O\303\371\314\300\313\277`,\004 \213@\327?`(7\274\346v\323\277\243cA@B\275\315\277\276\224\313\220tW\346\277v\332\"\202\324\232\326?\020#!\035`\336\324?0\215\364\334!\311\307\277|\364e\355\337\212\274?\200\032\255Y\035\257\342\2779\006\t\366\004.\321\277\277\313V\250\177\332\325\277\037\326\300\373O\343\332?\036\260a<9y\324\277\211t\303\337\304J\332?\223\0237\270\276Y\324\277\035\233\221\377\321P\341\277q\220\020\345\013\332\325?\344M]}es\326\277\t\337\271\377\341\021\322\277\276H\r\022G\303\335\277\035w\245\300]\321\341\277\356\323LR\364\233\321\277\250\234\202>\211\366\331\277\276u\366|jH\312\277\260\\\353b\005\005\326?\033[\031\236\250v\326?\\\317\010\035\021_\314\277U\236\345\036\267D\337?G\211\002\"i\234\335?%\264@\026\375\274\340?\272\220?\377\332M\330?U\203\223\3416\"\350\277\341\0130\177\307\250\326\277\344w\344Y\223x\340\277U\225\t\001\361!\266?\246\010\323\244\322\327\322\277\007\233:\217\212\277\343\277=\257>?\010\330\322\277w\305\306\233\200O\316\277YRI\3709\031\333?)\270\222\374\014\030\332\277"
      }
    }
  }
}
node {
  name: "normalize_element/component_33"
  op: "Const"
  device: "/device:CPU:0"
  attr {
    key: "_output_shapes"
    value {
      list {
        shape {
          dim {
            size: 63
          }
        }
      }
    }
  }
  attr {
    key: "dtype"
    value {
      type: DT_DOUBLE
    }
  }
  attr {
    key: "value"
    value {
      tensor {
        dtype: DT_DOUBLE
        tensor_shape {
          dim {
            size: 63
          }
        }
        tensor_content: "(\236\222\367\232\263\301\277\0329E&d\020\301\277\223\rZ\3762\316\263\277F\210\341\331\324/\253\277i\237\371b\020T\333\277\220\216a\004C\014\270\277\324\253u\240V\252\324?m\370\304\327*\203\301?\312T\301\250\244N\264\277\025\014|\177bh\321\277(\336\037\364\016\345\213?\205D5\200\022\272\337\277Ce\221`\211\013\271?\217\255\302\3019>\325\277\273E\375\201\264\367\265?\254F\341@i$\270\277u\"\034\016\246<\327?\340\223\373\333m0\246?xK\213]O2\225?\021)\274\272\031\244\335\277\004Fn\270U1\313\277\024\022\274c\251\234\326\277e\310-\275h\325\300\277\240\001\275\274u\010\256\277\234\036\014#Z\376\311\277\006\215p\305\213\246\304?\255q\221\326s\255\323\277\337vW,4\306\322\277\034L\002UU\310\212\2777\322\245\301e\374\334\277}\333\341\351t\244\311?E\303\275\215(\310\323\277O\331\300\210CW\273\277\252\316+\035\372\216\220?\006(p_\305\361\320\277\307\'\023\240n\354\244?\020\000\003\336U\221\321\277\027\203$?$t\263?\023\273t\233\211\014\324\277`\242j\211\317|\212?\026\211\246?=n\323\277\352\205\320{Bz\321?\022\342\234\241P\000\260\277\rc\034mf>\334\277\005\334[\340\336t\234\277\252\301\217\305\221\342\325\277\270\206\261\177\371\010f?\375]Vc4\353\231?\365\223Z\275\375\030\311\277\344\215\250]\007_\220?\213\016\263]\302\035\223?R\215\020~\337H\254\277\345\201\220x\356G\222?\275\333a\270\337F\271\277{U\035(\246\301\335\277\245\007p@le\302\277\366P\r\301\222\247\335\2770\336f\\\376d\270\277;\220q\234F \264\277\320\360\250)\260\235\260?G\323\217<\306\313\323\277[\312\236\251|t\322\277\375\262\007\234\235\363\322?"
      }
    }
  }
}
node {
  name: "normalize_element/component_34"
  op: "Const"
  device: "/device:CPU:0"
  attr {
    key: "_output_shapes"
    value {
      list {
        shape {
          dim {
            size: 63
          }
        }
      }
    }
  }
  attr {
    key: "dtype"
    value {
      type: DT_DOUBLE
    }
  }
  attr {
    key: "value"
    value {
      tensor {
        dtype: DT_DOUBLE
        tensor_shape {
          dim {
            size: 63
          }
        }
        tensor_content: "\224\312\312\345\365\226\320?\253r\251c\370|\322?\267\003\032\0211\n\340\277\270\270|\332\227\242\327?q\324\300E\335\275\325?\346\212\367\210=\331\335\277\202\177\235\335R5\345\277T\270/\261C\206\347?\321\376\254\2368\345\341?m7$b\010H\341?TEe\201~8\341\277\014\222\035\237\271\234\323?x\240\2512\347t\340?\265\245q\0346\331\323?v\325,eS\r\336?,\336#\366dY\337?\014&Y\342\\^\331?\3379\255>\313\361\324?\037\017\"\276\270\371\341\277\244\016\026A\250\372\265?g2\322AM\243\335?\245\335C\035\2611\336?\022\344\271!:B\343\277c\225\363A\246G\341?n\251\377\203z\300\336?\021#:\272\000*\341?P\347\345\013\265\201\322?\262\331.\300\200\026\320?\231\302\336\037J\217\326?k\252\275|\261\206v?ig\177=\262;\345?e\273\255\272/\243\326?]\\6|\003z\325?\241D2\201\256\177\341\277Y\034J\304\306\202\323?\260\265\255\034\020\027\343\277\241\031\037\301\350M\325?jsRNj^\340?\372cZ\233\3066\322?\223\274\245b\204l\330?\252\031\010\270\326\315\325?\252R\'^m\036\342?H6W\315s\304\342?\340Y/DV\320\330?u?e\004m\025\327?\304\203\240\202GD\327?\376\312\020\350\310\241\264?Z\023f5\270\010\267?\307\262\252o\252\277\340??\360\204\240\233$\341\277\237$\270\354kx\342\277s\023\2654\267\202\340\2775\r\345\237t=\342\277\325fR\371\215\345\343?9\203\330\374l\"\325?\314\023c\3647|\342?\346\303yY\217\322\225\277\345\014\305\035o\022\344?\205\266\367\004\344f\344?\306X}\340\360\003\342? \017\267\"\265y\327?\240\032/\335$F\330\277G_\234S$\272\334?"
      }
    }
  }
}
node {
  name: "normalize_element/component_35"
  op: "Const"
  device: "/device:CPU:0"
  attr {
    key: "_output_shapes"
    value {
      list {
        shape {
          dim {
            size: 63
          }
        }
      }
    }
  }
  attr {
    key: "dtype"
    value {
      type: DT_DOUBLE
    }
  }
  attr {
    key: "value"
    value {
      tensor {
        dtype: DT_DOUBLE
        tensor_shape {
          dim {
            size: 63
          }
        }
        tensor_content: "\375T\221\341\343\331\317\277\257\2253\210\315O\316\277\005\311\226@\245e\332?\035\215\350C\274\032\260\277\017\242\316?n}\310\277h\014\316;\251\212\331?S\275-?\r\253\327?@i\250QH\262\350\277}\221\320\226s)\301\277\301/?\201\301?\326\277\336\031\022\234\237\307\332?$\331\210\377\362\313\247?\026V\205a\033l\342\277\203\256\226\236]<\330?\270 [\226\257\313\335\277>\303\'\337d\002\307\277\'\204q\344?\254\331\277\365\277\371`[\367\326\277\320T\272\201#}\333?\235\331K\246Lb\233?W<y\201\'\347\271\2775\247\201\325G\026\323\277\240\\l\275S\177\324?\271Xj \n$\312\277\352\005\341\002\267\213\277\277xp\301c\211\330\351\277\014\225\034\003\364\263\332?\010\315*C\207\006\337?g\352;\3406\252\261\277\3125\242\007\200\"\233\277>\216\213\017X\336\341\277\204\3335|f$\304\277(\334\206\254\311.\325\277\330b\267\317*\263\332?\204\357\303bP\375\317\277\276\362\305\203\322\374\327?\"\001\376\204\016\225\315\277\357C\030\036\1772\342\277f\206l\244\225\220\331?\351\213s\212D\327\320\277\214t\026(\357\204\305\277\257\216-\025e\000\336\277\017<\245 \313\004\343\277\311(\th\246$\300\277\223\362\007\301\262+\325\277\010\021s\300\343\030\271\277\245\2269\2372%\334?H*[=\212\'\335?\246{!\r<1\266\277\032\220\326{\236\375\333?&\024\tCp\236\333?n\275l\\{\366\333?\366\036\025\234M\t\327?n\360\317Vo\036\354\277ze\007*\035\213\315\2770\264\235c\376\331\326\277<\010%\277\212\373\251\277\372;F?;\\\274\277\270\352\266\033\257\006\335\277\255\036\346\201~\225\302\277L0b\300\016s\303\277\232\000\313c0\263\324?\351\204\351\3367<\335\277"
      }
    }
  }
}
node {
  name: "normalize_element/component_36"
  op: "Const"
  device: "/device:CPU:0"
  attr {
    key: "_output_shapes"
    value {
      list {
        shape {
          dim {
            size: 63
          }
        }
      }
    }
  }
  attr {
    key: "dtype"
    value {
      type: DT_DOUBLE
    }
  }
  attr {
    key: "value"
    value {
      tensor {
        dtype: DT_DOUBLE
        tensor_shape {
          dim {
            size: 63
          }
        }
        tensor_content: "\257)\353\222\314E\317\277\320\2716\257Ef\320\2775\244@U;y\314\277\225\2034\276\212g\316\277\345!:\241cI\342\277\341\357\223z\201\237\316\277o1y\342\275\023\302?o\014\246\006?\026\323?\306y\356\363\316W\313\277g\257\210\253\024L\320\277x\021\236\267N\257\271\277\343?\264\301O\235\342\277,Q\213\373n>\317?H\033&\236\334\004\320\277\313e\202e\225g\315?`\024\2208\\\222\316\277\213_g\371p?\341?\235\317%\301\300\030\230\277l\272\330\223D\037\275\277\331\301\322\n\035E\342\277\205\277\025?|\017\326\277\354\303\325\\\311)\332\277/\321I\204\200[\315\277\323\325%\374\265i\310\277\335F\177?g\030\324\277R\001 \274\260\024\320?\246\245\250\351i\366\306\277\205\371\002\345|R\306\277j\335\243\212$r\304\277ag\257\343d\007\340\277\241\3371\033\350J\326?\346a\333\201\276\235\336\277\306\017|\251+\341\263?\355\346\322\215\352S\277\277-\323\212\312\341n\334\277\026\347=\010\340\352\264\277\225\201\301=\350<\335\277\225\\\2137\256V\317?\275\321\032\305jZ\313\2773H\207\250>g\275\277\245\300~_\216d\337\277U\332\342\032\237I\333?\336\207o\240A\274\261?Z\215\333\036s\364\341\277cd\311\034\313;\300\277\022\257>`\026\201\341\277\232I\246\323R*\211\277\333 `\233\367y\222?\224\365@\320vq\323\277A\357\014\241\352Z\277\277N\006\211\345}\271\273\277\306\213\205!rz\314\277D\260\201\337L\355\274\277\333u\262=::e\277m\352\331\377B\207\343\277\234\330\350A\346\357\314\277\301]\254^4\232\337\277\025\226O\301\247Z\310\277v\241\177\243\231\376\305\277\277h\250\264r\355\255\277\275\226\312\272\003e\337\277\311d\006d\216i\330\277\210}\247n\323D\335?"
      }
    }
  }
}
node {
  name: "normalize_element/component_37"
  op: "Const"
  device: "/device:CPU:0"
  attr {
    key: "_output_shapes"
    value {
      list {
        shape {
          dim {
            size: 63
          }
        }
      }
    }
  }
  attr {
    key: "dtype"
    value {
      type: DT_DOUBLE
    }
  }
  attr {
    key: "value"
    value {
      tensor {
        dtype: DT_DOUBLE
        tensor_shape {
          dim {
            size: 63
          }
        }
        tensor_content: "\016\220\334XX\211\310\277\374\317q\240M\257\317\277\035\217\235\3400\013\311\277m#;\302\253\035\334\277\277\364Q\241\025S\340\277\303?\266v\354\261\303\277x*;XZ!\344\277\233\'\317\243\177\325\336\277\311r\226\202\003\224\322\277\007\360\337\302\026\320z?\005\267 !\353\245\320\277o\336\223\342>\r\327\277JY+\177c\264\343\277{F*\245\312\344\323?6+\221\372\241\310\340\277\224\365@\320vq\323\277&=gf\301\037\355\277\244\301\361\245\205\205\314\277\024\236\351\210\360m\317\277\372\227IyRK\317?\004Fn\270U1\313\277K\315#!\277\356\263?\250[n\0277\301\276\277w\226j\260\272\037\323\277\365N\201\243O\361\316\277\370\243\013^\262\271\337\277\253\313)\0011\t\330?\216Kf\006;\217\321?n\262Wi\234\027\331\277\372[\310D\306\372\322?*\223u\223s}\346\277\204t\343\243\346\247\336\277\366\3118\343\207\314\326\277\035hp!\260n\311\277\rC\232g\333\237\337\277\212\317[D-0\321\277\307\324\002 \223q\340\277q\250c\276QE\342\277\330\201\265bf|\331?\337\307\217\000\207\263\322\277x\311Ir\n\274\334\277\322m.\243\375\264\341\277(\352q\204\261\252\330\277b4\247\242\3430\336\277]i\276\357\204\003\313\277\031\023\254\273\303w\332\277d\304\252\346\336h\277\277\361\222(I\021\370\301\277\013\317K\305\306\274\317\277>\365a |f\322\277}h\325\235\335\320\320\277+V\211\2118\343\302\277\252{\205\201\276_\321\277]\352\030>\277{\321\277}+\n\242\213Y\340\277\354\353L\343\017\255\325\277\366g\232\013\267\327\334?\333oH\376\273\031\313\277\314\234\211D\374\036\332\277Q\336\"\213\217*\322\277Y\221\352\236\351\343\331\277-\217\373w\371\255\316?y\262Y\375*c\353\277"
      }
    }
  }
}
node {
  name: "normalize_element/component_38"
  op: "Const"
  device: "/device:CPU:0"
  attr {
    key: "_output_shapes"
    value {
      list {
        shape {
          dim {
            size: 63
          }
        }
      }
    }
  }
  attr {
    key: "dtype"
    value {
      type: DT_DOUBLE
    }
  }
  attr {
    key: "value"
    value {
      tensor {
        dtype: DT_DOUBLE
        tensor_shape {
          dim {
            size: 63
          }
        }
        tensor_content: "K\215\301\244\247\261\223?:\342\024FH\027\250?\250Kkx\037\254\347\277\205};\211\010\177\326?JY\216\251\036\335\317?\245N@\023a\003\347\277@j\023\'\367{\347\277+\324?-\253\025\353?\342\302\211\001uw\335?\224\271}\177\030\273\345?\275\301YB%\013\351\277\370\022\021\233\033\025\331?\013By\037G\323\343?\357\274\001$\242\361\322?0\300\374\035\243_\341?\026\225?\245k\"\334?\356&\370\246\351\263\330?^\261\216\374$\353\313?`2\237\275D\246\350\277\033\370\261\177\'\370\262\277\016\225\220Y\007\321\332?\001\255\257d}\371\340?s6x\272N\376\346\277/GvB;\351\333?Z\2466\243\254\200\330?b\322\204\222n\360\346?=\205\267b\332\322\321?\3103?in\246\315?\266\327\304\372\355\010\324?t\224\346\003\300\200\265\277\312da\035\001\233\351?L%\023\"\246e\307?\214\354R<\221\324\330?\327\246\261\275\026T\351\277\366\2463A\036\213\274?\265W\027\2364\340\351\277\231Kh\232\311\232\306?\'\376\203\243?\217\343?\035\311\243#\322\231\325?\252G\330\277\004Q\306?FJ\0163\217W\306?\246 \344aF\335\344?\244\002\243\242\034\362\344?>\204D\034\343\261\332?L\275\023X\245\031\316?\322\377\017\003\237\227\312?c\253\262\214`%\272?\036\035\032\300\242\365\251?\352 3@7\356\326?\246.t\200\273\'\351\277\361:\321d\265o\351\277l\356\350\177\271\266\347\277\022{\221\236\\\022\351\277\206`\0130\342\361\352?b\365\252B\301\024\311?Kj\262\220\312\036\340?C\344\262\331\252\207\272\277\023\335\016hD\204\343?\001\337m\3368\251\341?)^emS<\341?N\217\267\246\212s\316?mH\355\217A\370\343\277\327=\005\002\225\030\336?"
      }
    }
  }
}
node {
  name: "normalize_element/component_39"
  op: "Const"
  device: "/device:CPU:0"
  attr {
    key: "_output_shapes"
    value {
      list {
        shape {
          dim {
            size: 63
          }
        }
      }
    }
  }
  attr {
    key: "dtype"
    value {
      type: DT_DOUBLE
    }
  }
  attr {
    key: "value"
    value {
      tensor {
        dtype: DT_DOUBLE
        tensor_shape {
          dim {
            size: 63
          }
        }
        tensor_content: "\262\370\020\376\214\245\265?\241\263\324\223\\r\244?\032)B\207L;\263?\232\201\241y\306\337\303\277Ja\336\343L\323\340\277\207\334-E\311\026\300?(\230s!=\242\334\277\204\367\260r\303J\302\2779X\305<\2470\240\277\007!\305\245\3173\322?\351U\317\017D\222\254\277\243\013E\025Y\306\313\277`\270)\324\211\272\327\277X\357&\256\031\317\333?2\307\227\365\007\357\321\277\365\021\327\265\346\\\254\277\235\3757\345\300a\350\277O\211\261m\315-\277?\207m\254@\004\207\221\277\307\275T\307\205\036\344?>\300\2034\235|\242\277C\366\213# \260\333?4Lm\251\203<\320?o\365\302\273a}\242\277{uDt\276\216\270\277\313`\020\201\270e\334\277\253\313)\0011\t\330?\374#%\2406(\333?\240\312\013\336\3079\275\277\221(\264\254\373G\345?1]\353\377\332\311\333\277\224\224Gy\336t\307\277\247X\332N\000j\274\277e\255\2128\351\362\234?\244\233\355\237\341\254\311\277\367\362\177jc\274{?W\016\251y\371c\316\277\251\303\310\232\252\336\323\2770\363\333\337\362\373\330?5\320[\300\364\213\246?\265\244\3458\236\354\302\277\345)\253\351z\"\324\277\206\254,\331\312\256\230\277B\313\374\233\376I\333\277K\211\311\300\246\363\301?\210\210\366\014<R\273\277gZ\007\254\301\240\310?\313h\303\345\241\204\302?\345\356s|\2648\272\277\314z\352\276\207>\262\277\217\223J@\341oi?+~\242\236}f\275?\263k\316\003Ps\225?\211\227\206e\\\006\300\277\264\030D\275C\376\337\277Ip\222\002\345\230\223\277ED\326\277\220\372\346?j\'R\263j\204\264?\362Q\334w`\216\231\277\344\202\022\352\022\243\241?\010\371\013\003\267j\267\277d\223\231^\244\010\333?\273\014\234\277Ka\346\277"
      }
    }
  }
}
node {
  name: "normalize_element/component_40"
  op: "Const"
  device: "/device:CPU:0"
  attr {
    key: "_output_shapes"
    value {
      list {
        shape {
          dim {
            size: 63
          }
        }
      }
    }
  }
  attr {
    key: "dtype"
    value {
      type: DT_DOUBLE
    }
  }
  attr {
    key: "value"
    value {
      tensor {
        dtype: DT_DOUBLE
        tensor_shape {
          dim {
            size: 63
          }
        }
        tensor_content: "\313\344\'\027[\357\315\277\\\231*\367\206k\311\277\\\253\034\336\234?\357\277h\324\266@\006\233\311?\201\003PH\017\234\233?\303\303j\342\323\322\356\277\246\202\345c\322\372\353\277G\2365\211\213m\353?\261\0176e<\204\311?A\357\215!\000\230\353?\232\357;\341\200\361\357\277q\363\370\203\242u\324?\331?\221\037\330\216\346?c\321\225\204\033[\322?U\334\372\341\316\342\343?\323\356\302\234\301[\312?\024\302\264\271{\312\316?n\310\341\301\206\017\246?\211\337\003*\322\263\357\277#\330\372\0320e\310\277\347\360\377\231\367\356\315?\341Y\212\375\310\241\345?=\025&B\331J\353\277\371\010\3026^\221\312?\311\216\317\\\216t\311?!4\314\032\006\375\354?\0244\271Z\037=\325?\354\256\005 b\301\320?m\377N\2037^\307?3h*\274\262(\304\277.\202\020\332\274\373\353?\226\224D\301O\306\240\277N\245U\343[\316\337?\206\202c\340\312\243\357\277\3502\322\336\"\250\265\277\206\025\023@\326x\357\277\276\324#\233\030\203\224\277\000\322\253\277-\261\346?cV\367\341\203\013\333? \023G#A\346\257\277r/\264c\270t\260\277\245\300\002\23020\346?\235M\242\271\251\334\344?\303d\354|&X\320?q\033\221\030\322\033\257?\274d\363\243\247\351\221\277\223\347U\370\216\365\310?s\226E\240{\210\266?\030\312\r\257\271\335\277?[\245\252\277\024\364\357\277\304\332\255\237\335\205\357\277\361\320\034\376?3\357\277\235m\311\005\302i\357\277\306\362\225\335\037\361\357?\222\001E\321\250e\210\277\237\266\374v\310\003\321?\377d\204\236j\200\302\277\326\362\024\203\321\266\334?\2115\246q\271\213\321?%\204\375\215,O\331?\367\344\345\331z\300\217?\307_\377\032\265g\352\277\177\034\305 M\010\325?"
      }
    }
  }
}
node {
  name: "normalize_element/component_41"
  op: "Const"
  device: "/device:CPU:0"
  attr {
    key: "_output_shapes"
    value {
      list {
        shape {
          dim {
            size: 63
          }
        }
      }
    }
  }
  attr {
    key: "dtype"
    value {
      type: DT_DOUBLE
    }
  }
  attr {
    key: "value"
    value {
      tensor {
        dtype: DT_DOUBLE
        tensor_shape {
          dim {
            size: 63
          }
        }
        tensor_content: "\'\202\274G\313\273\276?\350 \340\367\0144\277?\321\373\357V\320\223\313?\306\022\030\343\252O\242?\236Ki\344\220\340\337\277\225\346\301\243\2561\321?\210\272\315#\230\r\323\277; C\246\000\301\300?P\314He\024Pc\277\345\216\212AX4\340?\200T\232\377\035r\256?`IE\245\tB\310\277\037(}B\362\245\307\277\036\327+\321\376,\333?\275\250\376\275\353\236\273\277W\230\351Wm\020\217?\212\0167\226fi\344\277\246\312\275\341\2729\321?\210\317\204\303^j\301?\315OX\177\327i\357?\000\201\0302h2\221?P\001\213W\264\224\347?\275v\202`\002\265\340?jsH\334\366L\233?\022\266\247\3759y\253\277\255\266\254\014\364\032\333\277A\263o\027/P\316?\242|A\013\t\330\340?86\335\340{\347\256?\001[\024,\304\231\357?\237\010\034\350%o\305\277U\226t\326\237\253\226\2779\261nY\021w\274?\214E\025\366\233&\303?\305]\200\'t1\232\277\361>\330s\343\'\307?\250\303L\323Nj\270\277\2338c\337\350?\274\277%\002\027\\Z\252\304?\233\275\236u\256$\302?\352K 9ZT\212\277\007\031\226y\212\240\272\277\215bV{\032\250\317?g\356!\341{\377\333\277\002\037\315\242\301w\322?\263T\346\377\270q\265?\252\205\355\202\034\357\333?e\216\243A#{\331?U9\006\307\3312\275\277\243z\0106\360\233\253?\244V\024\2063\005\306?\363\220k;Tp\314?SN\305\327\350f\310?~\301\023\037D\327\256\277\210m\203\301\322\014\335\277a\336\302>*\023\274?\3547n\214\370\251\357?v\332\277W\0312\320?jN\3739G\025\306?\264\222V|C\241\320?\251\354\005\260\022=\261?\222\245 \211\250\023\342?k\210\340n\377\200\342\277"
      }
    }
  }
}
node {
  name: "normalize_element/component_42"
  op: "Const"
  device: "/device:CPU:0"
  attr {
    key: "_output_shapes"
    value {
      list {
        shape {
          dim {
            size: 63
          }
        }
      }
    }
  }
  attr {
    key: "dtype"
    value {
      type: DT_INT32
    }
  }
  attr {
    key: "value"
    value {
      tensor {
        dtype: DT_INT32
        tensor_shape {
          dim {
            size: 63
          }
        }
        tensor_content: "\002\000\000\000\002\000\000\000\003\000\000\000\002\000\000\000\002\000\000\000\003\000\000\000\003\000\000\000\000\000\000\000\001\000\000\000\003\000\000\000\003\000\000\000\002\000\000\000\000\000\000\000\001\000\000\000\000\000\000\000\001\000\000\000\000\000\000\000\001\000\000\000\003\000\000\000\003\000\000\000\001\000\000\000\003\000\000\000\003\000\000\000\001\000\000\000\001\000\000\000\000\000\000\000\001\000\000\000\001\000\000\000\002\000\000\000\003\000\000\000\000\000\000\000\002\000\000\000\000\000\000\000\003\000\000\000\002\000\000\000\003\000\000\000\002\000\000\000\000\000\000\000\001\000\000\000\002\000\000\000\002\000\000\000\000\000\000\000\000\000\000\000\002\000\000\000\001\000\000\000\002\000\000\000\001\000\000\000\001\000\000\000\001\000\000\000\003\000\000\000\003\000\000\000\003\000\000\000\003\000\000\000\000\000\000\000\002\000\000\000\001\000\000\000\003\000\000\000\001\000\000\000\001\000\000\000\001\000\000\000\002\000\000\000\003\000\000\000\000\000\000\000"
      }
    }
  }
}
node {
  name: "TensorSliceDataset"
  op: "TensorSliceDataset"
  input: "normalize_element/component_0"
  input: "normalize_element/component_1"
  input: "normalize_element/component_2"
  input: "normalize_element/component_3"
  input: "normalize_element/component_4"
  input: "normalize_element/component_5"
  input: "normalize_element/component_6"
  input: "normalize_element/component_7"
  input: "normalize_element/component_8"
  input: "normalize_element/component_9"
  input: "normalize_element/component_10"
  input: "normalize_element/component_11"
  input: "normalize_element/component_12"
  input: "normalize_element/component_13"
  input: "normalize_element/component_14"
  input: "normalize_element/component_15"
  input: "normalize_element/component_16"
  input: "normalize_element/component_17"
  input: "normalize_element/component_18"
  input: "normalize_element/component_19"
  input: "normalize_element/component_20"
  input: "normalize_element/component_21"
  input: "normalize_element/component_22"
  input: "normalize_element/component_23"
  input: "normalize_element/component_24"
  input: "normalize_element/component_25"
  input: "normalize_element/component_26"
  input: "normalize_element/component_27"
  input: "normalize_element/component_28"
  input: "normalize_element/component_29"
  input: "normalize_element/component_30"
  input: "normalize_element/component_31"
  input: "normalize_element/component_32"
  input: "normalize_element/component_33"
  input: "normalize_element/component_34"
  input: "normalize_element/component_35"
  input: "normalize_element/component_36"
  input: "normalize_element/component_37"
  input: "normalize_element/component_38"
  input: "normalize_element/component_39"
  input: "normalize_element/component_40"
  input: "normalize_element/component_41"
  input: "normalize_element/component_42"
  device: "/device:CPU:0"
  attr {
    key: "Toutput_types"
    value {
      list {
        type: DT_DOUBLE
        type: DT_DOUBLE
        type: DT_DOUBLE
        type: DT_DOUBLE
        type: DT_DOUBLE
        type: DT_DOUBLE
        type: DT_DOUBLE
        type: DT_DOUBLE
        type: DT_DOUBLE
        type: DT_DOUBLE
        type: DT_DOUBLE
        type: DT_DOUBLE
        type: DT_DOUBLE
        type: DT_DOUBLE
        type: DT_DOUBLE
        type: DT_DOUBLE
        type: DT_DOUBLE
        type: DT_DOUBLE
        type: DT_DOUBLE
        type: DT_DOUBLE
        type: DT_DOUBLE
        type: DT_DOUBLE
        type: DT_DOUBLE
        type: DT_DOUBLE
        type: DT_DOUBLE
        type: DT_DOUBLE
        type: DT_DOUBLE
        type: DT_DOUBLE
        type: DT_DOUBLE
        type: DT_DOUBLE
        type: DT_DOUBLE
        type: DT_DOUBLE
        type: DT_DOUBLE
        type: DT_DOUBLE
        type: DT_DOUBLE
        type: DT_DOUBLE
        type: DT_DOUBLE
        type: DT_DOUBLE
        type: DT_DOUBLE
        type: DT_DOUBLE
        type: DT_DOUBLE
        type: DT_DOUBLE
        type: DT_INT32
      }
    }
  }
  attr {
    key: "_output_shapes"
    value {
      list {
        shape {
        }
      }
    }
  }
  attr {
    key: "output_shapes"
    value {
      list {
        shape {
        }
        shape {
        }
        shape {
        }
        shape {
        }
        shape {
        }
        shape {
        }
        shape {
        }
        shape {
        }
        shape {
        }
        shape {
        }
        shape {
        }
        shape {
        }
        shape {
        }
        shape {
        }
        shape {
        }
        shape {
        }
        shape {
        }
        shape {
        }
        shape {
        }
        shape {
        }
        shape {
        }
        shape {
        }
        shape {
        }
        shape {
        }
        shape {
        }
        shape {
        }
        shape {
        }
        shape {
        }
        shape {
        }
        shape {
        }
        shape {
        }
        shape {
        }
        shape {
        }
        shape {
        }
        shape {
        }
        shape {
        }
        shape {
        }
        shape {
        }
        shape {
        }
        shape {
        }
        shape {
        }
        shape {
        }
        shape {
        }
      }
    }
  }
}
node {
  name: "buffer_size"
  op: "Const"
  device: "/device:CPU:0"
  attr {
    key: "_output_shapes"
    value {
      list {
        shape {
        }
      }
    }
  }
  attr {
    key: "dtype"
    value {
      type: DT_INT64
    }
  }
  attr {
    key: "value"
    value {
      tensor {
        dtype: DT_INT64
        tensor_shape {
        }
        int64_val: 1000
      }
    }
  }
}
node {
  name: "seed"
  op: "Const"
  device: "/device:CPU:0"
  attr {
    key: "_output_shapes"
    value {
      list {
        shape {
        }
      }
    }
  }
  attr {
    key: "dtype"
    value {
      type: DT_INT64
    }
  }
  attr {
    key: "value"
    value {
      tensor {
        dtype: DT_INT64
        tensor_shape {
        }
        int64_val: 0
      }
    }
  }
}
node {
  name: "seed2"
  op: "Const"
  device: "/device:CPU:0"
  attr {
    key: "_output_shapes"
    value {
      list {
        shape {
        }
      }
    }
  }
  attr {
    key: "dtype"
    value {
      type: DT_INT64
    }
  }
  attr {
    key: "value"
    value {
      tensor {
        dtype: DT_INT64
        tensor_shape {
        }
        int64_val: 0
      }
    }
  }
}
node {
  name: "ShuffleDataset"
  op: "ShuffleDataset"
  input: "TensorSliceDataset"
  input: "buffer_size"
  input: "seed"
  input: "seed2"
  device: "/device:CPU:0"
  attr {
    key: "_output_shapes"
    value {
      list {
        shape {
        }
      }
    }
  }
  attr {
    key: "output_shapes"
    value {
      list {
        shape {
        }
        shape {
        }
        shape {
        }
        shape {
        }
        shape {
        }
        shape {
        }
        shape {
        }
        shape {
        }
        shape {
        }
        shape {
        }
        shape {
        }
        shape {
        }
        shape {
        }
        shape {
        }
        shape {
        }
        shape {
        }
        shape {
        }
        shape {
        }
        shape {
        }
        shape {
        }
        shape {
        }
        shape {
        }
        shape {
        }
        shape {
        }
        shape {
        }
        shape {
        }
        shape {
        }
        shape {
        }
        shape {
        }
        shape {
        }
        shape {
        }
        shape {
        }
        shape {
        }
        shape {
        }
        shape {
        }
        shape {
        }
        shape {
        }
        shape {
        }
        shape {
        }
        shape {
        }
        shape {
        }
        shape {
        }
        shape {
        }
      }
    }
  }
  attr {
    key: "output_types"
    value {
      list {
        type: DT_DOUBLE
        type: DT_DOUBLE
        type: DT_DOUBLE
        type: DT_DOUBLE
        type: DT_DOUBLE
        type: DT_DOUBLE
        type: DT_DOUBLE
        type: DT_DOUBLE
        type: DT_DOUBLE
        type: DT_DOUBLE
        type: DT_DOUBLE
        type: DT_DOUBLE
        type: DT_DOUBLE
        type: DT_DOUBLE
        type: DT_DOUBLE
        type: DT_DOUBLE
        type: DT_DOUBLE
        type: DT_DOUBLE
        type: DT_DOUBLE
        type: DT_DOUBLE
        type: DT_DOUBLE
        type: DT_DOUBLE
        type: DT_DOUBLE
        type: DT_DOUBLE
        type: DT_DOUBLE
        type: DT_DOUBLE
        type: DT_DOUBLE
        type: DT_DOUBLE
        type: DT_DOUBLE
        type: DT_DOUBLE
        type: DT_DOUBLE
        type: DT_DOUBLE
        type: DT_DOUBLE
        type: DT_DOUBLE
        type: DT_DOUBLE
        type: DT_DOUBLE
        type: DT_DOUBLE
        type: DT_DOUBLE
        type: DT_DOUBLE
        type: DT_DOUBLE
        type: DT_DOUBLE
        type: DT_DOUBLE
        type: DT_INT32
      }
    }
  }
  attr {
    key: "reshuffle_each_iteration"
    value {
      b: true
    }
  }
}
node {
  name: "count"
  op: "Const"
  device: "/device:CPU:0"
  attr {
    key: "_output_shapes"
    value {
      list {
        shape {
        }
      }
    }
  }
  attr {
    key: "dtype"
    value {
      type: DT_INT64
    }
  }
  attr {
    key: "value"
    value {
      tensor {
        dtype: DT_INT64
        tensor_shape {
        }
        int64_val: -1
      }
    }
  }
}
node {
  name: "RepeatDataset"
  op: "RepeatDataset"
  input: "ShuffleDataset"
  input: "count"
  device: "/device:CPU:0"
  attr {
    key: "_output_shapes"
    value {
      list {
        shape {
        }
      }
    }
  }
  attr {
    key: "output_shapes"
    value {
      list {
        shape {
        }
        shape {
        }
        shape {
        }
        shape {
        }
        shape {
        }
        shape {
        }
        shape {
        }
        shape {
        }
        shape {
        }
        shape {
        }
        shape {
        }
        shape {
        }
        shape {
        }
        shape {
        }
        shape {
        }
        shape {
        }
        shape {
        }
        shape {
        }
        shape {
        }
        shape {
        }
        shape {
        }
        shape {
        }
        shape {
        }
        shape {
        }
        shape {
        }
        shape {
        }
        shape {
        }
        shape {
        }
        shape {
        }
        shape {
        }
        shape {
        }
        shape {
        }
        shape {
        }
        shape {
        }
        shape {
        }
        shape {
        }
        shape {
        }
        shape {
        }
        shape {
        }
        shape {
        }
        shape {
        }
        shape {
        }
        shape {
        }
      }
    }
  }
  attr {
    key: "output_types"
    value {
      list {
